{
  "version": "1.0",
  "truncation": null,
  "padding": null,
  "added_tokens": [
    {
      "id": 0,
      "content": "<UNK>",
      "single_word": false,
      "lstrip": false,
      "rstrip": false,
      "normalized": false,
      "special": true
    },
    {
      "id": 1,
      "content": "<SEP>",
      "single_word": false,
      "lstrip": false,
      "rstrip": false,
      "normalized": false,
      "special": true
    },
    {
      "id": 2,
      "content": "<MASK>",
      "single_word": false,
      "lstrip": false,
      "rstrip": false,
      "normalized": false,
      "special": true
    },
    {
      "id": 3,
      "content": "<CLS>",
      "single_word": false,
      "lstrip": false,
      "rstrip": false,
      "normalized": false,
      "special": true
    }
  ],
  "normalizer": null,
  "pre_tokenizer": {
    "type": "Whitespace"
  },
  "post_processor": null,
  "decoder": null,
  "model": {
    "type": "BPE",
    "dropout": null,
    "unk_token": "<UNK>",
    "continuing_subword_prefix": null,
    "end_of_word_suffix": null,
    "fuse_unk": false,
    "vocab": {
      "<UNK>": 0,
      "<SEP>": 1,
      "<MASK>": 2,
      "<CLS>": 3,
      "!": 4,
      "\"": 5,
      "#": 6,
      "$": 7,
      "%": 8,
      "&": 9,
      "'": 10,
      "(": 11,
      ")": 12,
      "*": 13,
      "+": 14,
      ",": 15,
      "-": 16,
      ".": 17,
      "/": 18,
      "0": 19,
      "1": 20,
      "2": 21,
      "3": 22,
      "4": 23,
      "5": 24,
      "6": 25,
      "7": 26,
      "8": 27,
      "9": 28,
      ":": 29,
      ";": 30,
      "<": 31,
      "=": 32,
      ">": 33,
      "?": 34,
      "@": 35,
      "A": 36,
      "B": 37,
      "C": 38,
      "D": 39,
      "E": 40,
      "F": 41,
      "G": 42,
      "H": 43,
      "I": 44,
      "J": 45,
      "K": 46,
      "L": 47,
      "M": 48,
      "N": 49,
      "O": 50,
      "P": 51,
      "Q": 52,
      "R": 53,
      "S": 54,
      "T": 55,
      "U": 56,
      "V": 57,
      "W": 58,
      "X": 59,
      "Y": 60,
      "Z": 61,
      "[": 62,
      "\\": 63,
      "]": 64,
      "^": 65,
      "_": 66,
      "`": 67,
      "a": 68,
      "b": 69,
      "c": 70,
      "d": 71,
      "e": 72,
      "f": 73,
      "g": 74,
      "h": 75,
      "i": 76,
      "j": 77,
      "k": 78,
      "l": 79,
      "m": 80,
      "n": 81,
      "o": 82,
      "p": 83,
      "q": 84,
      "r": 85,
      "s": 86,
      "t": 87,
      "u": 88,
      "v": 89,
      "w": 90,
      "x": 91,
      "y": 92,
      "z": 93,
      "{": 94,
      "|": 95,
      "}": 96,
      "~": 97,
      "": 98,
      "": 99,
      "": 100,
      "": 101,
      "": 102,
      "": 103,
      "": 104,
      "¡": 105,
      "¢": 106,
      "£": 107,
      "¥": 108,
      "¦": 109,
      "§": 110,
      "¨": 111,
      "©": 112,
      "ª": 113,
      "«": 114,
      "¬": 115,
      "­": 116,
      "®": 117,
      "°": 118,
      "±": 119,
      "²": 120,
      "³": 121,
      "´": 122,
      "µ": 123,
      "¶": 124,
      "·": 125,
      "¸": 126,
      "¹": 127,
      "º": 128,
      "»": 129,
      "¼": 130,
      "½": 131,
      "¾": 132,
      "¿": 133,
      "À": 134,
      "Á": 135,
      "Â": 136,
      "Ã": 137,
      "Ä": 138,
      "Å": 139,
      "Æ": 140,
      "Ç": 141,
      "È": 142,
      "É": 143,
      "Ê": 144,
      "Ë": 145,
      "Ì": 146,
      "Í": 147,
      "Î": 148,
      "Ï": 149,
      "Ð": 150,
      "Ñ": 151,
      "Ò": 152,
      "Ó": 153,
      "Ô": 154,
      "Õ": 155,
      "Ö": 156,
      "×": 157,
      "Ø": 158,
      "Ù": 159,
      "Ú": 160,
      "Û": 161,
      "Ü": 162,
      "Ý": 163,
      "Þ": 164,
      "ß": 165,
      "à": 166,
      "á": 167,
      "â": 168,
      "ã": 169,
      "ä": 170,
      "å": 171,
      "æ": 172,
      "ç": 173,
      "è": 174,
      "é": 175,
      "ê": 176,
      "ë": 177,
      "ì": 178,
      "í": 179,
      "î": 180,
      "ï": 181,
      "ð": 182,
      "ñ": 183,
      "ò": 184,
      "ó": 185,
      "ô": 186,
      "õ": 187,
      "ö": 188,
      "÷": 189,
      "ø": 190,
      "ù": 191,
      "ú": 192,
      "û": 193,
      "ü": 194,
      "ý": 195,
      "þ": 196,
      "ÿ": 197,
      "Ā": 198,
      "ā": 199,
      "Ă": 200,
      "ă": 201,
      "Ą": 202,
      "ą": 203,
      "Ć": 204,
      "ć": 205,
      "Ĉ": 206,
      "ĉ": 207,
      "Ċ": 208,
      "ċ": 209,
      "Č": 210,
      "č": 211,
      "Ď": 212,
      "ď": 213,
      "Đ": 214,
      "đ": 215,
      "Ē": 216,
      "ē": 217,
      "Ĕ": 218,
      "ĕ": 219,
      "Ė": 220,
      "ė": 221,
      "Ę": 222,
      "ę": 223,
      "Ě": 224,
      "ě": 225,
      "Ĝ": 226,
      "ĝ": 227,
      "Ğ": 228,
      "ğ": 229,
      "Ġ": 230,
      "ġ": 231,
      "Ģ": 232,
      "ģ": 233,
      "Ĥ": 234,
      "ĥ": 235,
      "Ħ": 236,
      "ħ": 237,
      "Ĩ": 238,
      "ĩ": 239,
      "Ī": 240,
      "ī": 241,
      "Ĭ": 242,
      "ĭ": 243,
      "Į": 244,
      "į": 245,
      "İ": 246,
      "ı": 247,
      "ĳ": 248,
      "Ĵ": 249,
      "ĵ": 250,
      "Ķ": 251,
      "ķ": 252,
      "ĺ": 253,
      "Ļ": 254,
      "ļ": 255,
      "Ľ": 256,
      "ľ": 257,
      "Ŀ": 258,
      "ŀ": 259,
      "Ł": 260,
      "ł": 261,
      "Ń": 262,
      "ń": 263,
      "Ņ": 264,
      "ņ": 265,
      "Ň": 266,
      "ň": 267,
      "ŉ": 268,
      "Ŋ": 269,
      "ŋ": 270,
      "Ō": 271,
      "ō": 272,
      "Ŏ": 273,
      "ŏ": 274,
      "Ő": 275,
      "ő": 276,
      "Œ": 277,
      "œ": 278,
      "ŕ": 279,
      "ŗ": 280,
      "Ř": 281,
      "ř": 282,
      "Ś": 283,
      "ś": 284,
      "Ŝ": 285,
      "ŝ": 286,
      "Ş": 287,
      "ş": 288,
      "Š": 289,
      "š": 290,
      "Ţ": 291,
      "ţ": 292,
      "ť": 293,
      "ŧ": 294,
      "ũ": 295,
      "Ū": 296,
      "ū": 297,
      "Ŭ": 298,
      "ŭ": 299,
      "Ů": 300,
      "ů": 301,
      "ű": 302,
      "ų": 303,
      "Ŵ": 304,
      "ŵ": 305,
      "Ŷ": 306,
      "ŷ": 307,
      "Ÿ": 308,
      "Ź": 309,
      "ź": 310,
      "Ż": 311,
      "ż": 312,
      "Ž": 313,
      "ž": 314,
      "ſ": 315,
      "ƀ": 316,
      "Ɓ": 317,
      "ƅ": 318,
      "Ɔ": 319,
      "Ɗ": 320,
      "Ə": 321,
      "Ɛ": 322,
      "ƒ": 323,
      "Ɣ": 324,
      "Ƙ": 325,
      "ƙ": 326,
      "ƚ": 327,
      "ƛ": 328,
      "ơ": 329,
      "ƣ": 330,
      "ư": 331,
      "Ʊ": 332,
      "Ƴ": 333,
      "ƴ": 334,
      "ƿ": 335,
      "ǂ": 336,
      "ǃ": 337,
      "ǎ": 338,
      "ǐ": 339,
      "ǒ": 340,
      "ǔ": 341,
      "ǘ": 342,
      "ǚ": 343,
      "ǜ": 344,
      "ǝ": 345,
      "Ǣ": 346,
      "ǣ": 347,
      "ǥ": 348,
      "Ǧ": 349,
      "ǧ": 350,
      "Ǩ": 351,
      "ǩ": 352,
      "Ǫ": 353,
      "ǫ": 354,
      "ǵ": 355,
      "Ƿ": 356,
      "Ǹ": 357,
      "ǹ": 358,
      "ȏ": 359,
      "Ș": 360,
      "ș": 361,
      "Ț": 362,
      "ț": 363,
      "Ȝ": 364,
      "ȝ": 365,
      "ȟ": 366,
      "Ȯ": 367,
      "ȯ": 368,
      "ȳ": 369,
      "Ƚ": 370,
      "ȿ": 371,
      "Ƀ": 372,
      "ɐ": 373,
      "ɑ": 374,
      "ɒ": 375,
      "ɓ": 376,
      "ɔ": 377,
      "ɕ": 378,
      "ɖ": 379,
      "ɗ": 380,
      "ɘ": 381,
      "ə": 382,
      "ɚ": 383,
      "ɛ": 384,
      "ɜ": 385,
      "ɞ": 386,
      "ɟ": 387,
      "ɡ": 388,
      "ɣ": 389,
      "ɥ": 390,
      "ɦ": 391,
      "ɨ": 392,
      "ɪ": 393,
      "ɫ": 394,
      "ɬ": 395,
      "ɭ": 396,
      "ɯ": 397,
      "ɰ": 398,
      "ɱ": 399,
      "ɲ": 400,
      "ɳ": 401,
      "ɴ": 402,
      "ɵ": 403,
      "ɹ": 404,
      "ɺ": 405,
      "ɻ": 406,
      "ɽ": 407,
      "ɾ": 408,
      "ʀ": 409,
      "ʁ": 410,
      "ʂ": 411,
      "ʃ": 412,
      "ʇ": 413,
      "ʈ": 414,
      "ʉ": 415,
      "ʊ": 416,
      "ʋ": 417,
      "ʌ": 418,
      "ʍ": 419,
      "ʎ": 420,
      "ʏ": 421,
      "ʐ": 422,
      "ʑ": 423,
      "ʒ": 424,
      "ʔ": 425,
      "ʕ": 426,
      "ʙ": 427,
      "ʜ": 428,
      "ʝ": 429,
      "ʟ": 430,
      "ʣ": 431,
      "ʤ": 432,
      "ʥ": 433,
      "ʦ": 434,
      "ʧ": 435,
      "ʨ": 436,
      "ʰ": 437,
      "ʱ": 438,
      "ʲ": 439,
      "ʷ": 440,
      "ʹ": 441,
      "ʻ": 442,
      "ʼ": 443,
      "ʾ": 444,
      "ʿ": 445,
      "ˀ": 446,
      "ˁ": 447,
      "ˆ": 448,
      "ˇ": 449,
      "ˈ": 450,
      "ˉ": 451,
      "ˊ": 452,
      "ˌ": 453,
      "ː": 454,
      "ˑ": 455,
      "˘": 456,
      "˙": 457,
      "˚": 458,
      "˛": 459,
      "˝": 460,
      "ˠ": 461,
      "ˤ": 462,
      "˥": 463,
      "˧": 464,
      "˨": 465,
      "˩": 466,
      "̀": 467,
      "́": 468,
      "̂": 469,
      "̃": 470,
      "̄": 471,
      "̆": 472,
      "̈": 473,
      "̊": 474,
      "̌": 475,
      "̍": 476,
      "̑": 477,
      "̒": 478,
      "̓": 479,
      "̞": 480,
      "̠": 481,
      "̢": 482,
      "̣": 483,
      "̤": 484,
      "̥": 485,
      "̧": 486,
      "̩": 487,
      "̪": 488,
      "̭": 489,
      "̯": 490,
      "̰": 491,
      "̱": 492,
      "̲": 493,
      "̺": 494,
      "̽": 495,
      "͇": 496,
      "͈": 497,
      "͘": 498,
      "͡": 499,
      "΄": 500,
      "Ά": 501,
      "Έ": 502,
      "Ή": 503,
      "Ί": 504,
      "Ό": 505,
      "Ύ": 506,
      "ΐ": 507,
      "Α": 508,
      "Β": 509,
      "Γ": 510,
      "Δ": 511,
      "Ε": 512,
      "Ζ": 513,
      "Η": 514,
      "Θ": 515,
      "Ι": 516,
      "Κ": 517,
      "Λ": 518,
      "Μ": 519,
      "Ν": 520,
      "Ξ": 521,
      "Ο": 522,
      "Π": 523,
      "Ρ": 524,
      "Σ": 525,
      "Τ": 526,
      "Υ": 527,
      "Φ": 528,
      "Χ": 529,
      "Ψ": 530,
      "Ω": 531,
      "Ϊ": 532,
      "ά": 533,
      "έ": 534,
      "ή": 535,
      "ί": 536,
      "α": 537,
      "β": 538,
      "γ": 539,
      "δ": 540,
      "ε": 541,
      "ζ": 542,
      "η": 543,
      "θ": 544,
      "ι": 545,
      "κ": 546,
      "λ": 547,
      "μ": 548,
      "ν": 549,
      "ξ": 550,
      "ο": 551,
      "π": 552,
      "ρ": 553,
      "ς": 554,
      "σ": 555,
      "τ": 556,
      "υ": 557,
      "φ": 558,
      "χ": 559,
      "ψ": 560,
      "ω": 561,
      "ϊ": 562,
      "ϋ": 563,
      "ό": 564,
      "ύ": 565,
      "ώ": 566,
      "ϑ": 567,
      "ϱ": 568,
      "ϲ": 569,
      "Ё": 570,
      "Ђ": 571,
      "Ѓ": 572,
      "Є": 573,
      "І": 574,
      "Ї": 575,
      "Ј": 576,
      "Љ": 577,
      "Њ": 578,
      "Ћ": 579,
      "Ќ": 580,
      "Ў": 581,
      "Џ": 582,
      "А": 583,
      "Б": 584,
      "В": 585,
      "Г": 586,
      "Д": 587,
      "Е": 588,
      "Ж": 589,
      "З": 590,
      "И": 591,
      "Й": 592,
      "К": 593,
      "Л": 594,
      "М": 595,
      "Н": 596,
      "О": 597,
      "П": 598,
      "Р": 599,
      "С": 600,
      "Т": 601,
      "У": 602,
      "Ф": 603,
      "Х": 604,
      "Ц": 605,
      "Ч": 606,
      "Ш": 607,
      "Щ": 608,
      "Ъ": 609,
      "Ы": 610,
      "Ь": 611,
      "Э": 612,
      "Ю": 613,
      "Я": 614,
      "а": 615,
      "б": 616,
      "в": 617,
      "г": 618,
      "д": 619,
      "е": 620,
      "ж": 621,
      "з": 622,
      "и": 623,
      "й": 624,
      "к": 625,
      "л": 626,
      "м": 627,
      "н": 628,
      "о": 629,
      "п": 630,
      "р": 631,
      "с": 632,
      "т": 633,
      "у": 634,
      "ф": 635,
      "х": 636,
      "ц": 637,
      "ч": 638,
      "ш": 639,
      "щ": 640,
      "ъ": 641,
      "ы": 642,
      "ь": 643,
      "э": 644,
      "ю": 645,
      "я": 646,
      "ѐ": 647,
      "ё": 648,
      "ђ": 649,
      "ѓ": 650,
      "є": 651,
      "ѕ": 652,
      "і": 653,
      "ї": 654,
      "ј": 655,
      "љ": 656,
      "њ": 657,
      "ћ": 658,
      "ќ": 659,
      "ѝ": 660,
      "ў": 661,
      "џ": 662,
      "Ѣ": 663,
      "ѣ": 664,
      "Ѱ": 665,
      "ѱ": 666,
      "Ѳ": 667,
      "ѳ": 668,
      "Ҍ": 669,
      "ҍ": 670,
      "Ґ": 671,
      "ґ": 672,
      "Ғ": 673,
      "ғ": 674,
      "ҕ": 675,
      "Җ": 676,
      "җ": 677,
      "Ҙ": 678,
      "ҙ": 679,
      "Қ": 680,
      "қ": 681,
      "ҟ": 682,
      "Ҡ": 683,
      "ҡ": 684,
      "Ң": 685,
      "ң": 686,
      "ҥ": 687,
      "ҧ": 688,
      "ҫ": 689,
      "ҭ": 690,
      "Ү": 691,
      "ү": 692,
      "Ұ": 693,
      "ұ": 694,
      "Ҳ": 695,
      "ҳ": 696,
      "Ҷ": 697,
      "ҷ": 698,
      "ҹ": 699,
      "Һ": 700,
      "һ": 701,
      "Ӏ": 702,
      "ӄ": 703,
      "ӈ": 704,
      "ӊ": 705,
      "ӏ": 706,
      "ӑ": 707,
      "Ӓ": 708,
      "ӓ": 709,
      "Ӗ": 710,
      "ӗ": 711,
      "Ә": 712,
      "ә": 713,
      "Ӝ": 714,
      "ӝ": 715,
      "Ӟ": 716,
      "ӟ": 717,
      "ӣ": 718,
      "ӥ": 719,
      "Ӧ": 720,
      "ӧ": 721,
      "Ө": 722,
      "ө": 723,
      "Ӭ": 724,
      "ӭ": 725,
      "Ӯ": 726,
      "ӯ": 727,
      "Ӱ": 728,
      "ӱ": 729,
      "Ӳ": 730,
      "ӳ": 731,
      "Ӵ": 732,
      "ӵ": 733,
      "Ӹ": 734,
      "ӹ": 735,
      "ԓ": 736,
      "ԥ": 737,
      "Ա": 738,
      "Բ": 739,
      "Գ": 740,
      "Դ": 741,
      "Ե": 742,
      "Զ": 743,
      "Է": 744,
      "Ը": 745,
      "Թ": 746,
      "Ժ": 747,
      "Ի": 748,
      "Լ": 749,
      "Խ": 750,
      "Ծ": 751,
      "Կ": 752,
      "Հ": 753,
      "Ձ": 754,
      "Ղ": 755,
      "Ճ": 756,
      "Մ": 757,
      "Յ": 758,
      "Ն": 759,
      "Շ": 760,
      "Ո": 761,
      "Չ": 762,
      "Պ": 763,
      "Ջ": 764,
      "Ռ": 765,
      "Ս": 766,
      "Վ": 767,
      "Տ": 768,
      "Ր": 769,
      "Ց": 770,
      "Ւ": 771,
      "Փ": 772,
      "Ք": 773,
      "Օ": 774,
      "Ֆ": 775,
      "՛": 776,
      "՝": 777,
      "՞": 778,
      "ա": 779,
      "բ": 780,
      "գ": 781,
      "դ": 782,
      "ե": 783,
      "զ": 784,
      "է": 785,
      "ը": 786,
      "թ": 787,
      "ժ": 788,
      "ի": 789,
      "լ": 790,
      "խ": 791,
      "ծ": 792,
      "կ": 793,
      "հ": 794,
      "ձ": 795,
      "ղ": 796,
      "ճ": 797,
      "մ": 798,
      "յ": 799,
      "ն": 800,
      "շ": 801,
      "ո": 802,
      "չ": 803,
      "պ": 804,
      "ջ": 805,
      "ռ": 806,
      "ս": 807,
      "վ": 808,
      "տ": 809,
      "ր": 810,
      "ց": 811,
      "ւ": 812,
      "փ": 813,
      "ք": 814,
      "օ": 815,
      "ֆ": 816,
      "և": 817,
      "։": 818,
      "֊": 819,
      "֑": 820,
      "ְ": 821,
      "ֱ": 822,
      "ֲ": 823,
      "ִ": 824,
      "ֵ": 825,
      "ֶ": 826,
      "ַ": 827,
      "ָ": 828,
      "ֹ": 829,
      "ֻ": 830,
      "ּ": 831,
      "־": 832,
      "ֿ": 833,
      "ׁ": 834,
      "ׂ": 835,
      "א": 836,
      "ב": 837,
      "ג": 838,
      "ד": 839,
      "ה": 840,
      "ו": 841,
      "ז": 842,
      "ח": 843,
      "ט": 844,
      "י": 845,
      "ך": 846,
      "כ": 847,
      "ל": 848,
      "ם": 849,
      "מ": 850,
      "ן": 851,
      "נ": 852,
      "ס": 853,
      "ע": 854,
      "ף": 855,
      "פ": 856,
      "ץ": 857,
      "צ": 858,
      "ק": 859,
      "ר": 860,
      "ש": 861,
      "ת": 862,
      "װ": 863,
      "ױ": 864,
      "ײ": 865,
      "׳": 866,
      "״": 867,
      "،": 868,
      "ؑ": 869,
      "ؒ": 870,
      "ؓ": 871,
      "؛": 872,
      "؟": 873,
      "ء": 874,
      "آ": 875,
      "أ": 876,
      "ؤ": 877,
      "إ": 878,
      "ئ": 879,
      "ا": 880,
      "ب": 881,
      "ة": 882,
      "ت": 883,
      "ث": 884,
      "ج": 885,
      "ح": 886,
      "خ": 887,
      "د": 888,
      "ذ": 889,
      "ر": 890,
      "ز": 891,
      "س": 892,
      "ش": 893,
      "ص": 894,
      "ض": 895,
      "ط": 896,
      "ظ": 897,
      "ع": 898,
      "غ": 899,
      "ؽ": 900,
      "ـ": 901,
      "ف": 902,
      "ق": 903,
      "ك": 904,
      "ل": 905,
      "م": 906,
      "ن": 907,
      "ه": 908,
      "و": 909,
      "ى": 910,
      "ي": 911,
      "ً": 912,
      "ٌ": 913,
      "ٍ": 914,
      "َ": 915,
      "ُ": 916,
      "ِ": 917,
      "ّ": 918,
      "ْ": 919,
      "ٓ": 920,
      "ٔ": 921,
      "ٕ": 922,
      "ٖ": 923,
      "٘": 924,
      "ٙ": 925,
      "ٚ": 926,
      "ٛ": 927,
      "٠": 928,
      "١": 929,
      "٢": 930,
      "٣": 931,
      "٤": 932,
      "٥": 933,
      "٦": 934,
      "٧": 935,
      "٨": 936,
      "٩": 937,
      "٪": 938,
      "٫": 939,
      "٬": 940,
      "٭": 941,
      "ٰ": 942,
      "ٱ": 943,
      "ٴ": 944,
      "ٹ": 945,
      "ٺ": 946,
      "ٻ": 947,
      "ټ": 948,
      "ٽ": 949,
      "پ": 950,
      "ٿ": 951,
      "ڀ": 952,
      "ځ": 953,
      "ڃ": 954,
      "ڄ": 955,
      "څ": 956,
      "چ": 957,
      "ڇ": 958,
      "ڈ": 959,
      "ډ": 960,
      "ڊ": 961,
      "ڌ": 962,
      "ڍ": 963,
      "ڏ": 964,
      "ڐ": 965,
      "ڑ": 966,
      "ړ": 967,
      "ڕ": 968,
      "ږ": 969,
      "ژ": 970,
      "ڙ": 971,
      "ښ": 972,
      "ڠ": 973,
      "ڤ": 974,
      "ڦ": 975,
      "ڧ": 976,
      "ک": 977,
      "ڪ": 978,
      "ګ": 979,
      "ڬ": 980,
      "ڭ": 981,
      "گ": 982,
      "ڱ": 983,
      "ڳ": 984,
      "ڵ": 985,
      "ں": 986,
      "ڻ": 987,
      "ڼ": 988,
      "ڽ": 989,
      "ھ": 990,
      "ۀ": 991,
      "ہ": 992,
      "ۂ": 993,
      "ۃ": 994,
      "ۆ": 995,
      "ۇ": 996,
      "ۈ": 997,
      "ۉ": 998,
      "ۊ": 999,
      "ۋ": 1000,
      "ی": 1001,
      "ۍ": 1002,
      "ێ": 1003,
      "ې": 1004,
      "ے": 1005,
      "ۓ": 1006,
      "۔": 1007,
      "ە": 1008,
      "۞": 1009,
      "۰": 1010,
      "۱": 1011,
      "۲": 1012,
      "۳": 1013,
      "۴": 1014,
      "۵": 1015,
      "۶": 1016,
      "۷": 1017,
      "۸": 1018,
      "۹": 1019,
      "۽": 1020,
      "۾": 1021,
      "܀": 1022,
      "ܐ": 1023,
      "ܒ": 1024,
      "ܓ": 1025,
      "ܕ": 1026,
      "ܗ": 1027,
      "ܘ": 1028,
      "ܙ": 1029,
      "ܚ": 1030,
      "ܝ": 1031,
      "ܟ": 1032,
      "ܠ": 1033,
      "ܡ": 1034,
      "ܢ": 1035,
      "ܣ": 1036,
      "ܥ": 1037,
      "ܩ": 1038,
      "ܪ": 1039,
      "ܫ": 1040,
      "ܬ": 1041,
      "ܶ": 1042,
      "ܺ": 1043,
      "ݨ": 1044,
      "ހ": 1045,
      "ށ": 1046,
      "ނ": 1047,
      "ރ": 1048,
      "ބ": 1049,
      "ޅ": 1050,
      "ކ": 1051,
      "އ": 1052,
      "ވ": 1053,
      "މ": 1054,
      "ފ": 1055,
      "ދ": 1056,
      "ތ": 1057,
      "ލ": 1058,
      "ގ": 1059,
      "ޏ": 1060,
      "ސ": 1061,
      "ޑ": 1062,
      "ޒ": 1063,
      "ޓ": 1064,
      "ޔ": 1065,
      "ޕ": 1066,
      "ޖ": 1067,
      "ޗ": 1068,
      "ޘ": 1069,
      "ޙ": 1070,
      "ޚ": 1071,
      "ޛ": 1072,
      "ޜ": 1073,
      "ޝ": 1074,
      "ޞ": 1075,
      "ޟ": 1076,
      "ޠ": 1077,
      "ޡ": 1078,
      "ޢ": 1079,
      "ޣ": 1080,
      "ޤ": 1081,
      "ަ": 1082,
      "ާ": 1083,
      "ި": 1084,
      "ީ": 1085,
      "ު": 1086,
      "ޫ": 1087,
      "ެ": 1088,
      "ޭ": 1089,
      "ޮ": 1090,
      "ޯ": 1091,
      "ް": 1092,
      "ޱ": 1093,
      "ߊ": 1094,
      "ߓ": 1095,
      "ߞ": 1096,
      "ߡ": 1097,
      "ߣ": 1098,
      "߲": 1099,
      "ँ": 1100,
      "ं": 1101,
      "ः": 1102,
      "अ": 1103,
      "आ": 1104,
      "इ": 1105,
      "ई": 1106,
      "उ": 1107,
      "ऊ": 1108,
      "ऋ": 1109,
      "ऍ": 1110,
      "ऎ": 1111,
      "ए": 1112,
      "ऐ": 1113,
      "ऑ": 1114,
      "ऒ": 1115,
      "ओ": 1116,
      "औ": 1117,
      "क": 1118,
      "ख": 1119,
      "ग": 1120,
      "घ": 1121,
      "ङ": 1122,
      "च": 1123,
      "छ": 1124,
      "ज": 1125,
      "झ": 1126,
      "ञ": 1127,
      "ट": 1128,
      "ठ": 1129,
      "ड": 1130,
      "ढ": 1131,
      "ण": 1132,
      "त": 1133,
      "थ": 1134,
      "द": 1135,
      "ध": 1136,
      "न": 1137,
      "ऩ": 1138,
      "प": 1139,
      "फ": 1140,
      "ब": 1141,
      "भ": 1142,
      "म": 1143,
      "य": 1144,
      "र": 1145,
      "ऱ": 1146,
      "ल": 1147,
      "ळ": 1148,
      "ऴ": 1149,
      "व": 1150,
      "श": 1151,
      "ष": 1152,
      "स": 1153,
      "ह": 1154,
      "़": 1155,
      "ऽ": 1156,
      "ा": 1157,
      "ि": 1158,
      "ी": 1159,
      "ु": 1160,
      "ू": 1161,
      "ृ": 1162,
      "ॄ": 1163,
      "ॅ": 1164,
      "ॆ": 1165,
      "े": 1166,
      "ै": 1167,
      "ॉ": 1168,
      "ॊ": 1169,
      "ो": 1170,
      "ौ": 1171,
      "्": 1172,
      "ॐ": 1173,
      "॓": 1174,
      "ॠ": 1175,
      "।": 1176,
      "॥": 1177,
      "०": 1178,
      "१": 1179,
      "२": 1180,
      "३": 1181,
      "४": 1182,
      "५": 1183,
      "६": 1184,
      "७": 1185,
      "८": 1186,
      "९": 1187,
      "॰": 1188,
      "ॲ": 1189,
      "ঁ": 1190,
      "ং": 1191,
      "ঃ": 1192,
      "অ": 1193,
      "আ": 1194,
      "ই": 1195,
      "ঈ": 1196,
      "উ": 1197,
      "ঊ": 1198,
      "ঋ": 1199,
      "এ": 1200,
      "ঐ": 1201,
      "ও": 1202,
      "ঔ": 1203,
      "ক": 1204,
      "খ": 1205,
      "গ": 1206,
      "ঘ": 1207,
      "ঙ": 1208,
      "চ": 1209,
      "ছ": 1210,
      "জ": 1211,
      "ঝ": 1212,
      "ঞ": 1213,
      "ট": 1214,
      "ঠ": 1215,
      "ড": 1216,
      "ঢ": 1217,
      "ণ": 1218,
      "ত": 1219,
      "থ": 1220,
      "দ": 1221,
      "ধ": 1222,
      "ন": 1223,
      "প": 1224,
      "ফ": 1225,
      "ব": 1226,
      "ভ": 1227,
      "ম": 1228,
      "য": 1229,
      "র": 1230,
      "ল": 1231,
      "শ": 1232,
      "ষ": 1233,
      "স": 1234,
      "হ": 1235,
      "়": 1236,
      "া": 1237,
      "ি": 1238,
      "ী": 1239,
      "ু": 1240,
      "ূ": 1241,
      "ৃ": 1242,
      "ে": 1243,
      "ৈ": 1244,
      "ো": 1245,
      "ৌ": 1246,
      "্": 1247,
      "ৎ": 1248,
      "০": 1249,
      "১": 1250,
      "২": 1251,
      "৩": 1252,
      "৪": 1253,
      "৫": 1254,
      "৬": 1255,
      "৭": 1256,
      "৮": 1257,
      "৯": 1258,
      "ৰ": 1259,
      "ৱ": 1260,
      "৳": 1261,
      "৷": 1262,
      "ਂ": 1263,
      "ਅ": 1264,
      "ਆ": 1265,
      "ਇ": 1266,
      "ਈ": 1267,
      "ਉ": 1268,
      "ਊ": 1269,
      "ਏ": 1270,
      "ਐ": 1271,
      "ਓ": 1272,
      "ਔ": 1273,
      "ਕ": 1274,
      "ਖ": 1275,
      "ਗ": 1276,
      "ਘ": 1277,
      "ਚ": 1278,
      "ਛ": 1279,
      "ਜ": 1280,
      "ਝ": 1281,
      "ਟ": 1282,
      "ਠ": 1283,
      "ਡ": 1284,
      "ਢ": 1285,
      "ਣ": 1286,
      "ਤ": 1287,
      "ਥ": 1288,
      "ਦ": 1289,
      "ਧ": 1290,
      "ਨ": 1291,
      "ਪ": 1292,
      "ਫ": 1293,
      "ਬ": 1294,
      "ਭ": 1295,
      "ਮ": 1296,
      "ਯ": 1297,
      "ਰ": 1298,
      "ਲ": 1299,
      "ਵ": 1300,
      "ਸ": 1301,
      "ਹ": 1302,
      "਼": 1303,
      "ਾ": 1304,
      "ਿ": 1305,
      "ੀ": 1306,
      "ੁ": 1307,
      "ੂ": 1308,
      "ੇ": 1309,
      "ੈ": 1310,
      "ੋ": 1311,
      "ੌ": 1312,
      "੍": 1313,
      "ੜ": 1314,
      "੦": 1315,
      "੧": 1316,
      "੨": 1317,
      "੪": 1318,
      "੫": 1319,
      "੬": 1320,
      "੭": 1321,
      "੮": 1322,
      "੯": 1323,
      "ੰ": 1324,
      "ੱ": 1325,
      "ੲ": 1326,
      "ੳ": 1327,
      "ઁ": 1328,
      "ં": 1329,
      "ઃ": 1330,
      "અ": 1331,
      "આ": 1332,
      "ઇ": 1333,
      "ઈ": 1334,
      "ઉ": 1335,
      "ઊ": 1336,
      "ઋ": 1337,
      "ઍ": 1338,
      "એ": 1339,
      "ઐ": 1340,
      "ઑ": 1341,
      "ઓ": 1342,
      "ઔ": 1343,
      "ક": 1344,
      "ખ": 1345,
      "ગ": 1346,
      "ઘ": 1347,
      "ચ": 1348,
      "છ": 1349,
      "જ": 1350,
      "ઝ": 1351,
      "ઞ": 1352,
      "ટ": 1353,
      "ઠ": 1354,
      "ડ": 1355,
      "ઢ": 1356,
      "ણ": 1357,
      "ત": 1358,
      "થ": 1359,
      "દ": 1360,
      "ધ": 1361,
      "ન": 1362,
      "પ": 1363,
      "ફ": 1364,
      "બ": 1365,
      "ભ": 1366,
      "મ": 1367,
      "ય": 1368,
      "ર": 1369,
      "લ": 1370,
      "ળ": 1371,
      "વ": 1372,
      "શ": 1373,
      "ષ": 1374,
      "સ": 1375,
      "હ": 1376,
      "઼": 1377,
      "ા": 1378,
      "િ": 1379,
      "ી": 1380,
      "ુ": 1381,
      "ૂ": 1382,
      "ૃ": 1383,
      "ૅ": 1384,
      "ે": 1385,
      "ૈ": 1386,
      "ૉ": 1387,
      "ો": 1388,
      "ૌ": 1389,
      "્": 1390,
      "ૠ": 1391,
      "ૢ": 1392,
      "૤": 1393,
      "૦": 1394,
      "૧": 1395,
      "૨": 1396,
      "૩": 1397,
      "૪": 1398,
      "૫": 1399,
      "૬": 1400,
      "૭": 1401,
      "૮": 1402,
      "૯": 1403,
      "૰": 1404,
      "ଁ": 1405,
      "ଂ": 1406,
      "ଃ": 1407,
      "ଅ": 1408,
      "ଆ": 1409,
      "ଇ": 1410,
      "ଈ": 1411,
      "ଉ": 1412,
      "ଊ": 1413,
      "ଋ": 1414,
      "ଌ": 1415,
      "ଏ": 1416,
      "ଐ": 1417,
      "ଓ": 1418,
      "ଔ": 1419,
      "କ": 1420,
      "ଖ": 1421,
      "ଗ": 1422,
      "ଘ": 1423,
      "ଙ": 1424,
      "ଚ": 1425,
      "ଛ": 1426,
      "ଜ": 1427,
      "ଝ": 1428,
      "ଞ": 1429,
      "ଟ": 1430,
      "ଠ": 1431,
      "ଡ": 1432,
      "ଢ": 1433,
      "ଣ": 1434,
      "ତ": 1435,
      "ଥ": 1436,
      "ଦ": 1437,
      "ଧ": 1438,
      "ନ": 1439,
      "ପ": 1440,
      "ଫ": 1441,
      "ବ": 1442,
      "ଭ": 1443,
      "ମ": 1444,
      "ଯ": 1445,
      "ର": 1446,
      "ଲ": 1447,
      "ଳ": 1448,
      "ଵ": 1449,
      "ଶ": 1450,
      "ଷ": 1451,
      "ସ": 1452,
      "ହ": 1453,
      "଼": 1454,
      "ା": 1455,
      "ି": 1456,
      "ୀ": 1457,
      "ୁ": 1458,
      "ୂ": 1459,
      "ୃ": 1460,
      "େ": 1461,
      "ୈ": 1462,
      "ୋ": 1463,
      "ୌ": 1464,
      "୍": 1465,
      "ୖ": 1466,
      "ୗ": 1467,
      "ୟ": 1468,
      "୤": 1469,
      "୦": 1470,
      "୧": 1471,
      "୨": 1472,
      "୩": 1473,
      "୪": 1474,
      "୫": 1475,
      "୬": 1476,
      "୭": 1477,
      "୮": 1478,
      "୯": 1479,
      "ୱ": 1480,
      "ஃ": 1481,
      "அ": 1482,
      "ஆ": 1483,
      "இ": 1484,
      "ஈ": 1485,
      "உ": 1486,
      "ஊ": 1487,
      "எ": 1488,
      "ஏ": 1489,
      "ஐ": 1490,
      "ஒ": 1491,
      "ஓ": 1492,
      "க": 1493,
      "ங": 1494,
      "ச": 1495,
      "ஜ": 1496,
      "ஞ": 1497,
      "ட": 1498,
      "ண": 1499,
      "த": 1500,
      "ந": 1501,
      "ன": 1502,
      "ப": 1503,
      "ம": 1504,
      "ய": 1505,
      "ர": 1506,
      "ற": 1507,
      "ல": 1508,
      "ள": 1509,
      "ழ": 1510,
      "வ": 1511,
      "ஷ": 1512,
      "ஸ": 1513,
      "ஹ": 1514,
      "ா": 1515,
      "ி": 1516,
      "ீ": 1517,
      "ு": 1518,
      "ூ": 1519,
      "ெ": 1520,
      "ே": 1521,
      "ை": 1522,
      "ொ": 1523,
      "ோ": 1524,
      "ௌ": 1525,
      "்": 1526,
      "ం": 1527,
      "ః": 1528,
      "అ": 1529,
      "ఆ": 1530,
      "ఇ": 1531,
      "ఈ": 1532,
      "ఉ": 1533,
      "ఊ": 1534,
      "ఎ": 1535,
      "ఏ": 1536,
      "ఐ": 1537,
      "ఒ": 1538,
      "ఓ": 1539,
      "ఔ": 1540,
      "క": 1541,
      "ఖ": 1542,
      "గ": 1543,
      "ఘ": 1544,
      "ఙ": 1545,
      "చ": 1546,
      "ఛ": 1547,
      "జ": 1548,
      "ఝ": 1549,
      "ఞ": 1550,
      "ట": 1551,
      "ఠ": 1552,
      "డ": 1553,
      "ఢ": 1554,
      "ణ": 1555,
      "త": 1556,
      "థ": 1557,
      "ద": 1558,
      "ధ": 1559,
      "న": 1560,
      "ప": 1561,
      "ఫ": 1562,
      "బ": 1563,
      "భ": 1564,
      "మ": 1565,
      "య": 1566,
      "ర": 1567,
      "ఱ": 1568,
      "ల": 1569,
      "ళ": 1570,
      "వ": 1571,
      "శ": 1572,
      "ష": 1573,
      "స": 1574,
      "హ": 1575,
      "ా": 1576,
      "ి": 1577,
      "ీ": 1578,
      "ు": 1579,
      "ూ": 1580,
      "ృ": 1581,
      "ె": 1582,
      "ే": 1583,
      "ై": 1584,
      "ొ": 1585,
      "ో": 1586,
      "ౌ": 1587,
      "్": 1588,
      "౦": 1589,
      "౨": 1590,
      "ಂ": 1591,
      "ಃ": 1592,
      "ಅ": 1593,
      "ಆ": 1594,
      "ಇ": 1595,
      "ಈ": 1596,
      "ಉ": 1597,
      "ಊ": 1598,
      "ಋ": 1599,
      "ಎ": 1600,
      "ಏ": 1601,
      "ಐ": 1602,
      "ಒ": 1603,
      "ಓ": 1604,
      "ಔ": 1605,
      "ಕ": 1606,
      "ಖ": 1607,
      "ಗ": 1608,
      "ಘ": 1609,
      "ಙ": 1610,
      "ಚ": 1611,
      "ಛ": 1612,
      "ಜ": 1613,
      "ಝ": 1614,
      "ಞ": 1615,
      "ಟ": 1616,
      "ಠ": 1617,
      "ಡ": 1618,
      "ಢ": 1619,
      "ಣ": 1620,
      "ತ": 1621,
      "ಥ": 1622,
      "ದ": 1623,
      "ಧ": 1624,
      "ನ": 1625,
      "ಪ": 1626,
      "ಫ": 1627,
      "ಬ": 1628,
      "ಭ": 1629,
      "ಮ": 1630,
      "ಯ": 1631,
      "ರ": 1632,
      "ಲ": 1633,
      "ಳ": 1634,
      "ವ": 1635,
      "ಶ": 1636,
      "ಷ": 1637,
      "ಸ": 1638,
      "ಹ": 1639,
      "಼": 1640,
      "ಽ": 1641,
      "ಾ": 1642,
      "ಿ": 1643,
      "ೀ": 1644,
      "ು": 1645,
      "ೂ": 1646,
      "ೃ": 1647,
      "ೄ": 1648,
      "ೆ": 1649,
      "ೇ": 1650,
      "ೈ": 1651,
      "ೊ": 1652,
      "ೋ": 1653,
      "ೌ": 1654,
      "್": 1655,
      "೦": 1656,
      "೧": 1657,
      "೨": 1658,
      "೩": 1659,
      "೪": 1660,
      "೫": 1661,
      "೬": 1662,
      "೭": 1663,
      "೮": 1664,
      "೯": 1665,
      "ം": 1666,
      "ഃ": 1667,
      "അ": 1668,
      "ആ": 1669,
      "ഇ": 1670,
      "ഈ": 1671,
      "ഉ": 1672,
      "ഊ": 1673,
      "ഋ": 1674,
      "എ": 1675,
      "ഏ": 1676,
      "ഐ": 1677,
      "ഒ": 1678,
      "ഓ": 1679,
      "ഔ": 1680,
      "ക": 1681,
      "ഖ": 1682,
      "ഗ": 1683,
      "ഘ": 1684,
      "ങ": 1685,
      "ച": 1686,
      "ഛ": 1687,
      "ജ": 1688,
      "ഞ": 1689,
      "ട": 1690,
      "ഠ": 1691,
      "ഡ": 1692,
      "ഢ": 1693,
      "ണ": 1694,
      "ത": 1695,
      "ഥ": 1696,
      "ദ": 1697,
      "ധ": 1698,
      "ന": 1699,
      "പ": 1700,
      "ഫ": 1701,
      "ബ": 1702,
      "ഭ": 1703,
      "മ": 1704,
      "യ": 1705,
      "ര": 1706,
      "റ": 1707,
      "ല": 1708,
      "ള": 1709,
      "ഴ": 1710,
      "വ": 1711,
      "ശ": 1712,
      "ഷ": 1713,
      "സ": 1714,
      "ഹ": 1715,
      "ാ": 1716,
      "ി": 1717,
      "ീ": 1718,
      "ു": 1719,
      "ൂ": 1720,
      "ൃ": 1721,
      "െ": 1722,
      "േ": 1723,
      "ൈ": 1724,
      "ൊ": 1725,
      "ോ": 1726,
      "ൌ": 1727,
      "്": 1728,
      "ൗ": 1729,
      "൧": 1730,
      "൨": 1731,
      "൩": 1732,
      "൫": 1733,
      "ൺ": 1734,
      "ൻ": 1735,
      "ർ": 1736,
      "ൽ": 1737,
      "ൾ": 1738,
      "ൿ": 1739,
      "ං": 1740,
      "ඃ": 1741,
      "අ": 1742,
      "ආ": 1743,
      "ඇ": 1744,
      "ඈ": 1745,
      "ඉ": 1746,
      "ඊ": 1747,
      "උ": 1748,
      "ඌ": 1749,
      "ඍ": 1750,
      "එ": 1751,
      "ඒ": 1752,
      "ඓ": 1753,
      "ඔ": 1754,
      "ඕ": 1755,
      "ඖ": 1756,
      "ක": 1757,
      "ඛ": 1758,
      "ග": 1759,
      "ඝ": 1760,
      "ඟ": 1761,
      "ච": 1762,
      "ඡ": 1763,
      "ජ": 1764,
      "ඤ": 1765,
      "ඥ": 1766,
      "ට": 1767,
      "ඨ": 1768,
      "ඩ": 1769,
      "ඪ": 1770,
      "ණ": 1771,
      "ඬ": 1772,
      "ත": 1773,
      "ථ": 1774,
      "ද": 1775,
      "ධ": 1776,
      "න": 1777,
      "ඳ": 1778,
      "ප": 1779,
      "ඵ": 1780,
      "බ": 1781,
      "භ": 1782,
      "ම": 1783,
      "ඹ": 1784,
      "ය": 1785,
      "ර": 1786,
      "ල": 1787,
      "ව": 1788,
      "ශ": 1789,
      "ෂ": 1790,
      "ස": 1791,
      "හ": 1792,
      "ළ": 1793,
      "ෆ": 1794,
      "්": 1795,
      "ා": 1796,
      "ැ": 1797,
      "ෑ": 1798,
      "ි": 1799,
      "ී": 1800,
      "ු": 1801,
      "ූ": 1802,
      "ෘ": 1803,
      "ෙ": 1804,
      "ේ": 1805,
      "ෛ": 1806,
      "ො": 1807,
      "ෝ": 1808,
      "ෞ": 1809,
      "ෟ": 1810,
      "ෲ": 1811,
      "ก": 1812,
      "ข": 1813,
      "ค": 1814,
      "ฆ": 1815,
      "ง": 1816,
      "จ": 1817,
      "ฉ": 1818,
      "ช": 1819,
      "ซ": 1820,
      "ฌ": 1821,
      "ญ": 1822,
      "ฎ": 1823,
      "ฏ": 1824,
      "ฐ": 1825,
      "ฑ": 1826,
      "ฒ": 1827,
      "ณ": 1828,
      "ด": 1829,
      "ต": 1830,
      "ถ": 1831,
      "ท": 1832,
      "ธ": 1833,
      "น": 1834,
      "บ": 1835,
      "ป": 1836,
      "ผ": 1837,
      "ฝ": 1838,
      "พ": 1839,
      "ฟ": 1840,
      "ภ": 1841,
      "ม": 1842,
      "ย": 1843,
      "ร": 1844,
      "ฤ": 1845,
      "ล": 1846,
      "ว": 1847,
      "ศ": 1848,
      "ษ": 1849,
      "ส": 1850,
      "ห": 1851,
      "ฬ": 1852,
      "อ": 1853,
      "ฮ": 1854,
      "ฯ": 1855,
      "ะ": 1856,
      "ั": 1857,
      "า": 1858,
      "ำ": 1859,
      "ิ": 1860,
      "ี": 1861,
      "ึ": 1862,
      "ื": 1863,
      "ุ": 1864,
      "ู": 1865,
      "ฺ": 1866,
      "เ": 1867,
      "แ": 1868,
      "โ": 1869,
      "ใ": 1870,
      "ไ": 1871,
      "ๅ": 1872,
      "ๆ": 1873,
      "็": 1874,
      "่": 1875,
      "้": 1876,
      "๊": 1877,
      "๋": 1878,
      "์": 1879,
      "๐": 1880,
      "๑": 1881,
      "๒": 1882,
      "๓": 1883,
      "๔": 1884,
      "๕": 1885,
      "๙": 1886,
      "ກ": 1887,
      "ຂ": 1888,
      "ຄ": 1889,
      "ງ": 1890,
      "ຈ": 1891,
      "ຊ": 1892,
      "ຍ": 1893,
      "ດ": 1894,
      "ຕ": 1895,
      "ຖ": 1896,
      "ທ": 1897,
      "ນ": 1898,
      "ບ": 1899,
      "ປ": 1900,
      "ຜ": 1901,
      "ຝ": 1902,
      "ພ": 1903,
      "ຟ": 1904,
      "ມ": 1905,
      "ຢ": 1906,
      "ຣ": 1907,
      "ລ": 1908,
      "ວ": 1909,
      "ສ": 1910,
      "ຫ": 1911,
      "ອ": 1912,
      "ຮ": 1913,
      "ຯ": 1914,
      "ະ": 1915,
      "ັ": 1916,
      "າ": 1917,
      "ຳ": 1918,
      "ິ": 1919,
      "ີ": 1920,
      "ຶ": 1921,
      "ື": 1922,
      "ຸ": 1923,
      "ູ": 1924,
      "ົ": 1925,
      "ຼ": 1926,
      "ຽ": 1927,
      "ເ": 1928,
      "ແ": 1929,
      "ໂ": 1930,
      "ໃ": 1931,
      "ໄ": 1932,
      "ໆ": 1933,
      "່": 1934,
      "້": 1935,
      "໊": 1936,
      "໋": 1937,
      "໌": 1938,
      "ໍ": 1939,
      "໐": 1940,
      "໑": 1941,
      "໒": 1942,
      "໓": 1943,
      "໕": 1944,
      "໘": 1945,
      "໙": 1946,
      "ໜ": 1947,
      "ໝ": 1948,
      "༄": 1949,
      "༅": 1950,
      "༆": 1951,
      "༈": 1952,
      "་": 1953,
      "༌": 1954,
      "།": 1955,
      "༎": 1956,
      "༑": 1957,
      "༔": 1958,
      "༠": 1959,
      "༡": 1960,
      "༢": 1961,
      "༣": 1962,
      "༤": 1963,
      "༥": 1964,
      "༦": 1965,
      "༧": 1966,
      "༨": 1967,
      "༩": 1968,
      "༷": 1969,
      "༸": 1970,
      "༼": 1971,
      "༽": 1972,
      "ཀ": 1973,
      "ཁ": 1974,
      "ག": 1975,
      "ང": 1976,
      "ཅ": 1977,
      "ཆ": 1978,
      "ཇ": 1979,
      "ཉ": 1980,
      "ཊ": 1981,
      "ཋ": 1982,
      "ཌ": 1983,
      "ཎ": 1984,
      "ཏ": 1985,
      "ཐ": 1986,
      "ད": 1987,
      "ན": 1988,
      "པ": 1989,
      "ཕ": 1990,
      "བ": 1991,
      "མ": 1992,
      "ཙ": 1993,
      "ཚ": 1994,
      "ཛ": 1995,
      "ཝ": 1996,
      "ཞ": 1997,
      "ཟ": 1998,
      "འ": 1999,
      "ཡ": 2000,
      "ར": 2001,
      "ལ": 2002,
      "ཤ": 2003,
      "ཥ": 2004,
      "ས": 2005,
      "ཧ": 2006,
      "ཨ": 2007,
      "ཪ": 2008,
      "ཱ": 2009,
      "ི": 2010,
      "ུ": 2011,
      "ེ": 2012,
      "ཻ": 2013,
      "ོ": 2014,
      "ཽ": 2015,
      "ཾ": 2016,
      "ཿ": 2017,
      "ྀ": 2018,
      "ྃ": 2019,
      "྄": 2020,
      "ྋ": 2021,
      "ྐ": 2022,
      "ྒ": 2023,
      "ྔ": 2024,
      "ྕ": 2025,
      "ྗ": 2026,
      "ྙ": 2027,
      "ྚ": 2028,
      "ྜ": 2029,
      "ྞ": 2030,
      "ྟ": 2031,
      "ྡ": 2032,
      "ྣ": 2033,
      "ྤ": 2034,
      "ྥ": 2035,
      "ྦ": 2036,
      "ྨ": 2037,
      "ྩ": 2038,
      "ྪ": 2039,
      "ྫ": 2040,
      "ྭ": 2041,
      "ྰ": 2042,
      "ྱ": 2043,
      "ྲ": 2044,
      "ླ": 2045,
      "ྴ": 2046,
      "ྵ": 2047,
      "ྶ": 2048,
      "ྷ": 2049,
      "က": 2050,
      "ခ": 2051,
      "ဂ": 2052,
      "ဃ": 2053,
      "င": 2054,
      "စ": 2055,
      "ဆ": 2056,
      "ဇ": 2057,
      "ဈ": 2058,
      "ဉ": 2059,
      "ည": 2060,
      "ဋ": 2061,
      "ဌ": 2062,
      "ဍ": 2063,
      "ဏ": 2064,
      "တ": 2065,
      "ထ": 2066,
      "ဒ": 2067,
      "ဓ": 2068,
      "န": 2069,
      "ပ": 2070,
      "ဖ": 2071,
      "ဗ": 2072,
      "ဘ": 2073,
      "မ": 2074,
      "ယ": 2075,
      "ရ": 2076,
      "လ": 2077,
      "ဝ": 2078,
      "သ": 2079,
      "ဟ": 2080,
      "ဠ": 2081,
      "အ": 2082,
      "ဣ": 2083,
      "ဤ": 2084,
      "ဥ": 2085,
      "ဦ": 2086,
      "ဧ": 2087,
      "ဩ": 2088,
      "ါ": 2089,
      "ာ": 2090,
      "ိ": 2091,
      "ီ": 2092,
      "ု": 2093,
      "ူ": 2094,
      "ေ": 2095,
      "ဲ": 2096,
      "ံ": 2097,
      "့": 2098,
      "း": 2099,
      "္": 2100,
      "်": 2101,
      "ျ": 2102,
      "ြ": 2103,
      "ွ": 2104,
      "ှ": 2105,
      "ဿ": 2106,
      "၀": 2107,
      "၁": 2108,
      "၂": 2109,
      "၃": 2110,
      "၄": 2111,
      "၅": 2112,
      "၆": 2113,
      "၇": 2114,
      "၈": 2115,
      "၉": 2116,
      "၊": 2117,
      "။": 2118,
      "၌": 2119,
      "၍": 2120,
      "၎": 2121,
      "၏": 2122,
      "႞": 2123,
      "ა": 2124,
      "ბ": 2125,
      "გ": 2126,
      "დ": 2127,
      "ე": 2128,
      "ვ": 2129,
      "ზ": 2130,
      "თ": 2131,
      "ი": 2132,
      "კ": 2133,
      "ლ": 2134,
      "მ": 2135,
      "ნ": 2136,
      "ო": 2137,
      "პ": 2138,
      "ჟ": 2139,
      "რ": 2140,
      "ს": 2141,
      "ტ": 2142,
      "უ": 2143,
      "ფ": 2144,
      "ქ": 2145,
      "ღ": 2146,
      "ყ": 2147,
      "შ": 2148,
      "ჩ": 2149,
      "ც": 2150,
      "ძ": 2151,
      "წ": 2152,
      "ჭ": 2153,
      "ხ": 2154,
      "ჯ": 2155,
      "ჰ": 2156,
      "ჳ": 2157,
      "ჷ": 2158,
      "ჸ": 2159,
      "ሀ": 2160,
      "ሁ": 2161,
      "ሂ": 2162,
      "ሃ": 2163,
      "ሄ": 2164,
      "ህ": 2165,
      "ሆ": 2166,
      "ለ": 2167,
      "ሉ": 2168,
      "ሊ": 2169,
      "ላ": 2170,
      "ሌ": 2171,
      "ል": 2172,
      "ሎ": 2173,
      "ሏ": 2174,
      "ሐ": 2175,
      "ሑ": 2176,
      "ሒ": 2177,
      "ሓ": 2178,
      "ሔ": 2179,
      "ሕ": 2180,
      "ሖ": 2181,
      "መ": 2182,
      "ሙ": 2183,
      "ሚ": 2184,
      "ማ": 2185,
      "ሜ": 2186,
      "ም": 2187,
      "ሞ": 2188,
      "ሟ": 2189,
      "ሠ": 2190,
      "ሡ": 2191,
      "ሢ": 2192,
      "ሣ": 2193,
      "ሤ": 2194,
      "ሥ": 2195,
      "ሦ": 2196,
      "ረ": 2197,
      "ሩ": 2198,
      "ሪ": 2199,
      "ራ": 2200,
      "ሬ": 2201,
      "ር": 2202,
      "ሮ": 2203,
      "ሯ": 2204,
      "ሰ": 2205,
      "ሱ": 2206,
      "ሲ": 2207,
      "ሳ": 2208,
      "ሴ": 2209,
      "ስ": 2210,
      "ሶ": 2211,
      "ሷ": 2212,
      "ሸ": 2213,
      "ሹ": 2214,
      "ሺ": 2215,
      "ሻ": 2216,
      "ሼ": 2217,
      "ሽ": 2218,
      "ሾ": 2219,
      "ቀ": 2220,
      "ቁ": 2221,
      "ቂ": 2222,
      "ቃ": 2223,
      "ቄ": 2224,
      "ቅ": 2225,
      "ቆ": 2226,
      "ቈ": 2227,
      "ቋ": 2228,
      "ቍ": 2229,
      "በ": 2230,
      "ቡ": 2231,
      "ቢ": 2232,
      "ባ": 2233,
      "ቤ": 2234,
      "ብ": 2235,
      "ቦ": 2236,
      "ቧ": 2237,
      "ቨ": 2238,
      "ቩ": 2239,
      "ቪ": 2240,
      "ቫ": 2241,
      "ቬ": 2242,
      "ቭ": 2243,
      "ቮ": 2244,
      "ተ": 2245,
      "ቱ": 2246,
      "ቲ": 2247,
      "ታ": 2248,
      "ቴ": 2249,
      "ት": 2250,
      "ቶ": 2251,
      "ቷ": 2252,
      "ቸ": 2253,
      "ቹ": 2254,
      "ቺ": 2255,
      "ቻ": 2256,
      "ቼ": 2257,
      "ች": 2258,
      "ቾ": 2259,
      "ቿ": 2260,
      "ኀ": 2261,
      "ኃ": 2262,
      "ኅ": 2263,
      "ኆ": 2264,
      "ኋ": 2265,
      "ነ": 2266,
      "ኑ": 2267,
      "ኒ": 2268,
      "ና": 2269,
      "ኔ": 2270,
      "ን": 2271,
      "ኖ": 2272,
      "ኗ": 2273,
      "ኘ": 2274,
      "ኙ": 2275,
      "ኚ": 2276,
      "ኛ": 2277,
      "ኜ": 2278,
      "ኝ": 2279,
      "ኞ": 2280,
      "ኟ": 2281,
      "አ": 2282,
      "ኡ": 2283,
      "ኢ": 2284,
      "ኣ": 2285,
      "ኤ": 2286,
      "እ": 2287,
      "ኦ": 2288,
      "ከ": 2289,
      "ኩ": 2290,
      "ኪ": 2291,
      "ካ": 2292,
      "ኬ": 2293,
      "ክ": 2294,
      "ኮ": 2295,
      "ኰ": 2296,
      "ኳ": 2297,
      "ኸ": 2298,
      "ኹ": 2299,
      "ኻ": 2300,
      "ኼ": 2301,
      "ኽ": 2302,
      "ኾ": 2303,
      "ወ": 2304,
      "ዉ": 2305,
      "ዊ": 2306,
      "ዋ": 2307,
      "ዌ": 2308,
      "ው": 2309,
      "ዎ": 2310,
      "ዐ": 2311,
      "ዑ": 2312,
      "ዒ": 2313,
      "ዓ": 2314,
      "ዔ": 2315,
      "ዕ": 2316,
      "ዖ": 2317,
      "ዘ": 2318,
      "ዙ": 2319,
      "ዚ": 2320,
      "ዛ": 2321,
      "ዜ": 2322,
      "ዝ": 2323,
      "ዞ": 2324,
      "ዟ": 2325,
      "ዠ": 2326,
      "ዡ": 2327,
      "ዢ": 2328,
      "ዣ": 2329,
      "ዤ": 2330,
      "ዥ": 2331,
      "ዦ": 2332,
      "የ": 2333,
      "ዩ": 2334,
      "ዪ": 2335,
      "ያ": 2336,
      "ዬ": 2337,
      "ይ": 2338,
      "ዮ": 2339,
      "ደ": 2340,
      "ዱ": 2341,
      "ዲ": 2342,
      "ዳ": 2343,
      "ዴ": 2344,
      "ድ": 2345,
      "ዶ": 2346,
      "ዷ": 2347,
      "ጀ": 2348,
      "ጁ": 2349,
      "ጂ": 2350,
      "ጃ": 2351,
      "ጄ": 2352,
      "ጅ": 2353,
      "ጆ": 2354,
      "ጇ": 2355,
      "ገ": 2356,
      "ጉ": 2357,
      "ጊ": 2358,
      "ጋ": 2359,
      "ጌ": 2360,
      "ግ": 2361,
      "ጎ": 2362,
      "ጐ": 2363,
      "ጒ": 2364,
      "ጓ": 2365,
      "ጛ": 2366,
      "ጝ": 2367,
      "ጠ": 2368,
      "ጡ": 2369,
      "ጢ": 2370,
      "ጣ": 2371,
      "ጤ": 2372,
      "ጥ": 2373,
      "ጦ": 2374,
      "ጧ": 2375,
      "ጨ": 2376,
      "ጩ": 2377,
      "ጪ": 2378,
      "ጫ": 2379,
      "ጭ": 2380,
      "ጮ": 2381,
      "ጱ": 2382,
      "ጲ": 2383,
      "ጳ": 2384,
      "ጴ": 2385,
      "ጵ": 2386,
      "ጸ": 2387,
      "ጹ": 2388,
      "ጺ": 2389,
      "ጻ": 2390,
      "ጼ": 2391,
      "ጽ": 2392,
      "ጾ": 2393,
      "ጿ": 2394,
      "ፀ": 2395,
      "ፁ": 2396,
      "ፂ": 2397,
      "ፃ": 2398,
      "ፄ": 2399,
      "ፅ": 2400,
      "ፆ": 2401,
      "ፈ": 2402,
      "ፉ": 2403,
      "ፊ": 2404,
      "ፋ": 2405,
      "ፌ": 2406,
      "ፍ": 2407,
      "ፎ": 2408,
      "ፏ": 2409,
      "ፐ": 2410,
      "ፑ": 2411,
      "ፒ": 2412,
      "ፓ": 2413,
      "ፔ": 2414,
      "ፕ": 2415,
      "ፖ": 2416,
      "፡": 2417,
      "።": 2418,
      "፣": 2419,
      "፤": 2420,
      "፥": 2421,
      "፦": 2422,
      "፩": 2423,
      "፪": 2424,
      "፫": 2425,
      "፬": 2426,
      "፭": 2427,
      "፮": 2428,
      "፯": 2429,
      "፰": 2430,
      "፱": 2431,
      "፲": 2432,
      "፳": 2433,
      "፴": 2434,
      "፵": 2435,
      "፶": 2436,
      "፷": 2437,
      "፸": 2438,
      "፹": 2439,
      "፺": 2440,
      "፻": 2441,
      "Ꭰ": 2442,
      "Ꭱ": 2443,
      "Ꭲ": 2444,
      "Ꭳ": 2445,
      "Ꭴ": 2446,
      "Ꭵ": 2447,
      "Ꭶ": 2448,
      "Ꭷ": 2449,
      "Ꭸ": 2450,
      "Ꭹ": 2451,
      "Ꭺ": 2452,
      "Ꭻ": 2453,
      "Ꭼ": 2454,
      "Ꭽ": 2455,
      "Ꭾ": 2456,
      "Ꭿ": 2457,
      "Ꮀ": 2458,
      "Ꮁ": 2459,
      "Ꮂ": 2460,
      "Ꮃ": 2461,
      "Ꮄ": 2462,
      "Ꮅ": 2463,
      "Ꮆ": 2464,
      "Ꮇ": 2465,
      "Ꮈ": 2466,
      "Ꮉ": 2467,
      "Ꮊ": 2468,
      "Ꮋ": 2469,
      "Ꮌ": 2470,
      "Ꮍ": 2471,
      "Ꮎ": 2472,
      "Ꮏ": 2473,
      "Ꮐ": 2474,
      "Ꮑ": 2475,
      "Ꮒ": 2476,
      "Ꮓ": 2477,
      "Ꮔ": 2478,
      "Ꮕ": 2479,
      "Ꮖ": 2480,
      "Ꮗ": 2481,
      "Ꮘ": 2482,
      "Ꮙ": 2483,
      "Ꮚ": 2484,
      "Ꮛ": 2485,
      "Ꮜ": 2486,
      "Ꮝ": 2487,
      "Ꮞ": 2488,
      "Ꮟ": 2489,
      "Ꮠ": 2490,
      "Ꮡ": 2491,
      "Ꮢ": 2492,
      "Ꮣ": 2493,
      "Ꮤ": 2494,
      "Ꮥ": 2495,
      "Ꮦ": 2496,
      "Ꮧ": 2497,
      "Ꮨ": 2498,
      "Ꮩ": 2499,
      "Ꮪ": 2500,
      "Ꮫ": 2501,
      "Ꮬ": 2502,
      "Ꮭ": 2503,
      "Ꮮ": 2504,
      "Ꮯ": 2505,
      "Ꮰ": 2506,
      "Ꮱ": 2507,
      "Ꮲ": 2508,
      "Ꮳ": 2509,
      "Ꮴ": 2510,
      "Ꮵ": 2511,
      "Ꮶ": 2512,
      "Ꮷ": 2513,
      "Ꮸ": 2514,
      "Ꮹ": 2515,
      "Ꮺ": 2516,
      "Ꮻ": 2517,
      "Ꮼ": 2518,
      "Ꮽ": 2519,
      "Ꮾ": 2520,
      "Ꮿ": 2521,
      "Ᏸ": 2522,
      "Ᏹ": 2523,
      "Ᏺ": 2524,
      "Ᏻ": 2525,
      "Ᏼ": 2526,
      "ᐁ": 2527,
      "ᐃ": 2528,
      "ᐅ": 2529,
      "ᐊ": 2530,
      "ᐟ": 2531,
      "ᐠ": 2532,
      "ᐣ": 2533,
      "ᐤ": 2534,
      "ᐥ": 2535,
      "ᐦ": 2536,
      "ᐧ": 2537,
      "ᐨ": 2538,
      "ᐯ": 2539,
      "ᐱ": 2540,
      "ᐳ": 2541,
      "ᐸ": 2542,
      "ᑉ": 2543,
      "ᑊ": 2544,
      "ᑌ": 2545,
      "ᑎ": 2546,
      "ᑐ": 2547,
      "ᑑ": 2548,
      "ᑕ": 2549,
      "ᑖ": 2550,
      "ᑦ": 2551,
      "ᑫ": 2552,
      "ᑭ": 2553,
      "ᑯ": 2554,
      "ᑲ": 2555,
      "ᒃ": 2556,
      "ᒡ": 2557,
      "ᒣ": 2558,
      "ᒥ": 2559,
      "ᒧ": 2560,
      "ᒪ": 2561,
      "ᒼ": 2562,
      "ᓀ": 2563,
      "ᓂ": 2564,
      "ᓄ": 2565,
      "ᓇ": 2566,
      "ᓗ": 2567,
      "ᔆ": 2568,
      "ᔪ": 2569,
      "ᔭ": 2570,
      "ᕁ": 2571,
      "ᕃ": 2572,
      "ᕄ": 2573,
      "ᕊ": 2574,
      "ᕍ": 2575,
      "ᕐ": 2576,
      "ᕕ": 2577,
      "ᕞ": 2578,
      "ᕠ": 2579,
      "ᕤ": 2580,
      "ᕦ": 2581,
      "ᕿ": 2582,
      "ᖃ": 2583,
      "ᖅ": 2584,
      "ᖆ": 2585,
      "ᖇ": 2586,
      "ᖈ": 2587,
      "ᖉ": 2588,
      "ᖊ": 2589,
      "ᖋ": 2590,
      "ᖌ": 2591,
      "ᖍ": 2592,
      "ᗀ": 2593,
      "ᗁ": 2594,
      "ᗂ": 2595,
      "ᗃ": 2596,
      "ᙆ": 2597,
      "ក": 2598,
      "ខ": 2599,
      "គ": 2600,
      "ឃ": 2601,
      "ង": 2602,
      "ច": 2603,
      "ឆ": 2604,
      "ជ": 2605,
      "ឈ": 2606,
      "ញ": 2607,
      "ដ": 2608,
      "ឋ": 2609,
      "ឌ": 2610,
      "ឍ": 2611,
      "ណ": 2612,
      "ត": 2613,
      "ថ": 2614,
      "ទ": 2615,
      "ធ": 2616,
      "ន": 2617,
      "ប": 2618,
      "ផ": 2619,
      "ព": 2620,
      "ភ": 2621,
      "ម": 2622,
      "យ": 2623,
      "រ": 2624,
      "ល": 2625,
      "វ": 2626,
      "ស": 2627,
      "ហ": 2628,
      "ឡ": 2629,
      "អ": 2630,
      "ឥ": 2631,
      "ឦ": 2632,
      "ឧ": 2633,
      "ឩ": 2634,
      "ឪ": 2635,
      "ឫ": 2636,
      "ឬ": 2637,
      "ឭ": 2638,
      "ឮ": 2639,
      "ឯ": 2640,
      "ឱ": 2641,
      "ឲ": 2642,
      "ា": 2643,
      "ិ": 2644,
      "ី": 2645,
      "ឹ": 2646,
      "ឺ": 2647,
      "ុ": 2648,
      "ូ": 2649,
      "ួ": 2650,
      "ើ": 2651,
      "ឿ": 2652,
      "ៀ": 2653,
      "េ": 2654,
      "ែ": 2655,
      "ៃ": 2656,
      "ោ": 2657,
      "ៅ": 2658,
      "ំ": 2659,
      "ះ": 2660,
      "ៈ": 2661,
      "៉": 2662,
      "៊": 2663,
      "់": 2664,
      "៌": 2665,
      "៍": 2666,
      "៎": 2667,
      "៏": 2668,
      "័": 2669,
      "្": 2670,
      "។": 2671,
      "៕": 2672,
      "៖": 2673,
      "ៗ": 2674,
      "០": 2675,
      "១": 2676,
      "២": 2677,
      "៣": 2678,
      "៤": 2679,
      "៥": 2680,
      "៦": 2681,
      "៧": 2682,
      "៨": 2683,
      "៩": 2684,
      "᠋": 2685,
      "᠌": 2686,
      "᠍": 2687,
      "ᠠ": 2688,
      "ᠡ": 2689,
      "ᠢ": 2690,
      "ᠣ": 2691,
      "ᠤ": 2692,
      "ᠥ": 2693,
      "ᠦ": 2694,
      "ᠨ": 2695,
      "ᠩ": 2696,
      "ᠪ": 2697,
      "ᠬ": 2698,
      "ᠭ": 2699,
      "ᠮ": 2700,
      "ᠯ": 2701,
      "ᠰ": 2702,
      "ᠲ": 2703,
      "ᠳ": 2704,
      "ᠴ": 2705,
      "ᠵ": 2706,
      "ᠶ": 2707,
      "ᠷ": 2708,
      "ᠸ": 2709,
      "ᠽ": 2710,
      "ᡝ": 2711,
      "ᡠ": 2712,
      "ᡡ": 2713,
      "ᡤ": 2714,
      "ᡥ": 2715,
      "ᡧ": 2716,
      "ᡨ": 2717,
      "ᡩ": 2718,
      "ᡯ": 2719,
      "ᡳ": 2720,
      "ᡴ": 2721,
      "ᡵ": 2722,
      "ᬩ": 2723,
      "ᬮ": 2724,
      "ᬲ": 2725,
      "ᬶ": 2726,
      "ᮃ": 2727,
      "ᮊ": 2728,
      "ᮓ": 2729,
      "ᮔ": 2730,
      "ᮘ": 2731,
      "ᮛ": 2732,
      "ᮞ": 2733,
      "ᮥ": 2734,
      "᮪": 2735,
      "ᵒ": 2736,
      "ᵹ": 2737,
      "ᵻ": 2738,
      "ᵿ": 2739,
      "ḇ": 2740,
      "Ḍ": 2741,
      "ḍ": 2742,
      "Ḏ": 2743,
      "ḏ": 2744,
      "ḑ": 2745,
      "ḕ": 2746,
      "ḗ": 2747,
      "Ḡ": 2748,
      "ḡ": 2749,
      "Ḥ": 2750,
      "ḥ": 2751,
      "ḩ": 2752,
      "Ḫ": 2753,
      "ḫ": 2754,
      "ḱ": 2755,
      "ḳ": 2756,
      "ḵ": 2757,
      "Ḷ": 2758,
      "ḷ": 2759,
      "ḻ": 2760,
      "ḿ": 2761,
      "ṁ": 2762,
      "ṃ": 2763,
      "Ṅ": 2764,
      "ṅ": 2765,
      "ṇ": 2766,
      "ṓ": 2767,
      "ṗ": 2768,
      "Ṛ": 2769,
      "ṛ": 2770,
      "ṡ": 2771,
      "Ṣ": 2772,
      "ṣ": 2773,
      "Ṭ": 2774,
      "ṭ": 2775,
      "ṯ": 2776,
      "Ṳ": 2777,
      "ṳ": 2778,
      "ṵ": 2779,
      "ṿ": 2780,
      "ẁ": 2781,
      "ẉ": 2782,
      "Ẋ": 2783,
      "ẋ": 2784,
      "ẍ": 2785,
      "Ẑ": 2786,
      "ẑ": 2787,
      "Ẓ": 2788,
      "ẓ": 2789,
      "ẖ": 2790,
      "ẚ": 2791,
      "ạ": 2792,
      "Ả": 2793,
      "ả": 2794,
      "Ấ": 2795,
      "ấ": 2796,
      "ầ": 2797,
      "ẩ": 2798,
      "ẫ": 2799,
      "ậ": 2800,
      "ắ": 2801,
      "ằ": 2802,
      "ẳ": 2803,
      "ẵ": 2804,
      "ặ": 2805,
      "Ẹ": 2806,
      "ẹ": 2807,
      "ẻ": 2808,
      "Ẽ": 2809,
      "ẽ": 2810,
      "ế": 2811,
      "ề": 2812,
      "ể": 2813,
      "ễ": 2814,
      "ệ": 2815,
      "ỉ": 2816,
      "Ị": 2817,
      "ị": 2818,
      "Ọ": 2819,
      "ọ": 2820,
      "ỏ": 2821,
      "ố": 2822,
      "ồ": 2823,
      "ổ": 2824,
      "ỗ": 2825,
      "ộ": 2826,
      "ớ": 2827,
      "ờ": 2828,
      "Ở": 2829,
      "ở": 2830,
      "ỡ": 2831,
      "ợ": 2832,
      "Ụ": 2833,
      "ụ": 2834,
      "Ủ": 2835,
      "ủ": 2836,
      "Ứ": 2837,
      "ứ": 2838,
      "ừ": 2839,
      "ử": 2840,
      "ữ": 2841,
      "ự": 2842,
      "Ỳ": 2843,
      "ỳ": 2844,
      "ỵ": 2845,
      "Ỷ": 2846,
      "ỷ": 2847,
      "ỹ": 2848,
      "ἀ": 2849,
      "ἁ": 2850,
      "ἂ": 2851,
      "ἄ": 2852,
      "ἅ": 2853,
      "Ἀ": 2854,
      "Ἁ": 2855,
      "Ἆ": 2856,
      "ἐ": 2857,
      "ἔ": 2858,
      "ἕ": 2859,
      "Ἐ": 2860,
      "Ἑ": 2861,
      "Ἔ": 2862,
      "ἡ": 2863,
      "Ἡ": 2864,
      "Ἥ": 2865,
      "Ἦ": 2866,
      "ἰ": 2867,
      "ἱ": 2868,
      "ἴ": 2869,
      "ἶ": 2870,
      "ἷ": 2871,
      "Ἰ": 2872,
      "ὀ": 2873,
      "ὁ": 2874,
      "ὄ": 2875,
      "ὅ": 2876,
      "Ὀ": 2877,
      "Ὄ": 2878,
      "Ὅ": 2879,
      "ὐ": 2880,
      "ὑ": 2881,
      "ὕ": 2882,
      "ὖ": 2883,
      "Ὑ": 2884,
      "Ὕ": 2885,
      "Ὠ": 2886,
      "ὰ": 2887,
      "ὴ": 2888,
      "ὶ": 2889,
      "ὸ": 2890,
      "ὺ": 2891,
      "ᾰ": 2892,
      "ᾱ": 2893,
      "ᾶ": 2894,
      "᾽": 2895,
      "᾿": 2896,
      "ῆ": 2897,
      "ῖ": 2898,
      "ῥ": 2899,
      "ῦ": 2900,
      "Ῥ": 2901,
      "ῳ": 2902,
      "ῶ": 2903,
      "ῷ": 2904,
      "῾": 2905,
      "​": 2906,
      "‌": 2907,
      "‍": 2908,
      "‎": 2909,
      "‏": 2910,
      "‐": 2911,
      "‑": 2912,
      "‒": 2913,
      "–": 2914,
      "—": 2915,
      "―": 2916,
      "‘": 2917,
      "’": 2918,
      "‚": 2919,
      "‛": 2920,
      "“": 2921,
      "”": 2922,
      "„": 2923,
      "‟": 2924,
      "†": 2925,
      "‡": 2926,
      "•": 2927,
      "․": 2928,
      "…": 2929,
      "‧": 2930,
      "‫": 2931,
      "‬": 2932,
      "‭": 2933,
      "‮": 2934,
      "‰": 2935,
      "′": 2936,
      "″": 2937,
      "‹": 2938,
      "›": 2939,
      "※": 2940,
      "‿": 2941,
      "⁄": 2942,
      "⁠": 2943,
      "⁶": 2944,
      "ⁿ": 2945,
      "₁": 2946,
      "₂": 2947,
      "₃": 2948,
      "₆": 2949,
      "₨": 2950,
      "₪": 2951,
      "€": 2952,
      "₱": 2953,
      "₹": 2954,
      "₽": 2955,
      "℃": 2956,
      "ℓ": 2957,
      "℔": 2958,
      "№": 2959,
      "ℝ": 2960,
      "™": 2961,
      "ℤ": 2962,
      "ℵ": 2963,
      "⅓": 2964,
      "⅔": 2965,
      "⅛": 2966,
      "Ⅱ": 2967,
      "↑": 2968,
      "→": 2969,
      "↓": 2970,
      "↔": 2971,
      "↗": 2972,
      "↦": 2973,
      "⇆": 2974,
      "⇡": 2975,
      "∀": 2976,
      "∅": 2977,
      "∆": 2978,
      "∈": 2979,
      "−": 2980,
      "√": 2981,
      "∝": 2982,
      "∞": 2983,
      "∴": 2984,
      "∶": 2985,
      "∼": 2986,
      "≈": 2987,
      "≒": 2988,
      "≠": 2989,
      "≤": 2990,
      "≥": 2991,
      "⊕": 2992,
      "⋅": 2993,
      "⋯": 2994,
      "⍺": 2995,
      "①": 2996,
      "②": 2997,
      "⑥": 2998,
      "─": 2999,
      "■": 3000,
      "□": 3001,
      "▪": 3002,
      "▭": 3003,
      "►": 3004,
      "◄": 3005,
      "○": 3006,
      "●": 3007,
      "◦": 3008,
      "★": 3009,
      "☆": 3010,
      "☉": 3011,
      "☞": 3012,
      "♀": 3013,
      "♁": 3014,
      "♂": 3015,
      "♄": 3016,
      "♆": 3017,
      "♖": 3018,
      "♜": 3019,
      "♡": 3020,
      "♭": 3021,
      "✈": 3022,
      "⟶": 3023,
      "⠀": 3024,
      "⠁": 3025,
      "⠎": 3026,
      "⠓": 3027,
      "⠕": 3028,
      "⠗": 3029,
      "⠙": 3030,
      "⠚": 3031,
      "⠝": 3032,
      "⠟": 3033,
      "⠠": 3034,
      "⠥": 3035,
      "Ȿ": 3036,
      "ⲉ": 3037,
      "ⲏ": 3038,
      "ⲓ": 3039,
      "Ⲙ": 3040,
      "ⲙ": 3041,
      "ⲛ": 3042,
      "ⲣ": 3043,
      "ⲧ": 3044,
      "ⲭ": 3045,
      "ⴰ": 3046,
      "ⴱ": 3047,
      "ⴳ": 3048,
      "ⴷ": 3049,
      "ⴹ": 3050,
      "ⴻ": 3051,
      "ⴼ": 3052,
      "ⴽ": 3053,
      "ⵀ": 3054,
      "ⵃ": 3055,
      "ⵄ": 3056,
      "ⵅ": 3057,
      "ⵇ": 3058,
      "ⵉ": 3059,
      "ⵊ": 3060,
      "ⵍ": 3061,
      "ⵎ": 3062,
      "ⵏ": 3063,
      "ⵒ": 3064,
      "ⵓ": 3065,
      "ⵔ": 3066,
      "ⵖ": 3067,
      "ⵙ": 3068,
      "ⵚ": 3069,
      "ⵛ": 3070,
      "ⵜ": 3071,
      "ⵝ": 3072,
      "ⵟ": 3073,
      "ⵡ": 3074,
      "ⵢ": 3075,
      "ⵣ": 3076,
      "ⵥ": 3077,
      "ⵯ": 3078,
      "、": 3079,
      "。": 3080,
      "々": 3081,
      "〇": 3082,
      "〈": 3083,
      "〉": 3084,
      "《": 3085,
      "》": 3086,
      "「": 3087,
      "」": 3088,
      "『": 3089,
      "』": 3090,
      "【": 3091,
      "】": 3092,
      "〔": 3093,
      "〕": 3094,
      "〜": 3095,
      "あ": 3096,
      "い": 3097,
      "う": 3098,
      "え": 3099,
      "お": 3100,
      "か": 3101,
      "が": 3102,
      "き": 3103,
      "ぎ": 3104,
      "く": 3105,
      "ぐ": 3106,
      "け": 3107,
      "げ": 3108,
      "こ": 3109,
      "ご": 3110,
      "さ": 3111,
      "ざ": 3112,
      "し": 3113,
      "じ": 3114,
      "す": 3115,
      "ず": 3116,
      "せ": 3117,
      "ぜ": 3118,
      "そ": 3119,
      "ぞ": 3120,
      "た": 3121,
      "だ": 3122,
      "ち": 3123,
      "ぢ": 3124,
      "っ": 3125,
      "つ": 3126,
      "づ": 3127,
      "て": 3128,
      "で": 3129,
      "と": 3130,
      "ど": 3131,
      "な": 3132,
      "に": 3133,
      "ぬ": 3134,
      "ね": 3135,
      "の": 3136,
      "は": 3137,
      "ば": 3138,
      "ぱ": 3139,
      "ひ": 3140,
      "び": 3141,
      "ぴ": 3142,
      "ふ": 3143,
      "ぶ": 3144,
      "へ": 3145,
      "べ": 3146,
      "ほ": 3147,
      "ぼ": 3148,
      "ぽ": 3149,
      "ま": 3150,
      "み": 3151,
      "む": 3152,
      "め": 3153,
      "も": 3154,
      "ゃ": 3155,
      "や": 3156,
      "ゅ": 3157,
      "ゆ": 3158,
      "ょ": 3159,
      "よ": 3160,
      "ら": 3161,
      "り": 3162,
      "る": 3163,
      "れ": 3164,
      "ろ": 3165,
      "わ": 3166,
      "を": 3167,
      "ん": 3168,
      "゛": 3169,
      "゜": 3170,
      "ァ": 3171,
      "ア": 3172,
      "ィ": 3173,
      "イ": 3174,
      "ゥ": 3175,
      "ウ": 3176,
      "ェ": 3177,
      "エ": 3178,
      "ォ": 3179,
      "オ": 3180,
      "カ": 3181,
      "ガ": 3182,
      "キ": 3183,
      "ギ": 3184,
      "ク": 3185,
      "グ": 3186,
      "ケ": 3187,
      "ゲ": 3188,
      "コ": 3189,
      "ゴ": 3190,
      "サ": 3191,
      "ザ": 3192,
      "シ": 3193,
      "ジ": 3194,
      "ス": 3195,
      "ズ": 3196,
      "セ": 3197,
      "ゼ": 3198,
      "ソ": 3199,
      "ゾ": 3200,
      "タ": 3201,
      "ダ": 3202,
      "チ": 3203,
      "ヂ": 3204,
      "ッ": 3205,
      "ツ": 3206,
      "テ": 3207,
      "デ": 3208,
      "ト": 3209,
      "ド": 3210,
      "ナ": 3211,
      "ニ": 3212,
      "ヌ": 3213,
      "ネ": 3214,
      "ノ": 3215,
      "ハ": 3216,
      "バ": 3217,
      "パ": 3218,
      "ヒ": 3219,
      "ビ": 3220,
      "ピ": 3221,
      "フ": 3222,
      "ブ": 3223,
      "プ": 3224,
      "ヘ": 3225,
      "ベ": 3226,
      "ペ": 3227,
      "ホ": 3228,
      "ボ": 3229,
      "ポ": 3230,
      "マ": 3231,
      "ミ": 3232,
      "ム": 3233,
      "メ": 3234,
      "モ": 3235,
      "ャ": 3236,
      "ヤ": 3237,
      "ュ": 3238,
      "ユ": 3239,
      "ョ": 3240,
      "ヨ": 3241,
      "ラ": 3242,
      "リ": 3243,
      "ル": 3244,
      "レ": 3245,
      "ロ": 3246,
      "ワ": 3247,
      "ヲ": 3248,
      "ン": 3249,
      "ヴ": 3250,
      "ヵ": 3251,
      "ヶ": 3252,
      "・": 3253,
      "ー": 3254,
      "ㄴ": 3255,
      "ㄷ": 3256,
      "ㄹ": 3257,
      "ㅇ": 3258,
      "ㅈ": 3259,
      "ㅌ": 3260,
      "ㅏ": 3261,
      "ㅐ": 3262,
      "ㅑ": 3263,
      "ㅒ": 3264,
      "ㅓ": 3265,
      "ㅔ": 3266,
      "ㅕ": 3267,
      "ㅖ": 3268,
      "ㅚ": 3269,
      "ㅛ": 3270,
      "ㅟ": 3271,
      "ㅠ": 3272,
      "ㅢ": 3273,
      "ㅣ": 3274,
      "ㆀ": 3275,
      "ㆉ": 3276,
      "ㆌ": 3277,
      "ㆍ": 3278,
      "ㆎ": 3279,
      "㈱": 3280,
      "㎡": 3281,
      "㑚": 3282,
      "㒟": 3283,
      "㗎": 3284,
      "㬮": 3285,
      "㮙": 3286,
      "㷫": 3287,
      "㻋": 3288,
      "䐶": 3289,
      "䗃": 3290,
      "䜒": 3291,
      "一": 3292,
      "丁": 3293,
      "七": 3294,
      "丄": 3295,
      "万": 3296,
      "丈": 3297,
      "三": 3298,
      "上": 3299,
      "下": 3300,
      "不": 3301,
      "与": 3302,
      "丐": 3303,
      "丑": 3304,
      "专": 3305,
      "且": 3306,
      "丕": 3307,
      "世": 3308,
      "丘": 3309,
      "丙": 3310,
      "业": 3311,
      "丛": 3312,
      "东": 3313,
      "丝": 3314,
      "丞": 3315,
      "丟": 3316,
      "両": 3317,
      "丢": 3318,
      "两": 3319,
      "严": 3320,
      "並": 3321,
      "丧": 3322,
      "个": 3323,
      "中": 3324,
      "丰": 3325,
      "串": 3326,
      "临": 3327,
      "丸": 3328,
      "丹": 3329,
      "为": 3330,
      "主": 3331,
      "丽": 3332,
      "举": 3333,
      "乂": 3334,
      "乃": 3335,
      "久": 3336,
      "乇": 3337,
      "么": 3338,
      "义": 3339,
      "之": 3340,
      "乌": 3341,
      "乍": 3342,
      "乎": 3343,
      "乏": 3344,
      "乐": 3345,
      "乒": 3346,
      "乔": 3347,
      "乖": 3348,
      "乗": 3349,
      "乘": 3350,
      "乙": 3351,
      "乜": 3352,
      "九": 3353,
      "乞": 3354,
      "也": 3355,
      "习": 3356,
      "乡": 3357,
      "书": 3358,
      "买": 3359,
      "乱": 3360,
      "乳": 3361,
      "乸": 3362,
      "乾": 3363,
      "亀": 3364,
      "亂": 3365,
      "了": 3366,
      "亇": 3367,
      "予": 3368,
      "争": 3369,
      "事": 3370,
      "二": 3371,
      "于": 3372,
      "亏": 3373,
      "云": 3374,
      "互": 3375,
      "五": 3376,
      "井": 3377,
      "亘": 3378,
      "亙": 3379,
      "亚": 3380,
      "些": 3381,
      "亜": 3382,
      "亞": 3383,
      "亟": 3384,
      "亡": 3385,
      "亢": 3386,
      "交": 3387,
      "亥": 3388,
      "亦": 3389,
      "产": 3390,
      "亨": 3391,
      "亩": 3392,
      "享": 3393,
      "京": 3394,
      "亭": 3395,
      "亮": 3396,
      "亲": 3397,
      "亳": 3398,
      "人": 3399,
      "亿": 3400,
      "什": 3401,
      "仁": 3402,
      "仂": 3403,
      "仄": 3404,
      "仅": 3405,
      "仆": 3406,
      "仇": 3407,
      "今": 3408,
      "介": 3409,
      "仍": 3410,
      "从": 3411,
      "仏": 3412,
      "仑": 3413,
      "仓": 3414,
      "仔": 3415,
      "仕": 3416,
      "他": 3417,
      "仗": 3418,
      "付": 3419,
      "仙": 3420,
      "仝": 3421,
      "仞": 3422,
      "仟": 3423,
      "代": 3424,
      "令": 3425,
      "以": 3426,
      "仪": 3427,
      "们": 3428,
      "仮": 3429,
      "仰": 3430,
      "仲": 3431,
      "件": 3432,
      "价": 3433,
      "任": 3434,
      "份": 3435,
      "仿": 3436,
      "企": 3437,
      "伉": 3438,
      "伊": 3439,
      "伋": 3440,
      "伍": 3441,
      "伎": 3442,
      "伏": 3443,
      "伐": 3444,
      "休": 3445,
      "伓": 3446,
      "众": 3447,
      "优": 3448,
      "伙": 3449,
      "会": 3450,
      "伝": 3451,
      "伟": 3452,
      "传": 3453,
      "伢": 3454,
      "伤": 3455,
      "伦": 3456,
      "伪": 3457,
      "伯": 3458,
      "估": 3459,
      "伲": 3460,
      "伴": 3461,
      "伶": 3462,
      "伸": 3463,
      "伺": 3464,
      "似": 3465,
      "伽": 3466,
      "佃": 3467,
      "但": 3468,
      "佈": 3469,
      "佌": 3470,
      "位": 3471,
      "低": 3472,
      "住": 3473,
      "佐": 3474,
      "佑": 3475,
      "体": 3476,
      "佔": 3477,
      "何": 3478,
      "佖": 3479,
      "佗": 3480,
      "佘": 3481,
      "余": 3482,
      "佚": 3483,
      "佛": 3484,
      "作": 3485,
      "佞": 3486,
      "佟": 3487,
      "你": 3488,
      "佢": 3489,
      "佣": 3490,
      "佩": 3491,
      "佬": 3492,
      "佯": 3493,
      "佰": 3494,
      "佳": 3495,
      "併": 3496,
      "佻": 3497,
      "佼": 3498,
      "使": 3499,
      "侃": 3500,
      "侄": 3501,
      "來": 3502,
      "侈": 3503,
      "例": 3504,
      "侍": 3505,
      "侏": 3506,
      "侖": 3507,
      "供": 3508,
      "依": 3509,
      "侠": 3510,
      "価": 3511,
      "侣": 3512,
      "侦": 3513,
      "侧": 3514,
      "侨": 3515,
      "侪": 3516,
      "侮": 3517,
      "侯": 3518,
      "侵": 3519,
      "侶": 3520,
      "侷": 3521,
      "便": 3522,
      "俁": 3523,
      "係": 3524,
      "促": 3525,
      "俄": 3526,
      "俊": 3527,
      "俑": 3528,
      "俗": 3529,
      "俘": 3530,
      "俚": 3531,
      "俛": 3532,
      "保": 3533,
      "俞": 3534,
      "俟": 3535,
      "俠": 3536,
      "信": 3537,
      "俨": 3538,
      "俩": 3539,
      "俫": 3540,
      "修": 3541,
      "俯": 3542,
      "俱": 3543,
      "俳": 3544,
      "俵": 3545,
      "俶": 3546,
      "俸": 3547,
      "俺": 3548,
      "俾": 3549,
      "倂": 3550,
      "倅": 3551,
      "倉": 3552,
      "個": 3553,
      "倌": 3554,
      "倍": 3555,
      "們": 3556,
      "倒": 3557,
      "倓": 3558,
      "倖": 3559,
      "倘": 3560,
      "候": 3561,
      "倚": 3562,
      "倛": 3563,
      "借": 3564,
      "倡": 3565,
      "倣": 3566,
      "値": 3567,
      "倦": 3568,
      "倧": 3569,
      "倪": 3570,
      "倫": 3571,
      "倭": 3572,
      "倷": 3573,
      "债": 3574,
      "值": 3575,
      "倾": 3576,
      "偁": 3577,
      "偃": 3578,
      "假": 3579,
      "偉": 3580,
      "偎": 3581,
      "偏": 3582,
      "偕": 3583,
      "做": 3584,
      "停": 3585,
      "偣": 3586,
      "健": 3587,
      "偲": 3588,
      "側": 3589,
      "偵": 3590,
      "偶": 3591,
      "偷": 3592,
      "偽": 3593,
      "偿": 3594,
      "傀": 3595,
      "傅": 3596,
      "傉": 3597,
      "傍": 3598,
      "傑": 3599,
      "傒": 3600,
      "傕": 3601,
      "傘": 3602,
      "備": 3603,
      "傜": 3604,
      "傢": 3605,
      "傣": 3606,
      "傥": 3607,
      "储": 3608,
      "催": 3609,
      "傭": 3610,
      "傲": 3611,
      "傳": 3612,
      "債": 3613,
      "傷": 3614,
      "傾": 3615,
      "僅": 3616,
      "僉": 3617,
      "働": 3618,
      "像": 3619,
      "僑": 3620,
      "僕": 3621,
      "僖": 3622,
      "僚": 3623,
      "僞": 3624,
      "僦": 3625,
      "僧": 3626,
      "僭": 3627,
      "僮": 3628,
      "僱": 3629,
      "僵": 3630,
      "價": 3631,
      "僻": 3632,
      "儀": 3633,
      "儁": 3634,
      "儂": 3635,
      "億": 3636,
      "儉": 3637,
      "儒": 3638,
      "儕": 3639,
      "儘": 3640,
      "償": 3641,
      "儡": 3642,
      "優": 3643,
      "儲": 3644,
      "儷": 3645,
      "儼": 3646,
      "儿": 3647,
      "兀": 3648,
      "允": 3649,
      "元": 3650,
      "兄": 3651,
      "充": 3652,
      "兆": 3653,
      "兇": 3654,
      "先": 3655,
      "光": 3656,
      "克": 3657,
      "兌": 3658,
      "免": 3659,
      "児": 3660,
      "兑": 3661,
      "兒": 3662,
      "兔": 3663,
      "兖": 3664,
      "兗": 3665,
      "党": 3666,
      "兜": 3667,
      "入": 3668,
      "內": 3669,
      "全": 3670,
      "兩": 3671,
      "兪": 3672,
      "八": 3673,
      "公": 3674,
      "六": 3675,
      "兮": 3676,
      "兰": 3677,
      "共": 3678,
      "关": 3679,
      "兴": 3680,
      "兵": 3681,
      "其": 3682,
      "具": 3683,
      "典": 3684,
      "兹": 3685,
      "养": 3686,
      "兼": 3687,
      "兽": 3688,
      "冀": 3689,
      "内": 3690,
      "円": 3691,
      "冇": 3692,
      "冈": 3693,
      "冉": 3694,
      "冊": 3695,
      "册": 3696,
      "再": 3697,
      "冑": 3698,
      "冒": 3699,
      "冕": 3700,
      "冗": 3701,
      "写": 3702,
      "冚": 3703,
      "军": 3704,
      "农": 3705,
      "冠": 3706,
      "冤": 3707,
      "冥": 3708,
      "冧": 3709,
      "冪": 3710,
      "冬": 3711,
      "冯": 3712,
      "冰": 3713,
      "冲": 3714,
      "决": 3715,
      "况": 3716,
      "冶": 3717,
      "冷": 3718,
      "冻": 3719,
      "净": 3720,
      "准": 3721,
      "凈": 3722,
      "凉": 3723,
      "凋": 3724,
      "凌": 3725,
      "凍": 3726,
      "减": 3727,
      "凜": 3728,
      "凝": 3729,
      "几": 3730,
      "凡": 3731,
      "凤": 3732,
      "処": 3733,
      "凧": 3734,
      "凭": 3735,
      "凯": 3736,
      "凰": 3737,
      "凱": 3738,
      "凳": 3739,
      "凶": 3740,
      "凸": 3741,
      "凹": 3742,
      "出": 3743,
      "击": 3744,
      "函": 3745,
      "凿": 3746,
      "刀": 3747,
      "刁": 3748,
      "刃": 3749,
      "分": 3750,
      "切": 3751,
      "刈": 3752,
      "刊": 3753,
      "刑": 3754,
      "划": 3755,
      "列": 3756,
      "刘": 3757,
      "则": 3758,
      "刚": 3759,
      "创": 3760,
      "初": 3761,
      "删": 3762,
      "刣": 3763,
      "判": 3764,
      "別": 3765,
      "利": 3766,
      "刪": 3767,
      "别": 3768,
      "刮": 3769,
      "到": 3770,
      "制": 3771,
      "刷": 3772,
      "券": 3773,
      "刹": 3774,
      "刺": 3775,
      "刻": 3776,
      "剂": 3777,
      "剃": 3778,
      "剄": 3779,
      "則": 3780,
      "削": 3781,
      "剋": 3782,
      "剌": 3783,
      "前": 3784,
      "剎": 3785,
      "剑": 3786,
      "剔": 3787,
      "剖": 3788,
      "剛": 3789,
      "剜": 3790,
      "剝": 3791,
      "剞": 3792,
      "剡": 3793,
      "剢": 3794,
      "剣": 3795,
      "剤": 3796,
      "剥": 3797,
      "剧": 3798,
      "剩": 3799,
      "剪": 3800,
      "剮": 3801,
      "副": 3802,
      "割": 3803,
      "創": 3804,
      "剷": 3805,
      "剽": 3806,
      "剿": 3807,
      "劂": 3808,
      "劃": 3809,
      "劄": 3810,
      "劇": 3811,
      "劉": 3812,
      "劍": 3813,
      "劑": 3814,
      "力": 3815,
      "劝": 3816,
      "办": 3817,
      "功": 3818,
      "加": 3819,
      "务": 3820,
      "劣": 3821,
      "劦": 3822,
      "动": 3823,
      "助": 3824,
      "努": 3825,
      "劫": 3826,
      "劭": 3827,
      "励": 3828,
      "劲": 3829,
      "劳": 3830,
      "労": 3831,
      "効": 3832,
      "劾": 3833,
      "势": 3834,
      "勁": 3835,
      "勃": 3836,
      "勅": 3837,
      "勇": 3838,
      "勉": 3839,
      "勋": 3840,
      "勐": 3841,
      "勒": 3842,
      "動": 3843,
      "勘": 3844,
      "務": 3845,
      "勛": 3846,
      "勝": 3847,
      "勞": 3848,
      "募": 3849,
      "勢": 3850,
      "勤": 3851,
      "勦": 3852,
      "勧": 3853,
      "勱": 3854,
      "勲": 3855,
      "勳": 3856,
      "勵": 3857,
      "勸": 3858,
      "勺": 3859,
      "勻": 3860,
      "勾": 3861,
      "勿": 3862,
      "匀": 3863,
      "匂": 3864,
      "包": 3865,
      "匈": 3866,
      "匕": 3867,
      "化": 3868,
      "北": 3869,
      "匙": 3870,
      "匝": 3871,
      "匠": 3872,
      "匡": 3873,
      "匪": 3874,
      "匯": 3875,
      "匱": 3876,
      "匹": 3877,
      "区": 3878,
      "医": 3879,
      "匿": 3880,
      "區": 3881,
      "十": 3882,
      "千": 3883,
      "卅": 3884,
      "升": 3885,
      "午": 3886,
      "卉": 3887,
      "半": 3888,
      "华": 3889,
      "协": 3890,
      "卑": 3891,
      "卒": 3892,
      "卓": 3893,
      "協": 3894,
      "单": 3895,
      "卖": 3896,
      "南": 3897,
      "単": 3898,
      "博": 3899,
      "卜": 3900,
      "卞": 3901,
      "占": 3902,
      "卡": 3903,
      "卢": 3904,
      "卧": 3905,
      "卫": 3906,
      "卯": 3907,
      "印": 3908,
      "危": 3909,
      "即": 3910,
      "却": 3911,
      "卵": 3912,
      "卷": 3913,
      "卸": 3914,
      "卻": 3915,
      "卽": 3916,
      "卿": 3917,
      "厂": 3918,
      "厄": 3919,
      "厅": 3920,
      "历": 3921,
      "厉": 3922,
      "压": 3923,
      "厌": 3924,
      "厕": 3925,
      "厘": 3926,
      "厚": 3927,
      "厝": 3928,
      "原": 3929,
      "厢": 3930,
      "厥": 3931,
      "厦": 3932,
      "厨": 3933,
      "厩": 3934,
      "厮": 3935,
      "厰": 3936,
      "厲": 3937,
      "厳": 3938,
      "去": 3939,
      "县": 3940,
      "参": 3941,
      "參": 3942,
      "又": 3943,
      "叉": 3944,
      "及": 3945,
      "友": 3946,
      "双": 3947,
      "反": 3948,
      "収": 3949,
      "发": 3950,
      "叔": 3951,
      "取": 3952,
      "受": 3953,
      "变": 3954,
      "叙": 3955,
      "叛": 3956,
      "叟": 3957,
      "叠": 3958,
      "叢": 3959,
      "口": 3960,
      "古": 3961,
      "句": 3962,
      "另": 3963,
      "叩": 3964,
      "只": 3965,
      "叫": 3966,
      "召": 3967,
      "可": 3968,
      "台": 3969,
      "叱": 3970,
      "史": 3971,
      "右": 3972,
      "叶": 3973,
      "号": 3974,
      "司": 3975,
      "叻": 3976,
      "吁": 3977,
      "吂": 3978,
      "吃": 3979,
      "各": 3980,
      "合": 3981,
      "吉": 3982,
      "吊": 3983,
      "吋": 3984,
      "同": 3985,
      "名": 3986,
      "后": 3987,
      "吏": 3988,
      "吐": 3989,
      "向": 3990,
      "吓": 3991,
      "吕": 3992,
      "吗": 3993,
      "君": 3994,
      "吝": 3995,
      "吞": 3996,
      "吟": 3997,
      "吠": 3998,
      "否": 3999,
      "吧": 4000,
      "吨": 4001,
      "含": 4002,
      "听": 4003,
      "启": 4004,
      "吳": 4005,
      "吴": 4006,
      "吶": 4007,
      "吸": 4008,
      "吹": 4009,
      "吻": 4010,
      "吼": 4011,
      "吾": 4012,
      "呀": 4013,
      "呂": 4014,
      "呆": 4015,
      "呈": 4016,
      "呉": 4017,
      "告": 4018,
      "呎": 4019,
      "呑": 4020,
      "呒": 4021,
      "呕": 4022,
      "员": 4023,
      "呟": 4024,
      "呢": 4025,
      "呣": 4026,
      "周": 4027,
      "味": 4028,
      "呴": 4029,
      "呵": 4030,
      "呷": 4031,
      "呻": 4032,
      "呼": 4033,
      "命": 4034,
      "咀": 4035,
      "咁": 4036,
      "咆": 4037,
      "咋": 4038,
      "和": 4039,
      "咎": 4040,
      "咏": 4041,
      "咒": 4042,
      "咖": 4043,
      "咗": 4044,
      "咤": 4045,
      "咧": 4046,
      "咨": 4047,
      "咩": 4048,
      "咪": 4049,
      "咫": 4050,
      "咬": 4051,
      "咭": 4052,
      "咯": 4053,
      "咳": 4054,
      "咸": 4055,
      "咽": 4056,
      "咾": 4057,
      "哀": 4058,
      "品": 4059,
      "哂": 4060,
      "哄": 4061,
      "哆": 4062,
      "哇": 4063,
      "哈": 4064,
      "哉": 4065,
      "哋": 4066,
      "响": 4067,
      "哚": 4068,
      "員": 4069,
      "哥": 4070,
      "哨": 4071,
      "哩": 4072,
      "哪": 4073,
      "哭": 4074,
      "哮": 4075,
      "哲": 4076,
      "哺": 4077,
      "哼": 4078,
      "哽": 4079,
      "唁": 4080,
      "唄": 4081,
      "唆": 4082,
      "唇": 4083,
      "唐": 4084,
      "唔": 4085,
      "唠": 4086,
      "唤": 4087,
      "唥": 4088,
      "唪": 4089,
      "售": 4090,
      "唯": 4091,
      "唱": 4092,
      "唻": 4093,
      "唾": 4094,
      "啄": 4095,
      "商": 4096,
      "啊": 4097,
      "問": 4098,
      "啓": 4099,
      "啘": 4100,
      "啟": 4101,
      "啡": 4102,
      "啣": 4103,
      "啤": 4104,
      "啥": 4105,
      "啦": 4106,
      "啬": 4107,
      "啰": 4108,
      "啱": 4109,
      "啲": 4110,
      "啼": 4111,
      "喀": 4112,
      "善": 4113,
      "喇": 4114,
      "喉": 4115,
      "喊": 4116,
      "喋": 4117,
      "喐": 4118,
      "喙": 4119,
      "喚": 4120,
      "喜": 4121,
      "喝": 4122,
      "喟": 4123,
      "喥": 4124,
      "喧": 4125,
      "喨": 4126,
      "喪": 4127,
      "喫": 4128,
      "喬": 4129,
      "單": 4130,
      "喰": 4131,
      "営": 4132,
      "喷": 4133,
      "喺": 4134,
      "喻": 4135,
      "喾": 4136,
      "嗆": 4137,
      "嗇": 4138,
      "嗌": 4139,
      "嗎": 4140,
      "嗓": 4141,
      "嗚": 4142,
      "嗜": 4143,
      "嗟": 4144,
      "嗣": 4145,
      "嗤": 4146,
      "嗦": 4147,
      "嗨": 4148,
      "嗮": 4149,
      "嗰": 4150,
      "嗱": 4151,
      "嗲": 4152,
      "嗽": 4153,
      "嘀": 4154,
      "嘅": 4155,
      "嘆": 4156,
      "嘉": 4157,
      "嘎": 4158,
      "嘔": 4159,
      "嘗": 4160,
      "嘘": 4161,
      "嘛": 4162,
      "嘞": 4163,
      "嘟": 4164,
      "嘢": 4165,
      "嘥": 4166,
      "嘦": 4167,
      "嘯": 4168,
      "嘱": 4169,
      "嘲": 4170,
      "嘴": 4171,
      "嘸": 4172,
      "嘹": 4173,
      "嘻": 4174,
      "嘿": 4175,
      "噂": 4176,
      "噉": 4177,
      "噌": 4178,
      "噛": 4179,
      "噠": 4180,
      "噤": 4181,
      "器": 4182,
      "噪": 4183,
      "噬": 4184,
      "噴": 4185,
      "噶": 4186,
      "噸": 4187,
      "嚇": 4188,
      "嚎": 4189,
      "嚕": 4190,
      "嚜": 4191,
      "嚟": 4192,
      "嚥": 4193,
      "嚭": 4194,
      "嚮": 4195,
      "嚴": 4196,
      "嚼": 4197,
      "嚽": 4198,
      "嚿": 4199,
      "囇": 4200,
      "囉": 4201,
      "囊": 4202,
      "囑": 4203,
      "囘": 4204,
      "囚": 4205,
      "四": 4206,
      "囝": 4207,
      "回": 4208,
      "因": 4209,
      "囡": 4210,
      "团": 4211,
      "団": 4212,
      "囤": 4213,
      "囪": 4214,
      "囫": 4215,
      "园": 4216,
      "囯": 4217,
      "困": 4218,
      "囲": 4219,
      "図": 4220,
      "围": 4221,
      "固": 4222,
      "国": 4223,
      "图": 4224,
      "圀": 4225,
      "圄": 4226,
      "圆": 4227,
      "圇": 4228,
      "圈": 4229,
      "圉": 4230,
      "國": 4231,
      "圍": 4232,
      "圏": 4233,
      "園": 4234,
      "圓": 4235,
      "圖": 4236,
      "團": 4237,
      "圜": 4238,
      "土": 4239,
      "圣": 4240,
      "圧": 4241,
      "在": 4242,
      "圩": 4243,
      "圭": 4244,
      "圯": 4245,
      "地": 4246,
      "圳": 4247,
      "场": 4248,
      "圻": 4249,
      "圾": 4250,
      "址": 4251,
      "坂": 4252,
      "均": 4253,
      "坊": 4254,
      "坌": 4255,
      "坎": 4256,
      "坏": 4257,
      "坐": 4258,
      "坑": 4259,
      "块": 4260,
      "坚": 4261,
      "坛": 4262,
      "坝": 4263,
      "坞": 4264,
      "坡": 4265,
      "坦": 4266,
      "坪": 4267,
      "坰": 4268,
      "坳": 4269,
      "坵": 4270,
      "垂": 4271,
      "垃": 4272,
      "垄": 4273,
      "型": 4274,
      "垓": 4275,
      "垟": 4276,
      "垠": 4277,
      "垡": 4278,
      "垢": 4279,
      "垣": 4280,
      "垮": 4281,
      "垯": 4282,
      "垽": 4283,
      "埃": 4284,
      "埋": 4285,
      "城": 4286,
      "埒": 4287,
      "埔": 4288,
      "埗": 4289,
      "埞": 4290,
      "域": 4291,
      "埠": 4292,
      "埤": 4293,
      "埵": 4294,
      "埶": 4295,
      "執": 4296,
      "埸": 4297,
      "培": 4298,
      "基": 4299,
      "埼": 4300,
      "堀": 4301,
      "堂": 4302,
      "堃": 4303,
      "堅": 4304,
      "堆": 4305,
      "堈": 4306,
      "堊": 4307,
      "堕": 4308,
      "堡": 4309,
      "堤": 4310,
      "堪": 4311,
      "堯": 4312,
      "堰": 4313,
      "報": 4314,
      "場": 4315,
      "堵": 4316,
      "塁": 4317,
      "塊": 4318,
      "塋": 4319,
      "塌": 4320,
      "塑": 4321,
      "塔": 4322,
      "塗": 4323,
      "塘": 4324,
      "塚": 4325,
      "塞": 4326,
      "塡": 4327,
      "塩": 4328,
      "填": 4329,
      "塱": 4330,
      "塵": 4331,
      "塽": 4332,
      "塾": 4333,
      "境": 4334,
      "墅": 4335,
      "墊": 4336,
      "墓": 4337,
      "増": 4338,
      "墙": 4339,
      "墜": 4340,
      "增": 4341,
      "墟": 4342,
      "墨": 4343,
      "墩": 4344,
      "墭": 4345,
      "墮": 4346,
      "墳": 4347,
      "墻": 4348,
      "墾": 4349,
      "壁": 4350,
      "壇": 4351,
      "壊": 4352,
      "壌": 4353,
      "壓": 4354,
      "壕": 4355,
      "壘": 4356,
      "壙": 4357,
      "壞": 4358,
      "壟": 4359,
      "壤": 4360,
      "壩": 4361,
      "士": 4362,
      "壬": 4363,
      "壮": 4364,
      "壯": 4365,
      "声": 4366,
      "売": 4367,
      "壳": 4368,
      "壶": 4369,
      "壹": 4370,
      "壺": 4371,
      "壽": 4372,
      "处": 4373,
      "备": 4374,
      "変": 4375,
      "复": 4376,
      "夏": 4377,
      "夔": 4378,
      "夕": 4379,
      "外": 4380,
      "夘": 4381,
      "多": 4382,
      "夜": 4383,
      "够": 4384,
      "夠": 4385,
      "夢": 4386,
      "夤": 4387,
      "夥": 4388,
      "大": 4389,
      "天": 4390,
      "太": 4391,
      "夫": 4392,
      "夭": 4393,
      "央": 4394,
      "夯": 4395,
      "失": 4396,
      "头": 4397,
      "夷": 4398,
      "夸": 4399,
      "夹": 4400,
      "夺": 4401,
      "夾": 4402,
      "奄": 4403,
      "奇": 4404,
      "奈": 4405,
      "奉": 4406,
      "奋": 4407,
      "奎": 4408,
      "奏": 4409,
      "奐": 4410,
      "契": 4411,
      "奔": 4412,
      "奕": 4413,
      "奖": 4414,
      "套": 4415,
      "奘": 4416,
      "奚": 4417,
      "奠": 4418,
      "奢": 4419,
      "奥": 4420,
      "奧": 4421,
      "奨": 4422,
      "奪": 4423,
      "奬": 4424,
      "奭": 4425,
      "奮": 4426,
      "女": 4427,
      "奴": 4428,
      "奶": 4429,
      "奸": 4430,
      "她": 4431,
      "好": 4432,
      "如": 4433,
      "妃": 4434,
      "妄": 4435,
      "妆": 4436,
      "妇": 4437,
      "妈": 4438,
      "妍": 4439,
      "妒": 4440,
      "妓": 4441,
      "妖": 4442,
      "妗": 4443,
      "妙": 4444,
      "妝": 4445,
      "妥": 4446,
      "妨": 4447,
      "妮": 4448,
      "妹": 4449,
      "妻": 4450,
      "妾": 4451,
      "姆": 4452,
      "姉": 4453,
      "姊": 4454,
      "始": 4455,
      "姐": 4456,
      "姑": 4457,
      "姓": 4458,
      "委": 4459,
      "姚": 4460,
      "姜": 4461,
      "姣": 4462,
      "姦": 4463,
      "姨": 4464,
      "姪": 4465,
      "姫": 4466,
      "姬": 4467,
      "姻": 4468,
      "姿": 4469,
      "威": 4470,
      "娃": 4471,
      "娅": 4472,
      "娑": 4473,
      "娓": 4474,
      "娘": 4475,
      "娛": 4476,
      "娜": 4477,
      "娟": 4478,
      "娠": 4479,
      "娥": 4480,
      "娯": 4481,
      "娱": 4482,
      "娶": 4483,
      "婁": 4484,
      "婆": 4485,
      "婉": 4486,
      "婚": 4487,
      "婢": 4488,
      "婦": 4489,
      "婧": 4490,
      "婬": 4491,
      "婭": 4492,
      "婷": 4493,
      "婺": 4494,
      "婿": 4495,
      "媒": 4496,
      "媚": 4497,
      "媛": 4498,
      "媭": 4499,
      "媳": 4500,
      "媼": 4501,
      "媽": 4502,
      "媾": 4503,
      "嫁": 4504,
      "嫂": 4505,
      "嫉": 4506,
      "嫌": 4507,
      "嫡": 4508,
      "嫩": 4509,
      "嬋": 4510,
      "嬌": 4511,
      "嬖": 4512,
      "嬗": 4513,
      "嬢": 4514,
      "嬪": 4515,
      "嬰": 4516,
      "嬲": 4517,
      "嬴": 4518,
      "孀": 4519,
      "孃": 4520,
      "子": 4521,
      "孑": 4522,
      "孔": 4523,
      "孕": 4524,
      "字": 4525,
      "存": 4526,
      "孙": 4527,
      "孚": 4528,
      "孜": 4529,
      "孝": 4530,
      "孟": 4531,
      "孢": 4532,
      "季": 4533,
      "孤": 4534,
      "孥": 4535,
      "学": 4536,
      "孩": 4537,
      "孫": 4538,
      "孭": 4539,
      "孰": 4540,
      "孵": 4541,
      "學": 4542,
      "孺": 4543,
      "孻": 4544,
      "孽": 4545,
      "宁": 4546,
      "它": 4547,
      "宅": 4548,
      "宇": 4549,
      "守": 4550,
      "安": 4551,
      "宋": 4552,
      "完": 4553,
      "宏": 4554,
      "宕": 4555,
      "宗": 4556,
      "官": 4557,
      "宙": 4558,
      "定": 4559,
      "宛": 4560,
      "宜": 4561,
      "宝": 4562,
      "实": 4563,
      "実": 4564,
      "宠": 4565,
      "审": 4566,
      "客": 4567,
      "宣": 4568,
      "室": 4569,
      "宥": 4570,
      "宦": 4571,
      "宪": 4572,
      "宫": 4573,
      "宮": 4574,
      "宰": 4575,
      "害": 4576,
      "宴": 4577,
      "宵": 4578,
      "家": 4579,
      "宸": 4580,
      "容": 4581,
      "宽": 4582,
      "宾": 4583,
      "宿": 4584,
      "寂": 4585,
      "寄": 4586,
      "寅": 4587,
      "密": 4588,
      "寇": 4589,
      "富": 4590,
      "寒": 4591,
      "寓": 4592,
      "寔": 4593,
      "寛": 4594,
      "寝": 4595,
      "寞": 4596,
      "察": 4597,
      "寡": 4598,
      "寢": 4599,
      "寤": 4600,
      "寥": 4601,
      "實": 4602,
      "寧": 4603,
      "寨": 4604,
      "審": 4605,
      "寫": 4606,
      "寬": 4607,
      "寮": 4608,
      "寰": 4609,
      "寳": 4610,
      "寵": 4611,
      "寶": 4612,
      "寸": 4613,
      "对": 4614,
      "寺": 4615,
      "寻": 4616,
      "导": 4617,
      "対": 4618,
      "寿": 4619,
      "封": 4620,
      "専": 4621,
      "射": 4622,
      "尅": 4623,
      "将": 4624,
      "將": 4625,
      "專": 4626,
      "尉": 4627,
      "尊": 4628,
      "尋": 4629,
      "對": 4630,
      "導": 4631,
      "小": 4632,
      "尐": 4633,
      "少": 4634,
      "尒": 4635,
      "尓": 4636,
      "尔": 4637,
      "尖": 4638,
      "尙": 4639,
      "尚": 4640,
      "尝": 4641,
      "尤": 4642,
      "尧": 4643,
      "尬": 4644,
      "就": 4645,
      "尷": 4646,
      "尸": 4647,
      "尹": 4648,
      "尺": 4649,
      "尻": 4650,
      "尼": 4651,
      "尽": 4652,
      "尾": 4653,
      "尿": 4654,
      "局": 4655,
      "屁": 4656,
      "层": 4657,
      "屄": 4658,
      "居": 4659,
      "屆": 4660,
      "屈": 4661,
      "届": 4662,
      "屋": 4663,
      "屍": 4664,
      "屎": 4665,
      "屏": 4666,
      "屐": 4667,
      "屑": 4668,
      "展": 4669,
      "屙": 4670,
      "属": 4671,
      "屠": 4672,
      "屡": 4673,
      "屢": 4674,
      "屣": 4675,
      "層": 4676,
      "履": 4677,
      "屨": 4678,
      "屬": 4679,
      "屯": 4680,
      "山": 4681,
      "屹": 4682,
      "屿": 4683,
      "岀": 4684,
      "岁": 4685,
      "岂": 4686,
      "岌": 4687,
      "岐": 4688,
      "岑": 4689,
      "岔": 4690,
      "岗": 4691,
      "岚": 4692,
      "岛": 4693,
      "岡": 4694,
      "岢": 4695,
      "岩": 4696,
      "岬": 4697,
      "岭": 4698,
      "岮": 4699,
      "岱": 4700,
      "岳": 4701,
      "岷": 4702,
      "岸": 4703,
      "峋": 4704,
      "峙": 4705,
      "峠": 4706,
      "峡": 4707,
      "峦": 4708,
      "峨": 4709,
      "峪": 4710,
      "峭": 4711,
      "峯": 4712,
      "峰": 4713,
      "峴": 4714,
      "島": 4715,
      "峻": 4716,
      "峽": 4717,
      "崁": 4718,
      "崇": 4719,
      "崎": 4720,
      "崑": 4721,
      "崔": 4722,
      "崖": 4723,
      "崗": 4724,
      "崛": 4725,
      "崧": 4726,
      "崩": 4727,
      "崭": 4728,
      "嵇": 4729,
      "嵊": 4730,
      "嵋": 4731,
      "嵌": 4732,
      "嵎": 4733,
      "嵐": 4734,
      "嵩": 4735,
      "嵬": 4736,
      "嵯": 4737,
      "嶂": 4738,
      "嶄": 4739,
      "嶇": 4740,
      "嶋": 4741,
      "嶙": 4742,
      "嶸": 4743,
      "嶺": 4744,
      "嶼": 4745,
      "嶽": 4746,
      "巅": 4747,
      "巍": 4748,
      "巒": 4749,
      "巔": 4750,
      "巖": 4751,
      "川": 4752,
      "州": 4753,
      "巡": 4754,
      "巢": 4755,
      "巣": 4756,
      "工": 4757,
      "左": 4758,
      "巧": 4759,
      "巨": 4760,
      "巩": 4761,
      "巫": 4762,
      "差": 4763,
      "己": 4764,
      "已": 4765,
      "巳": 4766,
      "巴": 4767,
      "巷": 4768,
      "巻": 4769,
      "巾": 4770,
      "巿": 4771,
      "币": 4772,
      "市": 4773,
      "布": 4774,
      "帅": 4775,
      "帆": 4776,
      "师": 4777,
      "希": 4778,
      "帐": 4779,
      "帑": 4780,
      "帕": 4781,
      "帖": 4782,
      "帙": 4783,
      "帛": 4784,
      "帝": 4785,
      "帥": 4786,
      "带": 4787,
      "師": 4788,
      "席": 4789,
      "帮": 4790,
      "帯": 4791,
      "帰": 4792,
      "帳": 4793,
      "帶": 4794,
      "帷": 4795,
      "常": 4796,
      "帽": 4797,
      "幀": 4798,
      "幃": 4799,
      "幄": 4800,
      "幅": 4801,
      "幌": 4802,
      "幔": 4803,
      "幕": 4804,
      "幘": 4805,
      "幟": 4806,
      "幡": 4807,
      "幢": 4808,
      "幣": 4809,
      "幫": 4810,
      "干": 4811,
      "平": 4812,
      "年": 4813,
      "并": 4814,
      "幷": 4815,
      "幸": 4816,
      "幹": 4817,
      "幻": 4818,
      "幼": 4819,
      "幽": 4820,
      "幾": 4821,
      "广": 4822,
      "庁": 4823,
      "広": 4824,
      "庄": 4825,
      "庆": 4826,
      "庇": 4827,
      "床": 4828,
      "序": 4829,
      "庐": 4830,
      "库": 4831,
      "应": 4832,
      "底": 4833,
      "庖": 4834,
      "店": 4835,
      "庙": 4836,
      "庚": 4837,
      "府": 4838,
      "庞": 4839,
      "废": 4840,
      "庠": 4841,
      "度": 4842,
      "座": 4843,
      "庫": 4844,
      "庭": 4845,
      "庳": 4846,
      "庵": 4847,
      "庶": 4848,
      "康": 4849,
      "庸": 4850,
      "庾": 4851,
      "廁": 4852,
      "廂": 4853,
      "廃": 4854,
      "廄": 4855,
      "廈": 4856,
      "廉": 4857,
      "廊": 4858,
      "廐": 4859,
      "廓": 4860,
      "廖": 4861,
      "廙": 4862,
      "廚": 4863,
      "廛": 4864,
      "廝": 4865,
      "廟": 4866,
      "廠": 4867,
      "廢": 4868,
      "廣": 4869,
      "廨": 4870,
      "廩": 4871,
      "廬": 4872,
      "廮": 4873,
      "廳": 4874,
      "延": 4875,
      "廷": 4876,
      "建": 4877,
      "廿": 4878,
      "开": 4879,
      "弁": 4880,
      "异": 4881,
      "弃": 4882,
      "弄": 4883,
      "弈": 4884,
      "弊": 4885,
      "弋": 4886,
      "式": 4887,
      "弑": 4888,
      "弒": 4889,
      "弓": 4890,
      "弔": 4891,
      "引": 4892,
      "弗": 4893,
      "弘": 4894,
      "弛": 4895,
      "弟": 4896,
      "张": 4897,
      "弢": 4898,
      "弥": 4899,
      "弦": 4900,
      "弧": 4901,
      "弩": 4902,
      "弭": 4903,
      "弯": 4904,
      "弱": 4905,
      "張": 4906,
      "強": 4907,
      "弹": 4908,
      "强": 4909,
      "弼": 4910,
      "弾": 4911,
      "彈": 4912,
      "彊": 4913,
      "彌": 4914,
      "彎": 4915,
      "归": 4916,
      "当": 4917,
      "录": 4918,
      "彗": 4919,
      "彙": 4920,
      "彝": 4921,
      "形": 4922,
      "彤": 4923,
      "彥": 4924,
      "彦": 4925,
      "彩": 4926,
      "彪": 4927,
      "彫": 4928,
      "彬": 4929,
      "彭": 4930,
      "彰": 4931,
      "影": 4932,
      "役": 4933,
      "彻": 4934,
      "彼": 4935,
      "往": 4936,
      "征": 4937,
      "徂": 4938,
      "径": 4939,
      "待": 4940,
      "徇": 4941,
      "很": 4942,
      "律": 4943,
      "後": 4944,
      "徐": 4945,
      "徑": 4946,
      "徒": 4947,
      "従": 4948,
      "徕": 4949,
      "得": 4950,
      "徙": 4951,
      "從": 4952,
      "徠": 4953,
      "御": 4954,
      "復": 4955,
      "循": 4956,
      "微": 4957,
      "徳": 4958,
      "徴": 4959,
      "徵": 4960,
      "德": 4961,
      "徸": 4962,
      "徹": 4963,
      "徼": 4964,
      "徽": 4965,
      "心": 4966,
      "必": 4967,
      "忆": 4968,
      "忉": 4969,
      "忌": 4970,
      "忍": 4971,
      "忏": 4972,
      "忑": 4973,
      "忒": 4974,
      "忖": 4975,
      "志": 4976,
      "忘": 4977,
      "忙": 4978,
      "応": 4979,
      "忠": 4980,
      "忡": 4981,
      "忤": 4982,
      "忧": 4983,
      "快": 4984,
      "忮": 4985,
      "忱": 4986,
      "念": 4987,
      "忻": 4988,
      "忼": 4989,
      "忽": 4990,
      "忿": 4991,
      "怀": 4992,
      "态": 4993,
      "怃": 4994,
      "怎": 4995,
      "怏": 4996,
      "怒": 4997,
      "怕": 4998,
      "怖": 4999,
      "怜": 5000,
      "思": 5001,
      "怠": 5002,
      "怡": 5003,
      "急": 5004,
      "性": 5005,
      "怨": 5006,
      "怪": 5007,
      "怯": 5008,
      "总": 5009,
      "恁": 5010,
      "恃": 5011,
      "恆": 5012,
      "恇": 5013,
      "恋": 5014,
      "恐": 5015,
      "恒": 5016,
      "恕": 5017,
      "恚": 5018,
      "恢": 5019,
      "恣": 5020,
      "恤": 5021,
      "恥": 5022,
      "恨": 5023,
      "恩": 5024,
      "恪": 5025,
      "恬": 5026,
      "恭": 5027,
      "息": 5028,
      "恰": 5029,
      "恳": 5030,
      "恵": 5031,
      "恶": 5032,
      "恼": 5033,
      "悄": 5034,
      "悅": 5035,
      "悉": 5036,
      "悍": 5037,
      "悔": 5038,
      "悖": 5039,
      "悚": 5040,
      "悟": 5041,
      "悠": 5042,
      "患": 5043,
      "悦": 5044,
      "悩": 5045,
      "悪": 5046,
      "悬": 5047,
      "悲": 5048,
      "悵": 5049,
      "悶": 5050,
      "悼": 5051,
      "悽": 5052,
      "情": 5053,
      "惇": 5054,
      "惊": 5055,
      "惋": 5056,
      "惎": 5057,
      "惑": 5058,
      "惕": 5059,
      "惚": 5060,
      "惜": 5061,
      "惟": 5062,
      "惠": 5063,
      "惡": 5064,
      "惣": 5065,
      "惧": 5066,
      "惨": 5067,
      "惩": 5068,
      "惫": 5069,
      "惯": 5070,
      "惰": 5071,
      "惱": 5072,
      "想": 5073,
      "惶": 5074,
      "惹": 5075,
      "愁": 5076,
      "愆": 5077,
      "愈": 5078,
      "愉": 5079,
      "愍": 5080,
      "愎": 5081,
      "意": 5082,
      "愔": 5083,
      "愕": 5084,
      "愚": 5085,
      "愛": 5086,
      "愜": 5087,
      "感": 5088,
      "愤": 5089,
      "愧": 5090,
      "愬": 5091,
      "愭": 5092,
      "愴": 5093,
      "愷": 5094,
      "愿": 5095,
      "慄": 5096,
      "慇": 5097,
      "慈": 5098,
      "慊": 5099,
      "態": 5100,
      "慌": 5101,
      "慍": 5102,
      "慎": 5103,
      "慑": 5104,
      "慕": 5105,
      "慘": 5106,
      "慚": 5107,
      "慝": 5108,
      "慢": 5109,
      "慣": 5110,
      "慤": 5111,
      "慧": 5112,
      "慨": 5113,
      "慮": 5114,
      "慰": 5115,
      "慳": 5116,
      "慶": 5117,
      "慷": 5118,
      "慺": 5119,
      "慾": 5120,
      "憂": 5121,
      "憎": 5122,
      "憐": 5123,
      "憑": 5124,
      "憚": 5125,
      "憤": 5126,
      "憧": 5127,
      "憩": 5128,
      "憲": 5129,
      "憶": 5130,
      "憾": 5131,
      "懂": 5132,
      "懇": 5133,
      "懈": 5134,
      "應": 5135,
      "懋": 5136,
      "懌": 5137,
      "懐": 5138,
      "懒": 5139,
      "懣": 5140,
      "懦": 5141,
      "懨": 5142,
      "懲": 5143,
      "懶": 5144,
      "懷": 5145,
      "懸": 5146,
      "懺": 5147,
      "懼": 5148,
      "懾": 5149,
      "懿": 5150,
      "戀": 5151,
      "戆": 5152,
      "戇": 5153,
      "戈": 5154,
      "戊": 5155,
      "戌": 5156,
      "戍": 5157,
      "戎": 5158,
      "戏": 5159,
      "成": 5160,
      "我": 5161,
      "戒": 5162,
      "戕": 5163,
      "或": 5164,
      "战": 5165,
      "戚": 5166,
      "戛": 5167,
      "戟": 5168,
      "戡": 5169,
      "戢": 5170,
      "戦": 5171,
      "截": 5172,
      "戮": 5173,
      "戯": 5174,
      "戰": 5175,
      "戲": 5176,
      "戳": 5177,
      "戴": 5178,
      "戶": 5179,
      "户": 5180,
      "戸": 5181,
      "戻": 5182,
      "戾": 5183,
      "房": 5184,
      "所": 5185,
      "扁": 5186,
      "扇": 5187,
      "扈": 5188,
      "扉": 5189,
      "手": 5190,
      "才": 5191,
      "扎": 5192,
      "扐": 5193,
      "扒": 5194,
      "打": 5195,
      "払": 5196,
      "托": 5197,
      "扣": 5198,
      "执": 5199,
      "扩": 5200,
      "扫": 5201,
      "扬": 5202,
      "扭": 5203,
      "扮": 5204,
      "扰": 5205,
      "扱": 5206,
      "扶": 5207,
      "批": 5208,
      "扼": 5209,
      "找": 5210,
      "承": 5211,
      "技": 5212,
      "抃": 5213,
      "抄": 5214,
      "抉": 5215,
      "把": 5216,
      "抑": 5217,
      "抒": 5218,
      "抓": 5219,
      "投": 5220,
      "抖": 5221,
      "抗": 5222,
      "折": 5223,
      "抚": 5224,
      "抛": 5225,
      "抜": 5226,
      "択": 5227,
      "抢": 5228,
      "护": 5229,
      "报": 5230,
      "抨": 5231,
      "披": 5232,
      "抬": 5233,
      "抱": 5234,
      "抵": 5235,
      "抹": 5236,
      "押": 5237,
      "抽": 5238,
      "拂": 5239,
      "担": 5240,
      "拆": 5241,
      "拈": 5242,
      "拉": 5243,
      "拊": 5244,
      "拋": 5245,
      "拍": 5246,
      "拎": 5247,
      "拐": 5248,
      "拒": 5249,
      "拓": 5250,
      "拔": 5251,
      "拖": 5252,
      "拗": 5253,
      "拘": 5254,
      "拙": 5255,
      "招": 5256,
      "拜": 5257,
      "拝": 5258,
      "拟": 5259,
      "拠": 5260,
      "拡": 5261,
      "拢": 5262,
      "拥": 5263,
      "拦": 5264,
      "拨": 5265,
      "择": 5266,
      "括": 5267,
      "拮": 5268,
      "拯": 5269,
      "拱": 5270,
      "拳": 5271,
      "拶": 5272,
      "拷": 5273,
      "拼": 5274,
      "拽": 5275,
      "拾": 5276,
      "拿": 5277,
      "持": 5278,
      "挂": 5279,
      "挃": 5280,
      "指": 5281,
      "挈": 5282,
      "按": 5283,
      "挑": 5284,
      "挖": 5285,
      "挙": 5286,
      "挚": 5287,
      "挝": 5288,
      "挟": 5289,
      "挡": 5290,
      "挤": 5291,
      "挥": 5292,
      "挨": 5293,
      "挪": 5294,
      "挫": 5295,
      "振": 5296,
      "挹": 5297,
      "挺": 5298,
      "挽": 5299,
      "挾": 5300,
      "挿": 5301,
      "捉": 5302,
      "捍": 5303,
      "捏": 5304,
      "捐": 5305,
      "捕": 5306,
      "捗": 5307,
      "捞": 5308,
      "损": 5309,
      "换": 5310,
      "捧": 5311,
      "捨": 5312,
      "据": 5313,
      "捱": 5314,
      "捲": 5315,
      "捶": 5316,
      "捷": 5317,
      "捹": 5318,
      "捺": 5319,
      "捻": 5320,
      "捽": 5321,
      "掀": 5322,
      "掂": 5323,
      "掃": 5324,
      "授": 5325,
      "掉": 5326,
      "掌": 5327,
      "掏": 5328,
      "排": 5329,
      "掕": 5330,
      "掖": 5331,
      "掘": 5332,
      "掙": 5333,
      "掛": 5334,
      "掟": 5335,
      "掠": 5336,
      "採": 5337,
      "探": 5338,
      "掣": 5339,
      "接": 5340,
      "控": 5341,
      "推": 5342,
      "掩": 5343,
      "措": 5344,
      "掲": 5345,
      "掷": 5346,
      "掸": 5347,
      "掼": 5348,
      "揀": 5349,
      "揃": 5350,
      "揆": 5351,
      "描": 5352,
      "提": 5353,
      "插": 5354,
      "揖": 5355,
      "揚": 5356,
      "換": 5357,
      "握": 5358,
      "揣": 5359,
      "揩": 5360,
      "揪": 5361,
      "揭": 5362,
      "揮": 5363,
      "援": 5364,
      "揸": 5365,
      "揹": 5366,
      "揺": 5367,
      "揼": 5368,
      "揽": 5369,
      "揾": 5370,
      "搁": 5371,
      "搅": 5372,
      "損": 5373,
      "搏": 5374,
      "搖": 5375,
      "搗": 5376,
      "搜": 5377,
      "搞": 5378,
      "搬": 5379,
      "搭": 5380,
      "搵": 5381,
      "搶": 5382,
      "携": 5383,
      "搾": 5384,
      "搿": 5385,
      "摂": 5386,
      "摄": 5387,
      "摆": 5388,
      "摇": 5389,
      "摊": 5390,
      "摎": 5391,
      "摑": 5392,
      "摒": 5393,
      "摔": 5394,
      "摘": 5395,
      "摛": 5396,
      "摠": 5397,
      "摧": 5398,
      "摩": 5399,
      "摯": 5400,
      "摸": 5401,
      "摺": 5402,
      "撃": 5403,
      "撇": 5404,
      "撈": 5405,
      "撐": 5406,
      "撑": 5407,
      "撒": 5408,
      "撕": 5409,
      "撚": 5410,
      "撝": 5411,
      "撞": 5412,
      "撤": 5413,
      "撥": 5414,
      "撩": 5415,
      "撫": 5416,
      "撬": 5417,
      "播": 5418,
      "撮": 5419,
      "撰": 5420,
      "撲": 5421,
      "撳": 5422,
      "撻": 5423,
      "撼": 5424,
      "擁": 5425,
      "擂": 5426,
      "擄": 5427,
      "擅": 5428,
      "擇": 5429,
      "擊": 5430,
      "擋": 5431,
      "操": 5432,
      "擎": 5433,
      "擐": 5434,
      "擒": 5435,
      "擔": 5436,
      "擘": 5437,
      "據": 5438,
      "擠": 5439,
      "擢": 5440,
      "擣": 5441,
      "擦": 5442,
      "擬": 5443,
      "擭": 5444,
      "擲": 5445,
      "擴": 5446,
      "擺": 5447,
      "擾": 5448,
      "攀": 5449,
      "攏": 5450,
      "攘": 5451,
      "攙": 5452,
      "攜": 5453,
      "攝": 5454,
      "攞": 5455,
      "攢": 5456,
      "攤": 5457,
      "攫": 5458,
      "攬": 5459,
      "支": 5460,
      "收": 5461,
      "攷": 5462,
      "攸": 5463,
      "改": 5464,
      "攻": 5465,
      "放": 5466,
      "政": 5467,
      "故": 5468,
      "敆": 5469,
      "效": 5470,
      "敌": 5471,
      "敎": 5472,
      "敏": 5473,
      "救": 5474,
      "敕": 5475,
      "敖": 5476,
      "敗": 5477,
      "敘": 5478,
      "教": 5479,
      "敛": 5480,
      "敝": 5481,
      "敞": 5482,
      "敢": 5483,
      "散": 5484,
      "敦": 5485,
      "敬": 5486,
      "数": 5487,
      "敲": 5488,
      "整": 5489,
      "敵": 5490,
      "敷": 5491,
      "數": 5492,
      "斂": 5493,
      "斃": 5494,
      "文": 5495,
      "斉": 5496,
      "斌": 5497,
      "斎": 5498,
      "斐": 5499,
      "斑": 5500,
      "斗": 5501,
      "料": 5502,
      "斛": 5503,
      "斜": 5504,
      "斡": 5505,
      "斤": 5506,
      "斥": 5507,
      "斧": 5508,
      "斩": 5509,
      "斫": 5510,
      "斬": 5511,
      "断": 5512,
      "斯": 5513,
      "新": 5514,
      "斷": 5515,
      "方": 5516,
      "於": 5517,
      "施": 5518,
      "旁": 5519,
      "旅": 5520,
      "旉": 5521,
      "旋": 5522,
      "旌": 5523,
      "旎": 5524,
      "族": 5525,
      "旖": 5526,
      "旗": 5527,
      "旛": 5528,
      "无": 5529,
      "既": 5530,
      "旣": 5531,
      "日": 5532,
      "旦": 5533,
      "旧": 5534,
      "旨": 5535,
      "早": 5536,
      "旬": 5537,
      "旭": 5538,
      "旮": 5539,
      "旯": 5540,
      "旱": 5541,
      "时": 5542,
      "旺": 5543,
      "旻": 5544,
      "昀": 5545,
      "昂": 5546,
      "昃": 5547,
      "昆": 5548,
      "昇": 5549,
      "昉": 5550,
      "昊": 5551,
      "昌": 5552,
      "明": 5553,
      "昏": 5554,
      "易": 5555,
      "昔": 5556,
      "星": 5557,
      "映": 5558,
      "昢": 5559,
      "春": 5560,
      "昧": 5561,
      "昨": 5562,
      "昭": 5563,
      "是": 5564,
      "昰": 5565,
      "昱": 5566,
      "昴": 5567,
      "昵": 5568,
      "昶": 5569,
      "昺": 5570,
      "昼": 5571,
      "显": 5572,
      "晁": 5573,
      "時": 5574,
      "晃": 5575,
      "晉": 5576,
      "晋": 5577,
      "晏": 5578,
      "晒": 5579,
      "晓": 5580,
      "晕": 5581,
      "晖": 5582,
      "晗": 5583,
      "晚": 5584,
      "晝": 5585,
      "晟": 5586,
      "晤": 5587,
      "晦": 5588,
      "晨": 5589,
      "晩": 5590,
      "普": 5591,
      "景": 5592,
      "晰": 5593,
      "晴": 5594,
      "晶": 5595,
      "智": 5596,
      "暂": 5597,
      "暄": 5598,
      "暇": 5599,
      "暈": 5600,
      "暉": 5601,
      "暑": 5602,
      "暖": 5603,
      "暗": 5604,
      "暢": 5605,
      "暦": 5606,
      "暨": 5607,
      "暫": 5608,
      "暮": 5609,
      "暱": 5610,
      "暴": 5611,
      "暸": 5612,
      "暹": 5613,
      "曄": 5614,
      "曆": 5615,
      "曇": 5616,
      "曉": 5617,
      "曌": 5618,
      "曖": 5619,
      "曙": 5620,
      "曜": 5621,
      "曝": 5622,
      "曠": 5623,
      "曩": 5624,
      "曬": 5625,
      "曰": 5626,
      "曲": 5627,
      "曳": 5628,
      "更": 5629,
      "書": 5630,
      "曹": 5631,
      "曼": 5632,
      "曽": 5633,
      "曾": 5634,
      "替": 5635,
      "最": 5636,
      "會": 5637,
      "朆": 5638,
      "月": 5639,
      "有": 5640,
      "朋": 5641,
      "服": 5642,
      "朐": 5643,
      "朔": 5644,
      "朕": 5645,
      "朗": 5646,
      "望": 5647,
      "朝": 5648,
      "朞": 5649,
      "期": 5650,
      "朢": 5651,
      "朦": 5652,
      "朧": 5653,
      "木": 5654,
      "未": 5655,
      "末": 5656,
      "本": 5657,
      "札": 5658,
      "朮": 5659,
      "术": 5660,
      "朱": 5661,
      "朴": 5662,
      "朵": 5663,
      "机": 5664,
      "朽": 5665,
      "杀": 5666,
      "杂": 5667,
      "权": 5668,
      "杆": 5669,
      "杉": 5670,
      "李": 5671,
      "杏": 5672,
      "材": 5673,
      "村": 5674,
      "杖": 5675,
      "杜": 5676,
      "杞": 5677,
      "束": 5678,
      "条": 5679,
      "来": 5680,
      "杨": 5681,
      "杪": 5682,
      "杭": 5683,
      "杯": 5684,
      "杰": 5685,
      "東": 5686,
      "杲": 5687,
      "杳": 5688,
      "杵": 5689,
      "杼": 5690,
      "松": 5691,
      "板": 5692,
      "极": 5693,
      "构": 5694,
      "枉": 5695,
      "析": 5696,
      "枕": 5697,
      "林": 5698,
      "枚": 5699,
      "果": 5700,
      "枝": 5701,
      "枠": 5702,
      "枢": 5703,
      "枣": 5704,
      "枥": 5705,
      "枪": 5706,
      "枫": 5707,
      "枯": 5708,
      "枰": 5709,
      "枱": 5710,
      "枵": 5711,
      "架": 5712,
      "枷": 5713,
      "枹": 5714,
      "柂": 5715,
      "柄": 5716,
      "柏": 5717,
      "某": 5718,
      "柑": 5719,
      "染": 5720,
      "柔": 5721,
      "柘": 5722,
      "柝": 5723,
      "柞": 5724,
      "查": 5725,
      "柩": 5726,
      "柬": 5727,
      "柯": 5728,
      "柰": 5729,
      "柱": 5730,
      "柳": 5731,
      "柴": 5732,
      "柵": 5733,
      "査": 5734,
      "柿": 5735,
      "栄": 5736,
      "标": 5737,
      "栋": 5738,
      "栏": 5739,
      "树": 5740,
      "栓": 5741,
      "栖": 5742,
      "栗": 5743,
      "校": 5744,
      "株": 5745,
      "样": 5746,
      "核": 5747,
      "根": 5748,
      "栻": 5749,
      "格": 5750,
      "栽": 5751,
      "栾": 5752,
      "桀": 5753,
      "桂": 5754,
      "桃": 5755,
      "桅": 5756,
      "框": 5757,
      "案": 5758,
      "桌": 5759,
      "桐": 5760,
      "桑": 5761,
      "桓": 5762,
      "桔": 5763,
      "桕": 5764,
      "桜": 5765,
      "桟": 5766,
      "桢": 5767,
      "档": 5768,
      "桥": 5769,
      "桧": 5770,
      "桨": 5771,
      "桩": 5772,
      "桱": 5773,
      "桶": 5774,
      "桿": 5775,
      "梁": 5776,
      "梃": 5777,
      "梅": 5778,
      "梓": 5779,
      "梔": 5780,
      "梗": 5781,
      "條": 5782,
      "梟": 5783,
      "梢": 5784,
      "梦": 5785,
      "梧": 5786,
      "梨": 5787,
      "梭": 5788,
      "梯": 5789,
      "械": 5790,
      "梳": 5791,
      "梵": 5792,
      "梶": 5793,
      "梼": 5794,
      "检": 5795,
      "棂": 5796,
      "棄": 5797,
      "棉": 5798,
      "棋": 5799,
      "棍": 5800,
      "棒": 5801,
      "棕": 5802,
      "棘": 5803,
      "棙": 5804,
      "棚": 5805,
      "棟": 5806,
      "棠": 5807,
      "棣": 5808,
      "棧": 5809,
      "森": 5810,
      "棱": 5811,
      "棲": 5812,
      "棵": 5813,
      "棺": 5814,
      "棼": 5815,
      "椀": 5816,
      "椅": 5817,
      "椋": 5818,
      "植": 5819,
      "椎": 5820,
      "椏": 5821,
      "椒": 5822,
      "検": 5823,
      "椭": 5824,
      "椰": 5825,
      "椿": 5826,
      "楊": 5827,
      "楓": 5828,
      "楚": 5829,
      "楝": 5830,
      "楠": 5831,
      "楣": 5832,
      "楨": 5833,
      "楫": 5834,
      "業": 5835,
      "楮": 5836,
      "極": 5837,
      "楷": 5838,
      "楹": 5839,
      "楼": 5840,
      "楽": 5841,
      "概": 5842,
      "榆": 5843,
      "榊": 5844,
      "榎": 5845,
      "榔": 5846,
      "榕": 5847,
      "榖": 5848,
      "榛": 5849,
      "榜": 5850,
      "榭": 5851,
      "榮": 5852,
      "榴": 5853,
      "榻": 5854,
      "槃": 5855,
      "槇": 5856,
      "槊": 5857,
      "構": 5858,
      "槍": 5859,
      "槐": 5860,
      "槓": 5861,
      "様": 5862,
      "槨": 5863,
      "槳": 5864,
      "槽": 5865,
      "樁": 5866,
      "樂": 5867,
      "樅": 5868,
      "樊": 5869,
      "樋": 5870,
      "樑": 5871,
      "樓": 5872,
      "樖": 5873,
      "樗": 5874,
      "樘": 5875,
      "標": 5876,
      "樞": 5877,
      "樟": 5878,
      "模": 5879,
      "樣": 5880,
      "権": 5881,
      "横": 5882,
      "樵": 5883,
      "樸": 5884,
      "樹": 5885,
      "樺": 5886,
      "橄": 5887,
      "橇": 5888,
      "橋": 5889,
      "橐": 5890,
      "橘": 5891,
      "橚": 5892,
      "橛": 5893,
      "機": 5894,
      "橡": 5895,
      "橢": 5896,
      "橫": 5897,
      "檀": 5898,
      "檄": 5899,
      "檇": 5900,
      "檔": 5901,
      "檜": 5902,
      "檢": 5903,
      "檮": 5904,
      "檯": 5905,
      "檳": 5906,
      "檻": 5907,
      "櫃": 5908,
      "櫚": 5909,
      "櫟": 5910,
      "櫻": 5911,
      "欄": 5912,
      "權": 5913,
      "欒": 5914,
      "欖": 5915,
      "欠": 5916,
      "次": 5917,
      "欢": 5918,
      "欣": 5919,
      "欧": 5920,
      "欲": 5921,
      "欷": 5922,
      "欸": 5923,
      "欺": 5924,
      "欽": 5925,
      "款": 5926,
      "歃": 5927,
      "歇": 5928,
      "歉": 5929,
      "歌": 5930,
      "歎": 5931,
      "歐": 5932,
      "歓": 5933,
      "歔": 5934,
      "歙": 5935,
      "歛": 5936,
      "歟": 5937,
      "歡": 5938,
      "止": 5939,
      "正": 5940,
      "此": 5941,
      "步": 5942,
      "武": 5943,
      "歧": 5944,
      "歩": 5945,
      "歪": 5946,
      "歯": 5947,
      "歲": 5948,
      "歳": 5949,
      "歴": 5950,
      "歷": 5951,
      "歸": 5952,
      "歹": 5953,
      "死": 5954,
      "歼": 5955,
      "歿": 5956,
      "殂": 5957,
      "殆": 5958,
      "殉": 5959,
      "殊": 5960,
      "残": 5961,
      "殍": 5962,
      "殖": 5963,
      "殘": 5964,
      "殛": 5965,
      "殞": 5966,
      "殤": 5967,
      "殪": 5968,
      "殫": 5969,
      "殮": 5970,
      "殯": 5971,
      "殱": 5972,
      "殲": 5973,
      "殴": 5974,
      "段": 5975,
      "殷": 5976,
      "殺": 5977,
      "殻": 5978,
      "殼": 5979,
      "殽": 5980,
      "殿": 5981,
      "毀": 5982,
      "毁": 5983,
      "毅": 5984,
      "毆": 5985,
      "毋": 5986,
      "毌": 5987,
      "母": 5988,
      "毎": 5989,
      "每": 5990,
      "毒": 5991,
      "毓": 5992,
      "比": 5993,
      "毕": 5994,
      "毗": 5995,
      "毘": 5996,
      "毙": 5997,
      "毛": 5998,
      "毫": 5999,
      "毯": 6000,
      "氏": 6001,
      "氐": 6002,
      "民": 6003,
      "氓": 6004,
      "气": 6005,
      "気": 6006,
      "氛": 6007,
      "氟": 6008,
      "氡": 6009,
      "氢": 6010,
      "氣": 6011,
      "氦": 6012,
      "氧": 6013,
      "氨": 6014,
      "氫": 6015,
      "氮": 6016,
      "氯": 6017,
      "水": 6018,
      "永": 6019,
      "氾": 6020,
      "汀": 6021,
      "汁": 6022,
      "求": 6023,
      "汇": 6024,
      "汉": 6025,
      "汊": 6026,
      "汏": 6027,
      "汐": 6028,
      "汕": 6029,
      "汗": 6030,
      "汙": 6031,
      "汚": 6032,
      "汛": 6033,
      "汝": 6034,
      "江": 6035,
      "池": 6036,
      "污": 6037,
      "汤": 6038,
      "汧": 6039,
      "汨": 6040,
      "汪": 6041,
      "汰": 6042,
      "汲": 6043,
      "汴": 6044,
      "汶": 6045,
      "決": 6046,
      "汽": 6047,
      "汾": 6048,
      "沂": 6049,
      "沃": 6050,
      "沅": 6051,
      "沈": 6052,
      "沉": 6053,
      "沌": 6054,
      "沐": 6055,
      "沒": 6056,
      "沓": 6057,
      "沔": 6058,
      "沖": 6059,
      "沘": 6060,
      "沙": 6061,
      "沛": 6062,
      "沟": 6063,
      "没": 6064,
      "沢": 6065,
      "沦": 6066,
      "沧": 6067,
      "沪": 6068,
      "沮": 6069,
      "沱": 6070,
      "河": 6071,
      "沸": 6072,
      "油": 6073,
      "治": 6074,
      "沼": 6075,
      "沽": 6076,
      "沾": 6077,
      "沿": 6078,
      "況": 6079,
      "泄": 6080,
      "泉": 6081,
      "泊": 6082,
      "泌": 6083,
      "法": 6084,
      "泗": 6085,
      "泚": 6086,
      "泛": 6087,
      "泠": 6088,
      "泡": 6089,
      "波": 6090,
      "泣": 6091,
      "泥": 6092,
      "注": 6093,
      "泮": 6094,
      "泰": 6095,
      "泱": 6096,
      "泳": 6097,
      "泵": 6098,
      "泼": 6099,
      "泽": 6100,
      "泾": 6101,
      "洋": 6102,
      "洎": 6103,
      "洒": 6104,
      "洗": 6105,
      "洙": 6106,
      "洛": 6107,
      "洞": 6108,
      "津": 6109,
      "洩": 6110,
      "洪": 6111,
      "洭": 6112,
      "洮": 6113,
      "洲": 6114,
      "洶": 6115,
      "洺": 6116,
      "活": 6117,
      "洼": 6118,
      "洽": 6119,
      "派": 6120,
      "流": 6121,
      "浅": 6122,
      "浆": 6123,
      "浇": 6124,
      "浊": 6125,
      "测": 6126,
      "济": 6127,
      "浏": 6128,
      "浓": 6129,
      "浙": 6130,
      "浚": 6131,
      "浜": 6132,
      "浣": 6133,
      "浦": 6134,
      "浩": 6135,
      "浪": 6136,
      "浬": 6137,
      "浮": 6138,
      "浯": 6139,
      "浴": 6140,
      "海": 6141,
      "浸": 6142,
      "浹": 6143,
      "涂": 6144,
      "涅": 6145,
      "涇": 6146,
      "消": 6147,
      "涉": 6148,
      "涌": 6149,
      "涎": 6150,
      "涕": 6151,
      "涙": 6152,
      "涝": 6153,
      "涟": 6154,
      "涡": 6155,
      "涣": 6156,
      "润": 6157,
      "涨": 6158,
      "涪": 6159,
      "涯": 6160,
      "液": 6161,
      "涴": 6162,
      "涵": 6163,
      "涸": 6164,
      "涼": 6165,
      "涿": 6166,
      "淀": 6167,
      "淄": 6168,
      "淅": 6169,
      "淆": 6170,
      "淑": 6171,
      "淔": 6172,
      "淖": 6173,
      "淘": 6174,
      "淚": 6175,
      "淞": 6176,
      "淡": 6177,
      "淨": 6178,
      "淩": 6179,
      "淪": 6180,
      "淫": 6181,
      "淮": 6182,
      "深": 6183,
      "淳": 6184,
      "淵": 6185,
      "混": 6186,
      "淸": 6187,
      "淹": 6188,
      "淺": 6189,
      "添": 6190,
      "清": 6191,
      "済": 6192,
      "渉": 6193,
      "渊": 6194,
      "渋": 6195,
      "渌": 6196,
      "渎": 6197,
      "渐": 6198,
      "渔": 6199,
      "渕": 6200,
      "渗": 6201,
      "渙": 6202,
      "渚": 6203,
      "減": 6204,
      "渝": 6205,
      "渟": 6206,
      "渠": 6207,
      "渡": 6208,
      "渣": 6209,
      "渤": 6210,
      "温": 6211,
      "測": 6212,
      "渭": 6213,
      "港": 6214,
      "渴": 6215,
      "游": 6216,
      "渾": 6217,
      "湊": 6218,
      "湌": 6219,
      "湍": 6220,
      "湖": 6221,
      "湘": 6222,
      "湛": 6223,
      "湜": 6224,
      "湟": 6225,
      "湣": 6226,
      "湧": 6227,
      "湮": 6228,
      "湯": 6229,
      "湾": 6230,
      "湿": 6231,
      "満": 6232,
      "溃": 6233,
      "溉": 6234,
      "源": 6235,
      "準": 6236,
      "溜": 6237,
      "溝": 6238,
      "溢": 6239,
      "溥": 6240,
      "溧": 6241,
      "溪": 6242,
      "溫": 6243,
      "溯": 6244,
      "溶": 6245,
      "溺": 6246,
      "滁": 6247,
      "滂": 6248,
      "滄": 6249,
      "滅": 6250,
      "滇": 6251,
      "滉": 6252,
      "滋": 6253,
      "滌": 6254,
      "滎": 6255,
      "滑": 6256,
      "滔": 6257,
      "滕": 6258,
      "滝": 6259,
      "滞": 6260,
      "满": 6261,
      "滥": 6262,
      "滨": 6263,
      "滩": 6264,
      "滬": 6265,
      "滯": 6266,
      "滲": 6267,
      "滴": 6268,
      "滹": 6269,
      "滾": 6270,
      "滿": 6271,
      "漁": 6272,
      "漂": 6273,
      "漆": 6274,
      "漈": 6275,
      "漏": 6276,
      "演": 6277,
      "漕": 6278,
      "漠": 6279,
      "漢": 6280,
      "漣": 6281,
      "漪": 6282,
      "漫": 6283,
      "漬": 6284,
      "漱": 6285,
      "漲": 6286,
      "漳": 6287,
      "漸": 6288,
      "漺": 6289,
      "漾": 6290,
      "漿": 6291,
      "潁": 6292,
      "潍": 6293,
      "潑": 6294,
      "潔": 6295,
      "潘": 6296,
      "潚": 6297,
      "潛": 6298,
      "潜": 6299,
      "潞": 6300,
      "潟": 6301,
      "潢": 6302,
      "潤": 6303,
      "潭": 6304,
      "潮": 6305,
      "潯": 6306,
      "潰": 6307,
      "潺": 6308,
      "潼": 6309,
      "澀": 6310,
      "澄": 6311,
      "澈": 6312,
      "澎": 6313,
      "澗": 6314,
      "澜": 6315,
      "澡": 6316,
      "澤": 6317,
      "澱": 6318,
      "澳": 6319,
      "澶": 6320,
      "澹": 6321,
      "激": 6322,
      "濁": 6323,
      "濂": 6324,
      "濃": 6325,
      "濅": 6326,
      "濆": 6327,
      "濑": 6328,
      "濒": 6329,
      "濕": 6330,
      "濘": 6331,
      "濞": 6332,
      "濟": 6333,
      "濠": 6334,
      "濡": 6335,
      "濤": 6336,
      "濫": 6337,
      "濬": 6338,
      "濮": 6339,
      "濯": 6340,
      "濱": 6341,
      "濺": 6342,
      "濾": 6343,
      "瀆": 6344,
      "瀋": 6345,
      "瀑": 6346,
      "瀕": 6347,
      "瀘": 6348,
      "瀛": 6349,
      "瀝": 6350,
      "瀟": 6351,
      "瀠": 6352,
      "瀧": 6353,
      "瀨": 6354,
      "瀬": 6355,
      "瀹": 6356,
      "瀾": 6357,
      "灊": 6358,
      "灋": 6359,
      "灌": 6360,
      "灑": 6361,
      "灘": 6362,
      "灣": 6363,
      "灤": 6364,
      "火": 6365,
      "灭": 6366,
      "灯": 6367,
      "灰": 6368,
      "灵": 6369,
      "灶": 6370,
      "灼": 6371,
      "災": 6372,
      "灾": 6373,
      "灿": 6374,
      "炀": 6375,
      "炊": 6376,
      "炎": 6377,
      "炒": 6378,
      "炔": 6379,
      "炫": 6380,
      "炬": 6381,
      "炭": 6382,
      "炮": 6383,
      "炯": 6384,
      "炳": 6385,
      "炸": 6386,
      "点": 6387,
      "為": 6388,
      "炼": 6389,
      "烂": 6390,
      "烈": 6391,
      "烊": 6392,
      "烏": 6393,
      "烘": 6394,
      "烙": 6395,
      "烛": 6396,
      "烟": 6397,
      "烤": 6398,
      "烦": 6399,
      "烧": 6400,
      "烩": 6401,
      "烫": 6402,
      "热": 6403,
      "烯": 6404,
      "烴": 6405,
      "烷": 6406,
      "烹": 6407,
      "烺": 6408,
      "烽": 6409,
      "焉": 6410,
      "焚": 6411,
      "無": 6412,
      "焦": 6413,
      "焯": 6414,
      "焰": 6415,
      "然": 6416,
      "焻": 6417,
      "焼": 6418,
      "煇": 6419,
      "煉": 6420,
      "煌": 6421,
      "煎": 6422,
      "煙": 6423,
      "煜": 6424,
      "煞": 6425,
      "煤": 6426,
      "煥": 6427,
      "照": 6428,
      "煩": 6429,
      "煬": 6430,
      "煮": 6431,
      "煲": 6432,
      "煽": 6433,
      "熊": 6434,
      "熏": 6435,
      "熒": 6436,
      "熔": 6437,
      "熕": 6438,
      "熙": 6439,
      "熜": 6440,
      "熟": 6441,
      "熬": 6442,
      "熱": 6443,
      "熵": 6444,
      "熸": 6445,
      "熹": 6446,
      "熾": 6447,
      "熿": 6448,
      "燁": 6449,
      "燃": 6450,
      "燈": 6451,
      "燉": 6452,
      "燊": 6453,
      "燎": 6454,
      "燒": 6455,
      "燔": 6456,
      "燕": 6457,
      "營": 6458,
      "燥": 6459,
      "燦": 6460,
      "燬": 6461,
      "燭": 6462,
      "燮": 6463,
      "燹": 6464,
      "燾": 6465,
      "爆": 6466,
      "爍": 6467,
      "爐": 6468,
      "爛": 6469,
      "爪": 6470,
      "爬": 6471,
      "爭": 6472,
      "爱": 6473,
      "爲": 6474,
      "爵": 6475,
      "父": 6476,
      "爷": 6477,
      "爸": 6478,
      "爹": 6479,
      "爺": 6480,
      "爻": 6481,
      "爽": 6482,
      "爾": 6483,
      "爿": 6484,
      "牆": 6485,
      "片": 6486,
      "版": 6487,
      "牌": 6488,
      "牍": 6489,
      "牓": 6490,
      "牘": 6491,
      "牙": 6492,
      "牛": 6493,
      "牝": 6494,
      "牟": 6495,
      "牡": 6496,
      "牢": 6497,
      "牧": 6498,
      "物": 6499,
      "牲": 6500,
      "特": 6501,
      "牺": 6502,
      "牽": 6503,
      "犀": 6504,
      "犁": 6505,
      "犍": 6506,
      "犒": 6507,
      "犖": 6508,
      "犛": 6509,
      "犧": 6510,
      "犬": 6511,
      "犯": 6512,
      "犰": 6513,
      "状": 6514,
      "犷": 6515,
      "犹": 6516,
      "狀": 6517,
      "狂": 6518,
      "狃": 6519,
      "狄": 6520,
      "狅": 6521,
      "狐": 6522,
      "狗": 6523,
      "狙": 6524,
      "狠": 6525,
      "狡": 6526,
      "狩": 6527,
      "独": 6528,
      "狭": 6529,
      "狮": 6530,
      "狱": 6531,
      "狳": 6532,
      "狸": 6533,
      "狹": 6534,
      "狼": 6535,
      "狽": 6536,
      "猎": 6537,
      "猕": 6538,
      "猗": 6539,
      "猛": 6540,
      "猜": 6541,
      "猝": 6542,
      "猟": 6543,
      "猩": 6544,
      "猪": 6545,
      "猫": 6546,
      "献": 6547,
      "猴": 6548,
      "猶": 6549,
      "猷": 6550,
      "猿": 6551,
      "獄": 6552,
      "獅": 6553,
      "獎": 6554,
      "獗": 6555,
      "獣": 6556,
      "獨": 6557,
      "獭": 6558,
      "獲": 6559,
      "獳": 6560,
      "獵": 6561,
      "獸": 6562,
      "獺": 6563,
      "獻": 6564,
      "玄": 6565,
      "玆": 6566,
      "率": 6567,
      "玉": 6568,
      "王": 6569,
      "玖": 6570,
      "玛": 6571,
      "玟": 6572,
      "玩": 6573,
      "玫": 6574,
      "环": 6575,
      "现": 6576,
      "玱": 6577,
      "玲": 6578,
      "玺": 6579,
      "玻": 6580,
      "珀": 6581,
      "珂": 6582,
      "珅": 6583,
      "珈": 6584,
      "珉": 6585,
      "珊": 6586,
      "珍": 6587,
      "珞": 6588,
      "珠": 6589,
      "珣": 6590,
      "珥": 6591,
      "珪": 6592,
      "班": 6593,
      "珰": 6594,
      "現": 6595,
      "球": 6596,
      "琅": 6597,
      "理": 6598,
      "琇": 6599,
      "琉": 6600,
      "琊": 6601,
      "琐": 6602,
      "琛": 6603,
      "琥": 6604,
      "琦": 6605,
      "琪": 6606,
      "琬": 6607,
      "琮": 6608,
      "琯": 6609,
      "琰": 6610,
      "琲": 6611,
      "琳": 6612,
      "琴": 6613,
      "琵": 6614,
      "琶": 6615,
      "琼": 6616,
      "琿": 6617,
      "瑕": 6618,
      "瑙": 6619,
      "瑚": 6620,
      "瑜": 6621,
      "瑞": 6622,
      "瑟": 6623,
      "瑤": 6624,
      "瑩": 6625,
      "瑪": 6626,
      "瑰": 6627,
      "瑲": 6628,
      "瑶": 6629,
      "瑾": 6630,
      "璃": 6631,
      "璇": 6632,
      "璈": 6633,
      "璉": 6634,
      "璋": 6635,
      "璜": 6636,
      "璞": 6637,
      "璠": 6638,
      "璣": 6639,
      "璧": 6640,
      "璨": 6641,
      "璩": 6642,
      "環": 6643,
      "璲": 6644,
      "璻": 6645,
      "璽": 6646,
      "瓊": 6647,
      "瓏": 6648,
      "瓘": 6649,
      "瓜": 6650,
      "瓣": 6651,
      "瓦": 6652,
      "瓶": 6653,
      "瓷": 6654,
      "甄": 6655,
      "甐": 6656,
      "甑": 6657,
      "甓": 6658,
      "甘": 6659,
      "甚": 6660,
      "甜": 6661,
      "生": 6662,
      "產": 6663,
      "産": 6664,
      "甥": 6665,
      "甦": 6666,
      "用": 6667,
      "甫": 6668,
      "甬": 6669,
      "甯": 6670,
      "田": 6671,
      "由": 6672,
      "甲": 6673,
      "申": 6674,
      "电": 6675,
      "男": 6676,
      "甸": 6677,
      "町": 6678,
      "画": 6679,
      "甾": 6680,
      "畀": 6681,
      "畅": 6682,
      "界": 6683,
      "畏": 6684,
      "畑": 6685,
      "畔": 6686,
      "留": 6687,
      "畜": 6688,
      "畝": 6689,
      "畠": 6690,
      "畢": 6691,
      "畤": 6692,
      "略": 6693,
      "畧": 6694,
      "番": 6695,
      "畫": 6696,
      "畬": 6697,
      "異": 6698,
      "畲": 6699,
      "畴": 6700,
      "當": 6701,
      "畸": 6702,
      "畿": 6703,
      "疆": 6704,
      "疇": 6705,
      "疊": 6706,
      "疋": 6707,
      "疎": 6708,
      "疏": 6709,
      "疑": 6710,
      "疔": 6711,
      "疗": 6712,
      "疚": 6713,
      "疤": 6714,
      "疫": 6715,
      "疲": 6716,
      "疵": 6717,
      "疹": 6718,
      "疼": 6719,
      "疾": 6720,
      "病": 6721,
      "症": 6722,
      "痊": 6723,
      "痕": 6724,
      "痛": 6725,
      "痞": 6726,
      "痢": 6727,
      "痰": 6728,
      "痴": 6729,
      "痺": 6730,
      "瘋": 6731,
      "瘓": 6732,
      "瘞": 6733,
      "瘟": 6734,
      "瘡": 6735,
      "瘤": 6736,
      "瘦": 6737,
      "瘧": 6738,
      "瘳": 6739,
      "療": 6740,
      "癃": 6741,
      "癌": 6742,
      "癒": 6743,
      "癖": 6744,
      "癡": 6745,
      "癥": 6746,
      "癮": 6747,
      "癱": 6748,
      "癸": 6749,
      "発": 6750,
      "登": 6751,
      "發": 6752,
      "白": 6753,
      "百": 6754,
      "皂": 6755,
      "的": 6756,
      "皆": 6757,
      "皇": 6758,
      "皈": 6759,
      "皐": 6760,
      "皓": 6761,
      "皖": 6762,
      "皘": 6763,
      "皮": 6764,
      "皿": 6765,
      "盂": 6766,
      "盃": 6767,
      "盅": 6768,
      "盆": 6769,
      "盈": 6770,
      "益": 6771,
      "盎": 6772,
      "盐": 6773,
      "监": 6774,
      "盒": 6775,
      "盔": 6776,
      "盖": 6777,
      "盗": 6778,
      "盘": 6779,
      "盛": 6780,
      "盜": 6781,
      "盞": 6782,
      "盟": 6783,
      "盡": 6784,
      "監": 6785,
      "盤": 6786,
      "盧": 6787,
      "盪": 6788,
      "盭": 6789,
      "目": 6790,
      "盱": 6791,
      "盲": 6792,
      "直": 6793,
      "相": 6794,
      "盼": 6795,
      "盾": 6796,
      "省": 6797,
      "眉": 6798,
      "看": 6799,
      "県": 6800,
      "眙": 6801,
      "眞": 6802,
      "真": 6803,
      "眠": 6804,
      "眩": 6805,
      "眷": 6806,
      "眺": 6807,
      "眼": 6808,
      "眾": 6809,
      "着": 6810,
      "睇": 6811,
      "睐": 6812,
      "睛": 6813,
      "睡": 6814,
      "睢": 6815,
      "督": 6816,
      "睦": 6817,
      "睫": 6818,
      "睹": 6819,
      "睺": 6820,
      "睾": 6821,
      "睿": 6822,
      "瞄": 6823,
      "瞎": 6824,
      "瞑": 6825,
      "瞞": 6826,
      "瞪": 6827,
      "瞬": 6828,
      "瞭": 6829,
      "瞰": 6830,
      "瞳": 6831,
      "瞻": 6832,
      "瞼": 6833,
      "瞽": 6834,
      "瞿": 6835,
      "矗": 6836,
      "矚": 6837,
      "矛": 6838,
      "矜": 6839,
      "矢": 6840,
      "矣": 6841,
      "知": 6842,
      "矩": 6843,
      "短": 6844,
      "矮": 6845,
      "矯": 6846,
      "石": 6847,
      "矴": 6848,
      "矶": 6849,
      "矽": 6850,
      "矿": 6851,
      "砀": 6852,
      "码": 6853,
      "砂": 6854,
      "砌": 6855,
      "砍": 6856,
      "砒": 6857,
      "研": 6858,
      "砕": 6859,
      "砖": 6860,
      "砣": 6861,
      "砥": 6862,
      "砦": 6863,
      "砫": 6864,
      "砲": 6865,
      "破": 6866,
      "砷": 6867,
      "础": 6868,
      "硅": 6869,
      "硒": 6870,
      "硕": 6871,
      "硝": 6872,
      "硤": 6873,
      "硫": 6874,
      "硬": 6875,
      "确": 6876,
      "硯": 6877,
      "硷": 6878,
      "硼": 6879,
      "碇": 6880,
      "碉": 6881,
      "碌": 6882,
      "碍": 6883,
      "碎": 6884,
      "碑": 6885,
      "碗": 6886,
      "碘": 6887,
      "碚": 6888,
      "碟": 6889,
      "碣": 6890,
      "碧": 6891,
      "碩": 6892,
      "碰": 6893,
      "碱": 6894,
      "碲": 6895,
      "碳": 6896,
      "確": 6897,
      "碼": 6898,
      "磁": 6899,
      "磋": 6900,
      "磐": 6901,
      "磔": 6902,
      "磕": 6903,
      "磚": 6904,
      "磡": 6905,
      "磧": 6906,
      "磨": 6907,
      "磬": 6908,
      "磯": 6909,
      "磷": 6910,
      "礁": 6911,
      "礎": 6912,
      "礙": 6913,
      "礦": 6914,
      "礫": 6915,
      "礮": 6916,
      "示": 6917,
      "礼": 6918,
      "社": 6919,
      "祀": 6920,
      "祁": 6921,
      "祇": 6922,
      "祈": 6923,
      "祉": 6924,
      "祎": 6925,
      "祐": 6926,
      "祓": 6927,
      "祕": 6928,
      "祖": 6929,
      "祗": 6930,
      "祚": 6931,
      "祜": 6932,
      "祝": 6933,
      "神": 6934,
      "祟": 6935,
      "祠": 6936,
      "祥": 6937,
      "祧": 6938,
      "票": 6939,
      "祭": 6940,
      "祯": 6941,
      "祷": 6942,
      "祸": 6943,
      "祿": 6944,
      "禁": 6945,
      "禄": 6946,
      "禅": 6947,
      "禍": 6948,
      "禎": 6949,
      "福": 6950,
      "禔": 6951,
      "禕": 6952,
      "禦": 6953,
      "禧": 6954,
      "禪": 6955,
      "禮": 6956,
      "禱": 6957,
      "禹": 6958,
      "禺": 6959,
      "离": 6960,
      "禽": 6961,
      "禾": 6962,
      "禿": 6963,
      "秀": 6964,
      "私": 6965,
      "秉": 6966,
      "秋": 6967,
      "种": 6968,
      "科": 6969,
      "秒": 6970,
      "秘": 6971,
      "租": 6972,
      "秤": 6973,
      "秦": 6974,
      "秩": 6975,
      "秭": 6976,
      "积": 6977,
      "称": 6978,
      "移": 6979,
      "稀": 6980,
      "稅": 6981,
      "程": 6982,
      "稍": 6983,
      "税": 6984,
      "稚": 6985,
      "稜": 6986,
      "稞": 6987,
      "稟": 6988,
      "稠": 6989,
      "稣": 6990,
      "種": 6991,
      "稱": 6992,
      "稲": 6993,
      "稳": 6994,
      "稷": 6995,
      "稹": 6996,
      "稻": 6997,
      "稼": 6998,
      "稽": 6999,
      "稿": 7000,
      "穀": 7001,
      "穆": 7002,
      "穌": 7003,
      "積": 7004,
      "穎": 7005,
      "穏": 7006,
      "穗": 7007,
      "穢": 7008,
      "穩": 7009,
      "穬": 7010,
      "穰": 7011,
      "穴": 7012,
      "究": 7013,
      "穷": 7014,
      "穹": 7015,
      "空": 7016,
      "穿": 7017,
      "突": 7018,
      "窃": 7019,
      "窄": 7020,
      "窒": 7021,
      "窓": 7022,
      "窖": 7023,
      "窗": 7024,
      "窘": 7025,
      "窜": 7026,
      "窝": 7027,
      "窟": 7028,
      "窠": 7029,
      "窦": 7030,
      "窩": 7031,
      "窪": 7032,
      "窮": 7033,
      "窯": 7034,
      "窰": 7035,
      "窶": 7036,
      "窺": 7037,
      "窿": 7038,
      "竄": 7039,
      "竇": 7040,
      "竊": 7041,
      "立": 7042,
      "竑": 7043,
      "竖": 7044,
      "站": 7045,
      "竜": 7046,
      "竞": 7047,
      "竟": 7048,
      "章": 7049,
      "竣": 7050,
      "竤": 7051,
      "童": 7052,
      "竪": 7053,
      "竭": 7054,
      "端": 7055,
      "競": 7056,
      "竹": 7057,
      "竺": 7058,
      "竿": 7059,
      "笀": 7060,
      "笃": 7061,
      "笈": 7062,
      "笋": 7063,
      "笏": 7064,
      "笑": 7065,
      "笔": 7066,
      "笛": 7067,
      "笞": 7068,
      "笠": 7069,
      "符": 7070,
      "笪": 7071,
      "第": 7072,
      "笹": 7073,
      "笼": 7074,
      "筆": 7075,
      "筈": 7076,
      "等": 7077,
      "筋": 7078,
      "筍": 7079,
      "筏": 7080,
      "筑": 7081,
      "筒": 7082,
      "答": 7083,
      "策": 7084,
      "筝": 7085,
      "筧": 7086,
      "筮": 7087,
      "筲": 7088,
      "筵": 7089,
      "筹": 7090,
      "签": 7091,
      "简": 7092,
      "箇": 7093,
      "箋": 7094,
      "箓": 7095,
      "箕": 7096,
      "算": 7097,
      "箚": 7098,
      "箜": 7099,
      "管": 7100,
      "箬": 7101,
      "箭": 7102,
      "箱": 7103,
      "箴": 7104,
      "箸": 7105,
      "節": 7106,
      "範": 7107,
      "篆": 7108,
      "篇": 7109,
      "築": 7110,
      "篋": 7111,
      "篌": 7112,
      "篙": 7113,
      "篝": 7114,
      "篠": 7115,
      "篡": 7116,
      "篤": 7117,
      "篩": 7118,
      "篮": 7119,
      "篷": 7120,
      "篾": 7121,
      "簒": 7122,
      "簡": 7123,
      "簣": 7124,
      "簧": 7125,
      "簪": 7126,
      "簷": 7127,
      "簽": 7128,
      "簾": 7129,
      "簿": 7130,
      "籃": 7131,
      "籌": 7132,
      "籍": 7133,
      "籐": 7134,
      "籓": 7135,
      "籠": 7136,
      "籤": 7137,
      "籬": 7138,
      "籲": 7139,
      "米": 7140,
      "类": 7141,
      "籽": 7142,
      "粄": 7143,
      "粉": 7144,
      "粋": 7145,
      "粒": 7146,
      "粗": 7147,
      "粘": 7148,
      "粛": 7149,
      "粟": 7150,
      "粤": 7151,
      "粥": 7152,
      "粧": 7153,
      "粮": 7154,
      "粲": 7155,
      "粵": 7156,
      "粹": 7157,
      "粽": 7158,
      "精": 7159,
      "粿": 7160,
      "糊": 7161,
      "糕": 7162,
      "糖": 7163,
      "糙": 7164,
      "糜": 7165,
      "糞": 7166,
      "糟": 7167,
      "糧": 7168,
      "糯": 7169,
      "糲": 7170,
      "糴": 7171,
      "糶": 7172,
      "糸": 7173,
      "系": 7174,
      "糾": 7175,
      "紀": 7176,
      "紂": 7177,
      "約": 7178,
      "紅": 7179,
      "紇": 7180,
      "紊": 7181,
      "紋": 7182,
      "納": 7183,
      "紐": 7184,
      "紓": 7185,
      "純": 7186,
      "紗": 7187,
      "紘": 7188,
      "紙": 7189,
      "級": 7190,
      "紛": 7191,
      "紜": 7192,
      "素": 7193,
      "紡": 7194,
      "索": 7195,
      "紧": 7196,
      "紫": 7197,
      "紮": 7198,
      "累": 7199,
      "細": 7200,
      "紲": 7201,
      "紳": 7202,
      "紹": 7203,
      "紿": 7204,
      "絀": 7205,
      "終": 7206,
      "組": 7207,
      "絆": 7208,
      "経": 7209,
      "結": 7210,
      "絕": 7211,
      "絞": 7212,
      "絡": 7213,
      "給": 7214,
      "絨": 7215,
      "絮": 7216,
      "絰": 7217,
      "統": 7218,
      "絲": 7219,
      "絳": 7220,
      "絵": 7221,
      "絶": 7222,
      "絹": 7223,
      "綁": 7224,
      "綎": 7225,
      "綏": 7226,
      "經": 7227,
      "継": 7228,
      "続": 7229,
      "綜": 7230,
      "綝": 7231,
      "綠": 7232,
      "綢": 7233,
      "綫": 7234,
      "綬": 7235,
      "維": 7236,
      "綰": 7237,
      "綱": 7238,
      "網": 7239,
      "綴": 7240,
      "綵": 7241,
      "綸": 7242,
      "綺": 7243,
      "綻": 7244,
      "綽": 7245,
      "綾": 7246,
      "綿": 7247,
      "緊": 7248,
      "緋": 7249,
      "総": 7250,
      "緑": 7251,
      "緒": 7252,
      "緖": 7253,
      "緘": 7254,
      "線": 7255,
      "緝": 7256,
      "締": 7257,
      "緡": 7258,
      "緣": 7259,
      "緦": 7260,
      "編": 7261,
      "緩": 7262,
      "緬": 7263,
      "緯": 7264,
      "練": 7265,
      "緹": 7266,
      "縁": 7267,
      "縄": 7268,
      "縊": 7269,
      "縗": 7270,
      "縛": 7271,
      "縞": 7272,
      "縢": 7273,
      "縣": 7274,
      "縦": 7275,
      "縫": 7276,
      "縮": 7277,
      "縱": 7278,
      "縲": 7279,
      "總": 7280,
      "績": 7281,
      "繁": 7282,
      "繆": 7283,
      "繇": 7284,
      "繋": 7285,
      "織": 7286,
      "繕": 7287,
      "繚": 7288,
      "繞": 7289,
      "繡": 7290,
      "繢": 7291,
      "繩": 7292,
      "繪": 7293,
      "繫": 7294,
      "繰": 7295,
      "繳": 7296,
      "繹": 7297,
      "繼": 7298,
      "纂": 7299,
      "纈": 7300,
      "續": 7301,
      "纍": 7302,
      "纏": 7303,
      "纑": 7304,
      "纔": 7305,
      "纖": 7306,
      "纠": 7307,
      "红": 7308,
      "纤": 7309,
      "纥": 7310,
      "约": 7311,
      "级": 7312,
      "纪": 7313,
      "纬": 7314,
      "纯": 7315,
      "纲": 7316,
      "纳": 7317,
      "纵": 7318,
      "纷": 7319,
      "纸": 7320,
      "纹": 7321,
      "纺": 7322,
      "纽": 7323,
      "线": 7324,
      "练": 7325,
      "组": 7326,
      "绅": 7327,
      "细": 7328,
      "织": 7329,
      "终": 7330,
      "绊": 7331,
      "绍": 7332,
      "经": 7333,
      "结": 7334,
      "绕": 7335,
      "绘": 7336,
      "给": 7337,
      "络": 7338,
      "绝": 7339,
      "统": 7340,
      "绢": 7341,
      "绣": 7342,
      "绥": 7343,
      "继": 7344,
      "绩": 7345,
      "绪": 7346,
      "绫": 7347,
      "续": 7348,
      "绳": 7349,
      "维": 7350,
      "绵": 7351,
      "绸": 7352,
      "综": 7353,
      "绿": 7354,
      "缀": 7355,
      "缄": 7356,
      "缉": 7357,
      "缎": 7358,
      "缓": 7359,
      "缔": 7360,
      "编": 7361,
      "缘": 7362,
      "缚": 7363,
      "缝": 7364,
      "缠": 7365,
      "缩": 7366,
      "缪": 7367,
      "缮": 7368,
      "缷": 7369,
      "缸": 7370,
      "缺": 7371,
      "缽": 7372,
      "罐": 7373,
      "网": 7374,
      "罔": 7375,
      "罕": 7376,
      "罗": 7377,
      "罚": 7378,
      "罢": 7379,
      "罪": 7380,
      "置": 7381,
      "罰": 7382,
      "署": 7383,
      "罵": 7384,
      "罷": 7385,
      "罹": 7386,
      "罽": 7387,
      "羅": 7388,
      "羆": 7389,
      "羈": 7390,
      "羊": 7391,
      "羌": 7392,
      "美": 7393,
      "羑": 7394,
      "羞": 7395,
      "羡": 7396,
      "羣": 7397,
      "群": 7398,
      "羧": 7399,
      "羨": 7400,
      "義": 7401,
      "羰": 7402,
      "羲": 7403,
      "羸": 7404,
      "羹": 7405,
      "羽": 7406,
      "翁": 7407,
      "翅": 7408,
      "翊": 7409,
      "翌": 7410,
      "翎": 7411,
      "習": 7412,
      "翔": 7413,
      "翕": 7414,
      "翘": 7415,
      "翟": 7416,
      "翠": 7417,
      "翡": 7418,
      "翩": 7419,
      "翬": 7420,
      "翮": 7421,
      "翰": 7422,
      "翳": 7423,
      "翹": 7424,
      "翻": 7425,
      "翼": 7426,
      "耀": 7427,
      "老": 7428,
      "考": 7429,
      "者": 7430,
      "耆": 7431,
      "而": 7432,
      "耐": 7433,
      "耑": 7434,
      "耒": 7435,
      "耕": 7436,
      "耗": 7437,
      "耘": 7438,
      "耜": 7439,
      "耦": 7440,
      "耳": 7441,
      "耶": 7442,
      "耿": 7443,
      "聂": 7444,
      "聆": 7445,
      "聊": 7446,
      "职": 7447,
      "联": 7448,
      "聖": 7449,
      "聘": 7450,
      "聚": 7451,
      "聞": 7452,
      "聪": 7453,
      "聯": 7454,
      "聰": 7455,
      "聲": 7456,
      "聴": 7457,
      "聶": 7458,
      "職": 7459,
      "聽": 7460,
      "聿": 7461,
      "肃": 7462,
      "肄": 7463,
      "肅": 7464,
      "肆": 7465,
      "肇": 7466,
      "肉": 7467,
      "肋": 7468,
      "肌": 7469,
      "肖": 7470,
      "肘": 7471,
      "肚": 7472,
      "肝": 7473,
      "肠": 7474,
      "股": 7475,
      "肢": 7476,
      "肤": 7477,
      "肥": 7478,
      "肩": 7479,
      "肪": 7480,
      "肯": 7481,
      "育": 7482,
      "肴": 7483,
      "肸": 7484,
      "肺": 7485,
      "肽": 7486,
      "肾": 7487,
      "肿": 7488,
      "胀": 7489,
      "胁": 7490,
      "胃": 7491,
      "胄": 7492,
      "胆": 7493,
      "胊": 7494,
      "背": 7495,
      "胎": 7496,
      "胖": 7497,
      "胙": 7498,
      "胚": 7499,
      "胜": 7500,
      "胝": 7501,
      "胞": 7502,
      "胡": 7503,
      "胤": 7504,
      "胥": 7505,
      "胴": 7506,
      "胶": 7507,
      "胸": 7508,
      "胺": 7509,
      "胼": 7510,
      "能": 7511,
      "脂": 7512,
      "脅": 7513,
      "脆": 7514,
      "脇": 7515,
      "脈": 7516,
      "脉": 7517,
      "脊": 7518,
      "脏": 7519,
      "脑": 7520,
      "脓": 7521,
      "脚": 7522,
      "脩": 7523,
      "脫": 7524,
      "脱": 7525,
      "脳": 7526,
      "脸": 7527,
      "脹": 7528,
      "腊": 7529,
      "腋": 7530,
      "腎": 7531,
      "腐": 7532,
      "腓": 7533,
      "腔": 7534,
      "腕": 7535,
      "腥": 7536,
      "腦": 7537,
      "腫": 7538,
      "腰": 7539,
      "腱": 7540,
      "腳": 7541,
      "腴": 7542,
      "腸": 7543,
      "腹": 7544,
      "腺": 7545,
      "腾": 7546,
      "腿": 7547,
      "膀": 7548,
      "膊": 7549,
      "膏": 7550,
      "膚": 7551,
      "膛": 7552,
      "膜": 7553,
      "膝": 7554,
      "膠": 7555,
      "膨": 7556,
      "膳": 7557,
      "膺": 7558,
      "膽": 7559,
      "臂": 7560,
      "臆": 7561,
      "臉": 7562,
      "臊": 7563,
      "臓": 7564,
      "臘": 7565,
      "臚": 7566,
      "臟": 7567,
      "臣": 7568,
      "臥": 7569,
      "臧": 7570,
      "臨": 7571,
      "自": 7572,
      "臭": 7573,
      "臯": 7574,
      "至": 7575,
      "致": 7576,
      "臺": 7577,
      "臻": 7578,
      "臼": 7579,
      "臾": 7580,
      "舄": 7581,
      "舅": 7582,
      "舆": 7583,
      "與": 7584,
      "興": 7585,
      "舉": 7586,
      "舊": 7587,
      "舌": 7588,
      "舍": 7589,
      "舎": 7590,
      "舒": 7591,
      "舖": 7592,
      "舜": 7593,
      "舞": 7594,
      "舟": 7595,
      "航": 7596,
      "般": 7597,
      "舰": 7598,
      "舵": 7599,
      "舶": 7600,
      "舷": 7601,
      "船": 7602,
      "舺": 7603,
      "艇": 7604,
      "艋": 7605,
      "艘": 7606,
      "艙": 7607,
      "艤": 7608,
      "艦": 7609,
      "艮": 7610,
      "良": 7611,
      "艰": 7612,
      "艱": 7613,
      "色": 7614,
      "艳": 7615,
      "艺": 7616,
      "艾": 7617,
      "节": 7618,
      "芋": 7619,
      "芒": 7620,
      "芘": 7621,
      "芙": 7622,
      "芜": 7623,
      "芝": 7624,
      "芥": 7625,
      "芦": 7626,
      "芬": 7627,
      "芭": 7628,
      "芯": 7629,
      "花": 7630,
      "芳": 7631,
      "芷": 7632,
      "芸": 7633,
      "芹": 7634,
      "芻": 7635,
      "芽": 7636,
      "苇": 7637,
      "苏": 7638,
      "苑": 7639,
      "苕": 7640,
      "苗": 7641,
      "苛": 7642,
      "苞": 7643,
      "苟": 7644,
      "苡": 7645,
      "若": 7646,
      "苦": 7647,
      "苩": 7648,
      "苯": 7649,
      "英": 7650,
      "苴": 7651,
      "茂": 7652,
      "范": 7653,
      "茄": 7654,
      "茅": 7655,
      "茍": 7656,
      "茏": 7657,
      "茜": 7658,
      "茨": 7659,
      "茱": 7660,
      "茲": 7661,
      "茵": 7662,
      "茶": 7663,
      "荀": 7664,
      "荃": 7665,
      "荆": 7666,
      "草": 7667,
      "荊": 7668,
      "荐": 7669,
      "荒": 7670,
      "荔": 7671,
      "荘": 7672,
      "荡": 7673,
      "荣": 7674,
      "荥": 7675,
      "荩": 7676,
      "荫": 7677,
      "药": 7678,
      "荷": 7679,
      "荼": 7680,
      "莆": 7681,
      "莉": 7682,
      "莊": 7683,
      "莎": 7684,
      "莒": 7685,
      "莖": 7686,
      "莘": 7687,
      "莞": 7688,
      "莠": 7689,
      "莢": 7690,
      "莫": 7691,
      "莱": 7692,
      "莲": 7693,
      "获": 7694,
      "莺": 7695,
      "莽": 7696,
      "菁": 7697,
      "菅": 7698,
      "菇": 7699,
      "菊": 7700,
      "菌": 7701,
      "菓": 7702,
      "菖": 7703,
      "菜": 7704,
      "菩": 7705,
      "華": 7706,
      "菱": 7707,
      "菲": 7708,
      "菴": 7709,
      "菸": 7710,
      "萃": 7711,
      "萄": 7712,
      "萆": 7713,
      "萊": 7714,
      "萌": 7715,
      "萎": 7716,
      "萤": 7717,
      "营": 7718,
      "萧": 7719,
      "萨": 7720,
      "萩": 7721,
      "萬": 7722,
      "萼": 7723,
      "落": 7724,
      "葆": 7725,
      "葉": 7726,
      "著": 7727,
      "葛": 7728,
      "葡": 7729,
      "董": 7730,
      "葦": 7731,
      "葩": 7732,
      "葫": 7733,
      "葬": 7734,
      "葭": 7735,
      "葱": 7736,
      "葳": 7737,
      "葵": 7738,
      "蒂": 7739,
      "蒋": 7740,
      "蒐": 7741,
      "蒙": 7742,
      "蒞": 7743,
      "蒡": 7744,
      "蒨": 7745,
      "蒲": 7746,
      "蒸": 7747,
      "蒼": 7748,
      "蓄": 7749,
      "蓆": 7750,
      "蓉": 7751,
      "蓋": 7752,
      "蓓": 7753,
      "蓝": 7754,
      "蓢": 7755,
      "蓬": 7756,
      "蓮": 7757,
      "蓺": 7758,
      "蔓": 7759,
      "蔗": 7760,
      "蔚": 7761,
      "蔡": 7762,
      "蔣": 7763,
      "蔬": 7764,
      "蔭": 7765,
      "蔴": 7766,
      "蔵": 7767,
      "蔻": 7768,
      "蔽": 7769,
      "蕃": 7770,
      "蕆": 7771,
      "蕈": 7772,
      "蕉": 7773,
      "蕓": 7774,
      "蕙": 7775,
      "蕨": 7776,
      "蕩": 7777,
      "蕪": 7778,
      "蕭": 7779,
      "蕴": 7780,
      "蕹": 7781,
      "蕾": 7782,
      "薄": 7783,
      "薇": 7784,
      "薊": 7785,
      "薑": 7786,
      "薔": 7787,
      "薛": 7788,
      "薦": 7789,
      "薨": 7790,
      "薩": 7791,
      "薪": 7792,
      "薬": 7793,
      "薯": 7794,
      "薰": 7795,
      "藁": 7796,
      "藉": 7797,
      "藍": 7798,
      "藏": 7799,
      "藐": 7800,
      "藜": 7801,
      "藝": 7802,
      "藤": 7803,
      "藥": 7804,
      "藩": 7805,
      "藪": 7806,
      "藷": 7807,
      "藻": 7808,
      "蘄": 7809,
      "蘆": 7810,
      "蘇": 7811,
      "蘊": 7812,
      "蘋": 7813,
      "蘑": 7814,
      "蘭": 7815,
      "蘿": 7816,
      "虎": 7817,
      "虏": 7818,
      "虐": 7819,
      "虑": 7820,
      "虔": 7821,
      "處": 7822,
      "虚": 7823,
      "虛": 7824,
      "虜": 7825,
      "虞": 7826,
      "號": 7827,
      "虢": 7828,
      "虧": 7829,
      "虫": 7830,
      "虱": 7831,
      "虹": 7832,
      "虽": 7833,
      "虾": 7834,
      "蚀": 7835,
      "蚊": 7836,
      "蚌": 7837,
      "蚓": 7838,
      "蚕": 7839,
      "蚖": 7840,
      "蚠": 7841,
      "蚤": 7842,
      "蚩": 7843,
      "蚶": 7844,
      "蚺": 7845,
      "蚻": 7846,
      "蛇": 7847,
      "蛋": 7848,
      "蛎": 7849,
      "蛙": 7850,
      "蛛": 7851,
      "蛟": 7852,
      "蛤": 7853,
      "蛦": 7854,
      "蛮": 7855,
      "蜀": 7856,
      "蜂": 7857,
      "蜃": 7858,
      "蜆": 7859,
      "蜉": 7860,
      "蜊": 7861,
      "蜎": 7862,
      "蜒": 7863,
      "蜘": 7864,
      "蜚": 7865,
      "蜜": 7866,
      "蜡": 7867,
      "蜢": 7868,
      "蜥": 7869,
      "蜴": 7870,
      "蜹": 7871,
      "蜿": 7872,
      "蝇": 7873,
      "蝉": 7874,
      "蝕": 7875,
      "蝗": 7876,
      "蝟": 7877,
      "蝣": 7878,
      "蝦": 7879,
      "蝴": 7880,
      "蝶": 7881,
      "蝸": 7882,
      "螈": 7883,
      "融": 7884,
      "螟": 7885,
      "螢": 7886,
      "螯": 7887,
      "螺": 7888,
      "蟄": 7889,
      "蟒": 7890,
      "蟬": 7891,
      "蟲": 7892,
      "蟹": 7893,
      "蟻": 7894,
      "蠆": 7895,
      "蠑": 7896,
      "蠕": 7897,
      "蠡": 7898,
      "蠣": 7899,
      "蠱": 7900,
      "蠲": 7901,
      "蠶": 7902,
      "蠹": 7903,
      "蠻": 7904,
      "血": 7905,
      "衄": 7906,
      "衆": 7907,
      "行": 7908,
      "衍": 7909,
      "術": 7910,
      "衔": 7911,
      "街": 7912,
      "衙": 7913,
      "衛": 7914,
      "衝": 7915,
      "衞": 7916,
      "衡": 7917,
      "衢": 7918,
      "衣": 7919,
      "补": 7920,
      "表": 7921,
      "衫": 7922,
      "衬": 7923,
      "衮": 7924,
      "衰": 7925,
      "衷": 7926,
      "衹": 7927,
      "衾": 7928,
      "衿": 7929,
      "袁": 7930,
      "袂": 7931,
      "袈": 7932,
      "袋": 7933,
      "袍": 7934,
      "袒": 7935,
      "袖": 7936,
      "袞": 7937,
      "袤": 7938,
      "被": 7939,
      "袭": 7940,
      "袱": 7941,
      "裁": 7942,
      "裂": 7943,
      "装": 7944,
      "裏": 7945,
      "裔": 7946,
      "裕": 7947,
      "裘": 7948,
      "裙": 7949,
      "補": 7950,
      "裝": 7951,
      "裟": 7952,
      "裡": 7953,
      "裤": 7954,
      "裨": 7955,
      "裳": 7956,
      "裴": 7957,
      "裵": 7958,
      "裸": 7959,
      "裹": 7960,
      "製": 7961,
      "複": 7962,
      "褐": 7963,
      "褒": 7964,
      "褚": 7965,
      "褪": 7966,
      "褫": 7967,
      "褻": 7968,
      "襄": 7969,
      "襟": 7970,
      "襪": 7971,
      "襯": 7972,
      "襲": 7973,
      "西": 7974,
      "要": 7975,
      "覆": 7976,
      "覇": 7977,
      "覈": 7978,
      "見": 7979,
      "規": 7980,
      "覓": 7981,
      "視": 7982,
      "覘": 7983,
      "覚": 7984,
      "覡": 7985,
      "覦": 7986,
      "覧": 7987,
      "親": 7988,
      "覬": 7989,
      "覲": 7990,
      "観": 7991,
      "覺": 7992,
      "覽": 7993,
      "覿": 7994,
      "觀": 7995,
      "见": 7996,
      "观": 7997,
      "规": 7998,
      "视": 7999,
      "览": 8000,
      "觉": 8001,
      "觐": 8002,
      "角": 8003,
      "觜": 8004,
      "解": 8005,
      "触": 8006,
      "觴": 8007,
      "觸": 8008,
      "言": 8009,
      "訂": 8010,
      "訃": 8011,
      "計": 8012,
      "訊": 8013,
      "訌": 8014,
      "討": 8015,
      "訐": 8016,
      "訓": 8017,
      "訖": 8018,
      "託": 8019,
      "記": 8020,
      "訝": 8021,
      "訟": 8022,
      "訣": 8023,
      "訥": 8024,
      "訪": 8025,
      "設": 8026,
      "許": 8027,
      "訳": 8028,
      "訴": 8029,
      "訶": 8030,
      "診": 8031,
      "註": 8032,
      "証": 8033,
      "詁": 8034,
      "詆": 8035,
      "詈": 8036,
      "詐": 8037,
      "詔": 8038,
      "評": 8039,
      "詗": 8040,
      "詘": 8041,
      "詛": 8042,
      "詞": 8043,
      "詠": 8044,
      "詢": 8045,
      "詣": 8046,
      "試": 8047,
      "詩": 8048,
      "詫": 8049,
      "詬": 8050,
      "詭": 8051,
      "詮": 8052,
      "詰": 8053,
      "話": 8054,
      "該": 8055,
      "詳": 8056,
      "詹": 8057,
      "詿": 8058,
      "誅": 8059,
      "誇": 8060,
      "誉": 8061,
      "誌": 8062,
      "認": 8063,
      "誓": 8064,
      "誕": 8065,
      "誘": 8066,
      "誚": 8067,
      "語": 8068,
      "誠": 8069,
      "誡": 8070,
      "誣": 8071,
      "誤": 8072,
      "誦": 8073,
      "誨": 8074,
      "說": 8075,
      "説": 8076,
      "読": 8077,
      "誰": 8078,
      "課": 8079,
      "誹": 8080,
      "誼": 8081,
      "調": 8082,
      "談": 8083,
      "請": 8084,
      "諌": 8085,
      "諏": 8086,
      "諒": 8087,
      "論": 8088,
      "諗": 8089,
      "諛": 8090,
      "諜": 8091,
      "諡": 8092,
      "諦": 8093,
      "諧": 8094,
      "諫": 8095,
      "諭": 8096,
      "諮": 8097,
      "諱": 8098,
      "諳": 8099,
      "諶": 8100,
      "諷": 8101,
      "諸": 8102,
      "諾": 8103,
      "謀": 8104,
      "謁": 8105,
      "謂": 8106,
      "謊": 8107,
      "謎": 8108,
      "謐": 8109,
      "謔": 8110,
      "謗": 8111,
      "謙": 8112,
      "謚": 8113,
      "講": 8114,
      "謝": 8115,
      "謠": 8116,
      "謡": 8117,
      "謫": 8118,
      "謬": 8119,
      "謳": 8120,
      "謹": 8121,
      "謾": 8122,
      "譁": 8123,
      "證": 8124,
      "譎": 8125,
      "譏": 8126,
      "譒": 8127,
      "譓": 8128,
      "譖": 8129,
      "識": 8130,
      "譙": 8131,
      "譚": 8132,
      "譜": 8133,
      "警": 8134,
      "譬": 8135,
      "譭": 8136,
      "譯": 8137,
      "議": 8138,
      "譲": 8139,
      "譴": 8140,
      "護": 8141,
      "譽": 8142,
      "讀": 8143,
      "讃": 8144,
      "變": 8145,
      "讋": 8146,
      "讎": 8147,
      "讐": 8148,
      "讒": 8149,
      "讓": 8150,
      "讖": 8151,
      "讙": 8152,
      "讚": 8153,
      "讞": 8154,
      "计": 8155,
      "订": 8156,
      "认": 8157,
      "讨": 8158,
      "让": 8159,
      "讫": 8160,
      "训": 8161,
      "议": 8162,
      "讯": 8163,
      "记": 8164,
      "讲": 8165,
      "讳": 8166,
      "讷": 8167,
      "许": 8168,
      "论": 8169,
      "讽": 8170,
      "设": 8171,
      "访": 8172,
      "证": 8173,
      "诂": 8174,
      "诃": 8175,
      "评": 8176,
      "诅": 8177,
      "识": 8178,
      "诉": 8179,
      "诊": 8180,
      "词": 8181,
      "诏": 8182,
      "译": 8183,
      "试": 8184,
      "诗": 8185,
      "诚": 8186,
      "话": 8187,
      "诞": 8188,
      "诠": 8189,
      "诡": 8190,
      "询": 8191,
      "诣": 8192,
      "该": 8193,
      "详": 8194,
      "诫": 8195,
      "诬": 8196,
      "语": 8197,
      "误": 8198,
      "诰": 8199,
      "诱": 8200,
      "诲": 8201,
      "说": 8202,
      "诵": 8203,
      "请": 8204,
      "诸": 8205,
      "诺": 8206,
      "读": 8207,
      "课": 8208,
      "谁": 8209,
      "调": 8210,
      "谅": 8211,
      "谈": 8212,
      "谊": 8213,
      "谋": 8214,
      "谍": 8215,
      "谏": 8216,
      "谐": 8217,
      "谓": 8218,
      "谕": 8219,
      "谚": 8220,
      "谜": 8221,
      "谟": 8222,
      "谢": 8223,
      "谣": 8224,
      "谥": 8225,
      "谦": 8226,
      "谨": 8227,
      "谬": 8228,
      "谭": 8229,
      "谯": 8230,
      "谱": 8231,
      "谴": 8232,
      "谷": 8233,
      "谿": 8234,
      "豆": 8235,
      "豈": 8236,
      "豊": 8237,
      "豌": 8238,
      "豎": 8239,
      "豐": 8240,
      "豕": 8241,
      "豚": 8242,
      "象": 8243,
      "豨": 8244,
      "豪": 8245,
      "豫": 8246,
      "豬": 8247,
      "豸": 8248,
      "豹": 8249,
      "貂": 8250,
      "貅": 8251,
      "貌": 8252,
      "貓": 8253,
      "貔": 8254,
      "貙": 8255,
      "貝": 8256,
      "貞": 8257,
      "負": 8258,
      "財": 8259,
      "貢": 8260,
      "貤": 8261,
      "貧": 8262,
      "貨": 8263,
      "販": 8264,
      "貪": 8265,
      "貫": 8266,
      "責": 8267,
      "貯": 8268,
      "貰": 8269,
      "貳": 8270,
      "貴": 8271,
      "貶": 8272,
      "買": 8273,
      "貸": 8274,
      "費": 8275,
      "貼": 8276,
      "貽": 8277,
      "貿": 8278,
      "賀": 8279,
      "賁": 8280,
      "賂": 8281,
      "賃": 8282,
      "賄": 8283,
      "資": 8284,
      "賈": 8285,
      "賊": 8286,
      "賑": 8287,
      "賒": 8288,
      "賓": 8289,
      "賙": 8290,
      "賚": 8291,
      "賛": 8292,
      "賜": 8293,
      "賞": 8294,
      "賠": 8295,
      "賡": 8296,
      "賢": 8297,
      "賣": 8298,
      "賤": 8299,
      "賦": 8300,
      "質": 8301,
      "賭": 8302,
      "賴": 8303,
      "賺": 8304,
      "購": 8305,
      "賽": 8306,
      "贄": 8307,
      "贅": 8308,
      "贇": 8309,
      "贈": 8310,
      "贊": 8311,
      "贍": 8312,
      "贏": 8313,
      "贓": 8314,
      "贖": 8315,
      "贛": 8316,
      "贝": 8317,
      "贞": 8318,
      "负": 8319,
      "贡": 8320,
      "财": 8321,
      "责": 8322,
      "贤": 8323,
      "败": 8324,
      "账": 8325,
      "货": 8326,
      "质": 8327,
      "贩": 8328,
      "贪": 8329,
      "贫": 8330,
      "贬": 8331,
      "购": 8332,
      "贯": 8333,
      "贰": 8334,
      "贴": 8335,
      "贵": 8336,
      "贷": 8337,
      "贸": 8338,
      "费": 8339,
      "贺": 8340,
      "贻": 8341,
      "贼": 8342,
      "贾": 8343,
      "资": 8344,
      "赅": 8345,
      "赋": 8346,
      "赌": 8347,
      "赍": 8348,
      "赎": 8349,
      "赏": 8350,
      "赐": 8351,
      "赖": 8352,
      "赚": 8353,
      "赛": 8354,
      "赝": 8355,
      "赞": 8356,
      "赠": 8357,
      "赢": 8358,
      "赣": 8359,
      "赤": 8360,
      "赦": 8361,
      "赧": 8362,
      "赫": 8363,
      "走": 8364,
      "赴": 8365,
      "赵": 8366,
      "赶": 8367,
      "起": 8368,
      "趁": 8369,
      "超": 8370,
      "越": 8371,
      "趋": 8372,
      "趍": 8373,
      "趕": 8374,
      "趙": 8375,
      "趟": 8376,
      "趣": 8377,
      "趨": 8378,
      "趫": 8379,
      "足": 8380,
      "趴": 8381,
      "趾": 8382,
      "跃": 8383,
      "跆": 8384,
      "跋": 8385,
      "跌": 8386,
      "跍": 8387,
      "跑": 8388,
      "距": 8389,
      "跟": 8390,
      "跡": 8391,
      "跨": 8392,
      "跪": 8393,
      "路": 8394,
      "跳": 8395,
      "践": 8396,
      "跻": 8397,
      "踊": 8398,
      "踏": 8399,
      "踐": 8400,
      "踖": 8401,
      "踞": 8402,
      "踢": 8403,
      "踧": 8404,
      "踩": 8405,
      "踪": 8406,
      "踰": 8407,
      "踴": 8408,
      "蹀": 8409,
      "蹂": 8410,
      "蹄": 8411,
      "蹈": 8412,
      "蹊": 8413,
      "蹋": 8414,
      "蹕": 8415,
      "蹙": 8416,
      "蹟": 8417,
      "蹤": 8418,
      "蹩": 8419,
      "蹱": 8420,
      "蹲": 8421,
      "蹴": 8422,
      "蹶": 8423,
      "蹺": 8424,
      "躁": 8425,
      "躄": 8426,
      "躉": 8427,
      "躍": 8428,
      "躒": 8429,
      "躓": 8430,
      "身": 8431,
      "躬": 8432,
      "躯": 8433,
      "躲": 8434,
      "軀": 8435,
      "車": 8436,
      "軋": 8437,
      "軌": 8438,
      "軍": 8439,
      "軒": 8440,
      "軟": 8441,
      "転": 8442,
      "軸": 8443,
      "軻": 8444,
      "軼": 8445,
      "軽": 8446,
      "軾": 8447,
      "較": 8448,
      "輅": 8449,
      "載": 8450,
      "輌": 8451,
      "輒": 8452,
      "輔": 8453,
      "輕": 8454,
      "輘": 8455,
      "輛": 8456,
      "輜": 8457,
      "輝": 8458,
      "輟": 8459,
      "輦": 8460,
      "輩": 8461,
      "輪": 8462,
      "輯": 8463,
      "輳": 8464,
      "輷": 8465,
      "輸": 8466,
      "輻": 8467,
      "輾": 8468,
      "輿": 8469,
      "轄": 8470,
      "轅": 8471,
      "轉": 8472,
      "轍": 8473,
      "轎": 8474,
      "轟": 8475,
      "轢": 8476,
      "车": 8477,
      "轨": 8478,
      "轩": 8479,
      "转": 8480,
      "轮": 8481,
      "软": 8482,
      "轰": 8483,
      "轴": 8484,
      "轻": 8485,
      "载": 8486,
      "轿": 8487,
      "较": 8488,
      "辄": 8489,
      "辅": 8490,
      "辆": 8491,
      "辈": 8492,
      "辉": 8493,
      "辍": 8494,
      "辎": 8495,
      "辑": 8496,
      "输": 8497,
      "辖": 8498,
      "辙": 8499,
      "辛": 8500,
      "辜": 8501,
      "辞": 8502,
      "辟": 8503,
      "辣": 8504,
      "辦": 8505,
      "辨": 8506,
      "辩": 8507,
      "辭": 8508,
      "辮": 8509,
      "辯": 8510,
      "辰": 8511,
      "辱": 8512,
      "農": 8513,
      "边": 8514,
      "辺": 8515,
      "込": 8516,
      "辽": 8517,
      "达": 8518,
      "辿": 8519,
      "迁": 8520,
      "迂": 8521,
      "迄": 8522,
      "迅": 8523,
      "迆": 8524,
      "过": 8525,
      "迈": 8526,
      "迎": 8527,
      "运": 8528,
      "近": 8529,
      "迓": 8530,
      "返": 8531,
      "还": 8532,
      "这": 8533,
      "进": 8534,
      "远": 8535,
      "违": 8536,
      "连": 8537,
      "迟": 8538,
      "迢": 8539,
      "迤": 8540,
      "迥": 8541,
      "迦": 8542,
      "迨": 8543,
      "迩": 8544,
      "迪": 8545,
      "迫": 8546,
      "迭": 8547,
      "述": 8548,
      "迴": 8549,
      "迷": 8550,
      "迸": 8551,
      "迹": 8552,
      "迺": 8553,
      "追": 8554,
      "退": 8555,
      "送": 8556,
      "适": 8557,
      "逃": 8558,
      "逅": 8559,
      "逆": 8560,
      "选": 8561,
      "逊": 8562,
      "逋": 8563,
      "逍": 8564,
      "透": 8565,
      "逐": 8566,
      "递": 8567,
      "途": 8568,
      "逕": 8569,
      "逗": 8570,
      "這": 8571,
      "通": 8572,
      "逛": 8573,
      "逝": 8574,
      "逞": 8575,
      "速": 8576,
      "造": 8577,
      "逡": 8578,
      "逢": 8579,
      "連": 8580,
      "逮": 8581,
      "週": 8582,
      "進": 8583,
      "逳": 8584,
      "逵": 8585,
      "逶": 8586,
      "逸": 8587,
      "逻": 8588,
      "逼": 8589,
      "逾": 8590,
      "遁": 8591,
      "遂": 8592,
      "遅": 8593,
      "遇": 8594,
      "遊": 8595,
      "運": 8596,
      "遍": 8597,
      "過": 8598,
      "遏": 8599,
      "遐": 8600,
      "道": 8601,
      "達": 8602,
      "違": 8603,
      "遗": 8604,
      "遘": 8605,
      "遙": 8606,
      "遛": 8607,
      "遜": 8608,
      "遞": 8609,
      "遠": 8610,
      "遡": 8611,
      "遢": 8612,
      "遣": 8613,
      "遥": 8614,
      "適": 8615,
      "遭": 8616,
      "遮": 8617,
      "遯": 8618,
      "遲": 8619,
      "遵": 8620,
      "遷": 8621,
      "選": 8622,
      "遹": 8623,
      "遺": 8624,
      "遼": 8625,
      "遽": 8626,
      "避": 8627,
      "邀": 8628,
      "邁": 8629,
      "邂": 8630,
      "還": 8631,
      "邇": 8632,
      "邈": 8633,
      "邊": 8634,
      "邋": 8635,
      "邏": 8636,
      "邑": 8637,
      "邓": 8638,
      "邕": 8639,
      "邗": 8640,
      "邢": 8641,
      "那": 8642,
      "邦": 8643,
      "邨": 8644,
      "邪": 8645,
      "邮": 8646,
      "邯": 8647,
      "邱": 8648,
      "邲": 8649,
      "邳": 8650,
      "邵": 8651,
      "邸": 8652,
      "邺": 8653,
      "邻": 8654,
      "邽": 8655,
      "郁": 8656,
      "郃": 8657,
      "郊": 8658,
      "郎": 8659,
      "郑": 8660,
      "郗": 8661,
      "郝": 8662,
      "郞": 8663,
      "郟": 8664,
      "郡": 8665,
      "郢": 8666,
      "郤": 8667,
      "部": 8668,
      "郭": 8669,
      "郯": 8670,
      "郵": 8671,
      "郷": 8672,
      "都": 8673,
      "郿": 8674,
      "鄂": 8675,
      "鄆": 8676,
      "鄉": 8677,
      "鄒": 8678,
      "鄕": 8679,
      "鄗": 8680,
      "鄙": 8681,
      "鄜": 8682,
      "鄞": 8683,
      "鄢": 8684,
      "鄣": 8685,
      "鄤": 8686,
      "鄧": 8687,
      "鄭": 8688,
      "鄯": 8689,
      "鄰": 8690,
      "鄱": 8691,
      "鄲": 8692,
      "鄴": 8693,
      "鄶": 8694,
      "酈": 8695,
      "酉": 8696,
      "酋": 8697,
      "酌": 8698,
      "配": 8699,
      "酎": 8700,
      "酐": 8701,
      "酒": 8702,
      "酔": 8703,
      "酖": 8704,
      "酣": 8705,
      "酤": 8706,
      "酥": 8707,
      "酬": 8708,
      "酯": 8709,
      "酰": 8710,
      "酵": 8711,
      "酶": 8712,
      "酷": 8713,
      "酸": 8714,
      "酹": 8715,
      "酿": 8716,
      "醇": 8717,
      "醉": 8718,
      "醋": 8719,
      "醍": 8720,
      "醐": 8721,
      "醒": 8722,
      "醜": 8723,
      "醫": 8724,
      "醬": 8725,
      "醮": 8726,
      "醴": 8727,
      "釀": 8728,
      "釁": 8729,
      "釆": 8730,
      "采": 8731,
      "釈": 8732,
      "釉": 8733,
      "释": 8734,
      "釋": 8735,
      "里": 8736,
      "重": 8737,
      "野": 8738,
      "量": 8739,
      "釐": 8740,
      "金": 8741,
      "釗": 8742,
      "釘": 8743,
      "釙": 8744,
      "釜": 8745,
      "針": 8746,
      "釣": 8747,
      "釹": 8748,
      "鈇": 8749,
      "鈈": 8750,
      "鈉": 8751,
      "鈍": 8752,
      "鈔": 8753,
      "鈕": 8754,
      "鈞": 8755,
      "鈰": 8756,
      "鈴": 8757,
      "鈷": 8758,
      "鈾": 8759,
      "鈿": 8760,
      "鉀": 8761,
      "鉄": 8762,
      "鉅": 8763,
      "鉈": 8764,
      "鉉": 8765,
      "鉍": 8766,
      "鉗": 8767,
      "鉛": 8768,
      "鉝": 8769,
      "鉞": 8770,
      "鉢": 8771,
      "鉤": 8772,
      "鉱": 8773,
      "鉴": 8774,
      "銀": 8775,
      "銃": 8776,
      "銅": 8777,
      "銓": 8778,
      "銘": 8779,
      "銚": 8780,
      "銛": 8781,
      "銜": 8782,
      "銡": 8783,
      "銫": 8784,
      "銭": 8785,
      "銳": 8786,
      "銷": 8787,
      "鋅": 8788,
      "鋒": 8789,
      "鋤": 8790,
      "鋦": 8791,
      "鋪": 8792,
      "鋰": 8793,
      "鋳": 8794,
      "鋸": 8795,
      "鋹": 8796,
      "鋼": 8797,
      "錄": 8798,
      "錐": 8799,
      "錕": 8800,
      "錡": 8801,
      "錢": 8802,
      "錦": 8803,
      "錨": 8804,
      "錫": 8805,
      "錬": 8806,
      "錮": 8807,
      "錯": 8808,
      "録": 8809,
      "鍋": 8810,
      "鍛": 8811,
      "鍥": 8812,
      "鍵": 8813,
      "鍺": 8814,
      "鍾": 8815,
      "鎂": 8816,
      "鎄": 8817,
      "鎊": 8818,
      "鎌": 8819,
      "鎔": 8820,
      "鎖": 8821,
      "鎘": 8822,
      "鎧": 8823,
      "鎭": 8824,
      "鎮": 8825,
      "鎳": 8826,
      "鎵": 8827,
      "鎶": 8828,
      "鎿": 8829,
      "鏈": 8830,
      "鏊": 8831,
      "鏐": 8832,
      "鏖": 8833,
      "鏗": 8834,
      "鏘": 8835,
      "鏞": 8836,
      "鏟": 8837,
      "鏡": 8838,
      "鏢": 8839,
      "鏤": 8840,
      "鏽": 8841,
      "鐘": 8842,
      "鐠": 8843,
      "鐫": 8844,
      "鐮": 8845,
      "鐳": 8846,
      "鐵": 8847,
      "鐸": 8848,
      "鑄": 8849,
      "鑊": 8850,
      "鑑": 8851,
      "鑒": 8852,
      "鑕": 8853,
      "鑰": 8854,
      "鑲": 8855,
      "鑴": 8856,
      "鑼": 8857,
      "鑽": 8858,
      "鑾": 8859,
      "鑿": 8860,
      "针": 8861,
      "钉": 8862,
      "钓": 8863,
      "钙": 8864,
      "钛": 8865,
      "钞": 8866,
      "钟": 8867,
      "钡": 8868,
      "钢": 8869,
      "钦": 8870,
      "钧": 8871,
      "钱": 8872,
      "钴": 8873,
      "钻": 8874,
      "钽": 8875,
      "钿": 8876,
      "铀": 8877,
      "铁": 8878,
      "铃": 8879,
      "铅": 8880,
      "铌": 8881,
      "铑": 8882,
      "铜": 8883,
      "铝": 8884,
      "铭": 8885,
      "铱": 8886,
      "银": 8887,
      "铸": 8888,
      "铺": 8889,
      "链": 8890,
      "销": 8891,
      "锁": 8892,
      "锂": 8893,
      "锈": 8894,
      "锋": 8895,
      "锌": 8896,
      "锐": 8897,
      "锕": 8898,
      "错": 8899,
      "锚": 8900,
      "锟": 8901,
      "锡": 8902,
      "锦": 8903,
      "锭": 8904,
      "键": 8905,
      "锯": 8906,
      "锰": 8907,
      "锴": 8908,
      "锵": 8909,
      "镄": 8910,
      "镇": 8911,
      "镖": 8912,
      "镜": 8913,
      "镠": 8914,
      "镧": 8915,
      "镰": 8916,
      "镳": 8917,
      "镶": 8918,
      "長": 8919,
      "长": 8920,
      "門": 8921,
      "閃": 8922,
      "閉": 8923,
      "開": 8924,
      "閎": 8925,
      "閏": 8926,
      "閑": 8927,
      "閒": 8928,
      "間": 8929,
      "閔": 8930,
      "閘": 8931,
      "閡": 8932,
      "関": 8933,
      "閣": 8934,
      "閤": 8935,
      "閥": 8936,
      "閨": 8937,
      "閩": 8938,
      "閬": 8939,
      "閭": 8940,
      "閱": 8941,
      "閲": 8942,
      "閹": 8943,
      "閻": 8944,
      "閼": 8945,
      "閽": 8946,
      "闆": 8947,
      "闇": 8948,
      "闈": 8949,
      "闊": 8950,
      "闋": 8951,
      "闌": 8952,
      "闍": 8953,
      "闔": 8954,
      "闕": 8955,
      "闖": 8956,
      "闘": 8957,
      "關": 8958,
      "闞": 8959,
      "闠": 8960,
      "闡": 8961,
      "闢": 8962,
      "闤": 8963,
      "门": 8964,
      "闪": 8965,
      "闭": 8966,
      "问": 8967,
      "闯": 8968,
      "闰": 8969,
      "闲": 8970,
      "间": 8971,
      "闵": 8972,
      "闸": 8973,
      "闹": 8974,
      "闻": 8975,
      "闽": 8976,
      "阀": 8977,
      "阁": 8978,
      "阅": 8979,
      "阐": 8980,
      "阔": 8981,
      "阙": 8982,
      "阜": 8983,
      "队": 8984,
      "阪": 8985,
      "阬": 8986,
      "阮": 8987,
      "阯": 8988,
      "防": 8989,
      "阳": 8990,
      "阴": 8991,
      "阵": 8992,
      "阶": 8993,
      "阻": 8994,
      "阼": 8995,
      "阿": 8996,
      "陀": 8997,
      "陂": 8998,
      "附": 8999,
      "际": 9000,
      "陆": 9001,
      "陇": 9002,
      "陈": 9003,
      "陉": 9004,
      "陋": 9005,
      "陌": 9006,
      "降": 9007,
      "限": 9008,
      "陕": 9009,
      "陘": 9010,
      "陛": 9011,
      "陜": 9012,
      "陝": 9013,
      "陞": 9014,
      "陡": 9015,
      "院": 9016,
      "陣": 9017,
      "除": 9018,
      "陥": 9019,
      "险": 9020,
      "陪": 9021,
      "陰": 9022,
      "陲": 9023,
      "陳": 9024,
      "陵": 9025,
      "陶": 9026,
      "陷": 9027,
      "陸": 9028,
      "険": 9029,
      "陽": 9030,
      "隅": 9031,
      "隆": 9032,
      "隈": 9033,
      "隊": 9034,
      "隋": 9035,
      "隍": 9036,
      "階": 9037,
      "随": 9038,
      "隐": 9039,
      "隑": 9040,
      "隔": 9041,
      "隕": 9042,
      "隘": 9043,
      "隙": 9044,
      "際": 9045,
      "障": 9046,
      "隞": 9047,
      "隠": 9048,
      "隣": 9049,
      "隧": 9050,
      "隨": 9051,
      "險": 9052,
      "隰": 9053,
      "隱": 9054,
      "隳": 9055,
      "隴": 9056,
      "隶": 9057,
      "隷": 9058,
      "隸": 9059,
      "隻": 9060,
      "难": 9061,
      "雀": 9062,
      "雁": 9063,
      "雄": 9064,
      "雅": 9065,
      "集": 9066,
      "雇": 9067,
      "雉": 9068,
      "雌": 9069,
      "雍": 9070,
      "雏": 9071,
      "雑": 9072,
      "雒": 9073,
      "雕": 9074,
      "雖": 9075,
      "雙": 9076,
      "雛": 9077,
      "雜": 9078,
      "雞": 9079,
      "離": 9080,
      "難": 9081,
      "雨": 9082,
      "雪": 9083,
      "雯": 9084,
      "雲": 9085,
      "零": 9086,
      "雷": 9087,
      "雹": 9088,
      "電": 9089,
      "雾": 9090,
      "需": 9091,
      "霄": 9092,
      "霆": 9093,
      "震": 9094,
      "霊": 9095,
      "霍": 9096,
      "霏": 9097,
      "霑": 9098,
      "霓": 9099,
      "霖": 9100,
      "霜": 9101,
      "霞": 9102,
      "霧": 9103,
      "露": 9104,
      "霸": 9105,
      "霾": 9106,
      "靈": 9107,
      "靑": 9108,
      "青": 9109,
      "靓": 9110,
      "靖": 9111,
      "静": 9112,
      "靚": 9113,
      "靜": 9114,
      "非": 9115,
      "靠": 9116,
      "靡": 9117,
      "面": 9118,
      "革": 9119,
      "靴": 9120,
      "靺": 9121,
      "靼": 9122,
      "鞆": 9123,
      "鞋": 9124,
      "鞍": 9125,
      "鞏": 9126,
      "鞑": 9127,
      "鞘": 9128,
      "鞠": 9129,
      "鞨": 9130,
      "鞫": 9131,
      "鞭": 9132,
      "韋": 9133,
      "韓": 9134,
      "韜": 9135,
      "韞": 9136,
      "韦": 9137,
      "韩": 9138,
      "音": 9139,
      "韵": 9140,
      "韶": 9141,
      "韻": 9142,
      "響": 9143,
      "頁": 9144,
      "頂": 9145,
      "頃": 9146,
      "項": 9147,
      "順": 9148,
      "須": 9149,
      "頊": 9150,
      "頌": 9151,
      "預": 9152,
      "頑": 9153,
      "頒": 9154,
      "頓": 9155,
      "頗": 9156,
      "領": 9157,
      "頠": 9158,
      "頡": 9159,
      "頤": 9160,
      "頭": 9161,
      "頵": 9162,
      "頸": 9163,
      "頹": 9164,
      "頻": 9165,
      "頼": 9166,
      "顆": 9167,
      "題": 9168,
      "額": 9169,
      "顎": 9170,
      "顏": 9171,
      "顔": 9172,
      "顕": 9173,
      "願": 9174,
      "顛": 9175,
      "類": 9176,
      "顥": 9177,
      "顧": 9178,
      "顯": 9179,
      "顱": 9180,
      "页": 9181,
      "顶": 9182,
      "顷": 9183,
      "项": 9184,
      "顺": 9185,
      "须": 9186,
      "顼": 9187,
      "顽": 9188,
      "顾": 9189,
      "顿": 9190,
      "颁": 9191,
      "颂": 9192,
      "预": 9193,
      "颅": 9194,
      "领": 9195,
      "颇": 9196,
      "颈": 9197,
      "颉": 9198,
      "颍": 9199,
      "频": 9200,
      "颖": 9201,
      "颗": 9202,
      "题": 9203,
      "颙": 9204,
      "颚": 9205,
      "颜": 9206,
      "额": 9207,
      "颠": 9208,
      "風": 9209,
      "颱": 9210,
      "颶": 9211,
      "飄": 9212,
      "风": 9213,
      "飘": 9214,
      "飛": 9215,
      "飞": 9216,
      "食": 9217,
      "飢": 9218,
      "飪": 9219,
      "飭": 9220,
      "飮": 9221,
      "飯": 9222,
      "飲": 9223,
      "飴": 9224,
      "飼": 9225,
      "飽": 9226,
      "飾": 9227,
      "餅": 9228,
      "餉": 9229,
      "養": 9230,
      "餌": 9231,
      "餐": 9232,
      "餓": 9233,
      "餘": 9234,
      "餚": 9235,
      "餞": 9236,
      "餠": 9237,
      "館": 9238,
      "餽": 9239,
      "餾": 9240,
      "饋": 9241,
      "饌": 9242,
      "饑": 9243,
      "饒": 9244,
      "饔": 9245,
      "饗": 9246,
      "饘": 9247,
      "饥": 9248,
      "饪": 9249,
      "饭": 9250,
      "饮": 9251,
      "饰": 9252,
      "饱": 9253,
      "饲": 9254,
      "饶": 9255,
      "饼": 9256,
      "饿": 9257,
      "馁": 9258,
      "馆": 9259,
      "馏": 9260,
      "首": 9261,
      "馘": 9262,
      "香": 9263,
      "馨": 9264,
      "馬": 9265,
      "馮": 9266,
      "馱": 9267,
      "馳": 9268,
      "馴": 9269,
      "駁": 9270,
      "駄": 9271,
      "駅": 9272,
      "駆": 9273,
      "駐": 9274,
      "駒": 9275,
      "駕": 9276,
      "駙": 9277,
      "駛": 9278,
      "駝": 9279,
      "駟": 9280,
      "駢": 9281,
      "駭": 9282,
      "駮": 9283,
      "駱": 9284,
      "駿": 9285,
      "騁": 9286,
      "騎": 9287,
      "騒": 9288,
      "験": 9289,
      "騙": 9290,
      "騮": 9291,
      "騰": 9292,
      "騷": 9293,
      "騺": 9294,
      "驂": 9295,
      "驃": 9296,
      "驅": 9297,
      "驍": 9298,
      "驕": 9299,
      "驗": 9300,
      "驚": 9301,
      "驛": 9302,
      "驟": 9303,
      "驢": 9304,
      "驤": 9305,
      "驩": 9306,
      "马": 9307,
      "驭": 9308,
      "驱": 9309,
      "驳": 9310,
      "驶": 9311,
      "驹": 9312,
      "驻": 9313,
      "驼": 9314,
      "驾": 9315,
      "驿": 9316,
      "骁": 9317,
      "骂": 9318,
      "骄": 9319,
      "骅": 9320,
      "骆": 9321,
      "骇": 9322,
      "验": 9323,
      "骑": 9324,
      "骚": 9325,
      "骤": 9326,
      "骥": 9327,
      "骨": 9328,
      "骰": 9329,
      "骸": 9330,
      "骼": 9331,
      "髓": 9332,
      "體": 9333,
      "高": 9334,
      "髦": 9335,
      "髪": 9336,
      "髭": 9337,
      "髮": 9338,
      "髯": 9339,
      "髳": 9340,
      "髻": 9341,
      "鬆": 9342,
      "鬚": 9343,
      "鬥": 9344,
      "鬧": 9345,
      "鬩": 9346,
      "鬭": 9347,
      "鬱": 9348,
      "鬷": 9349,
      "鬼": 9350,
      "魁": 9351,
      "魂": 9352,
      "魄": 9353,
      "魅": 9354,
      "魏": 9355,
      "魔": 9356,
      "魚": 9357,
      "魯": 9358,
      "魷": 9359,
      "鮑": 9360,
      "鮓": 9361,
      "鮨": 9362,
      "鮮": 9363,
      "鯉": 9364,
      "鯤": 9365,
      "鯨": 9366,
      "鯽": 9367,
      "鰥": 9368,
      "鰭": 9369,
      "鰲": 9370,
      "鱈": 9371,
      "鱗": 9372,
      "鱷": 9373,
      "鱼": 9374,
      "鲁": 9375,
      "鲍": 9376,
      "鲜": 9377,
      "鳥": 9378,
      "鳩": 9379,
      "鳳": 9380,
      "鳴": 9381,
      "鴈": 9382,
      "鴉": 9383,
      "鴛": 9384,
      "鴞": 9385,
      "鴟": 9386,
      "鴦": 9387,
      "鴨": 9388,
      "鴷": 9389,
      "鴻": 9390,
      "鴽": 9391,
      "鴿": 9392,
      "鵑": 9393,
      "鵜": 9394,
      "鵝": 9395,
      "鵡": 9396,
      "鵬": 9397,
      "鵰": 9398,
      "鵲": 9399,
      "鶘": 9400,
      "鶤": 9401,
      "鶩": 9402,
      "鶴": 9403,
      "鶻": 9404,
      "鶿": 9405,
      "鷂": 9406,
      "鷗": 9407,
      "鷙": 9408,
      "鷟": 9409,
      "鷦": 9410,
      "鷲": 9411,
      "鷸": 9412,
      "鷹": 9413,
      "鷺": 9414,
      "鸇": 9415,
      "鸕": 9416,
      "鸚": 9417,
      "鸛": 9418,
      "鸞": 9419,
      "鸟": 9420,
      "鸠": 9421,
      "鸡": 9422,
      "鸤": 9423,
      "鸦": 9424,
      "鸭": 9425,
      "鸯": 9426,
      "鸳": 9427,
      "鸵": 9428,
      "鸶": 9429,
      "鸽": 9430,
      "鸿": 9431,
      "鹖": 9432,
      "鹘": 9433,
      "鹤": 9434,
      "鹫": 9435,
      "鹭": 9436,
      "鹰": 9437,
      "鹵": 9438,
      "鹹": 9439,
      "鹼": 9440,
      "鹽": 9441,
      "鹿": 9442,
      "麂": 9443,
      "麒": 9444,
      "麓": 9445,
      "麗": 9446,
      "麟": 9447,
      "麤": 9448,
      "麥": 9449,
      "麦": 9450,
      "麴": 9451,
      "麵": 9452,
      "麻": 9453,
      "麼": 9454,
      "麾": 9455,
      "黃": 9456,
      "黄": 9457,
      "黌": 9458,
      "黍": 9459,
      "黎": 9460,
      "黏": 9461,
      "黑": 9462,
      "黒": 9463,
      "黔": 9464,
      "默": 9465,
      "黙": 9466,
      "黛": 9467,
      "黜": 9468,
      "點": 9469,
      "黥": 9470,
      "黨": 9471,
      "黯": 9472,
      "黴": 9473,
      "黷": 9474,
      "鼇": 9475,
      "鼎": 9476,
      "鼐": 9477,
      "鼓": 9478,
      "鼠": 9479,
      "鼬": 9480,
      "鼻": 9481,
      "齊": 9482,
      "齋": 9483,
      "齎": 9484,
      "齐": 9485,
      "齒": 9486,
      "齘": 9487,
      "齟": 9488,
      "齡": 9489,
      "齢": 9490,
      "齣": 9491,
      "齧": 9492,
      "齬": 9493,
      "齿": 9494,
      "龁": 9495,
      "龄": 9496,
      "龍": 9497,
      "龐": 9498,
      "龔": 9499,
      "龙": 9500,
      "龜": 9501,
      "龢": 9502,
      "ꃺ": 9503,
      "ꄧ": 9504,
      "ꇉ": 9505,
      "ꏁ": 9506,
      "ꑤ": 9507,
      "ꓡ": 9508,
      "ꓢ": 9509,
      "ꓲ": 9510,
      "ꓴ": 9511,
      "ꝛ": 9512,
      "Ᵹ": 9513,
      "Ꞌ": 9514,
      "ꞌ": 9515,
      "Ʇ": 9516,
      "가": 9517,
      "각": 9518,
      "간": 9519,
      "갇": 9520,
      "갈": 9521,
      "감": 9522,
      "갑": 9523,
      "값": 9524,
      "갓": 9525,
      "갔": 9526,
      "강": 9527,
      "갖": 9528,
      "같": 9529,
      "갚": 9530,
      "개": 9531,
      "객": 9532,
      "갱": 9533,
      "거": 9534,
      "걱": 9535,
      "건": 9536,
      "걸": 9537,
      "검": 9538,
      "겁": 9539,
      "것": 9540,
      "게": 9541,
      "겐": 9542,
      "겠": 9543,
      "겨": 9544,
      "격": 9545,
      "겪": 9546,
      "견": 9547,
      "결": 9548,
      "겸": 9549,
      "겹": 9550,
      "겼": 9551,
      "경": 9552,
      "곁": 9553,
      "계": 9554,
      "고": 9555,
      "곡": 9556,
      "곤": 9557,
      "곧": 9558,
      "골": 9559,
      "곰": 9560,
      "곱": 9561,
      "곳": 9562,
      "공": 9563,
      "과": 9564,
      "곽": 9565,
      "관": 9566,
      "괄": 9567,
      "광": 9568,
      "괜": 9569,
      "괴": 9570,
      "굉": 9571,
      "교": 9572,
      "구": 9573,
      "국": 9574,
      "군": 9575,
      "굳": 9576,
      "굴": 9577,
      "굵": 9578,
      "굶": 9579,
      "굽": 9580,
      "궁": 9581,
      "권": 9582,
      "궐": 9583,
      "궤": 9584,
      "귀": 9585,
      "규": 9586,
      "균": 9587,
      "그": 9588,
      "극": 9589,
      "근": 9590,
      "글": 9591,
      "긁": 9592,
      "금": 9593,
      "급": 9594,
      "긍": 9595,
      "기": 9596,
      "긴": 9597,
      "길": 9598,
      "김": 9599,
      "깃": 9600,
      "깊": 9601,
      "까": 9602,
      "깝": 9603,
      "깨": 9604,
      "깬": 9605,
      "꺼": 9606,
      "께": 9607,
      "꼬": 9608,
      "꼭": 9609,
      "꼴": 9610,
      "꼽": 9611,
      "꽃": 9612,
      "꽉": 9613,
      "꽤": 9614,
      "꾀": 9615,
      "꾸": 9616,
      "꾼": 9617,
      "꿀": 9618,
      "꿇": 9619,
      "꿈": 9620,
      "꿨": 9621,
      "뀌": 9622,
      "뀐": 9623,
      "뀔": 9624,
      "끄": 9625,
      "끈": 9626,
      "끊": 9627,
      "끌": 9628,
      "끓": 9629,
      "끝": 9630,
      "끼": 9631,
      "낀": 9632,
      "낌": 9633,
      "나": 9634,
      "낙": 9635,
      "난": 9636,
      "날": 9637,
      "남": 9638,
      "납": 9639,
      "났": 9640,
      "낭": 9641,
      "낮": 9642,
      "낳": 9643,
      "내": 9644,
      "낸": 9645,
      "낼": 9646,
      "냈": 9647,
      "냉": 9648,
      "냐": 9649,
      "냥": 9650,
      "너": 9651,
      "넉": 9652,
      "넌": 9653,
      "널": 9654,
      "넓": 9655,
      "넘": 9656,
      "넣": 9657,
      "네": 9658,
      "넨": 9659,
      "넬": 9660,
      "넷": 9661,
      "녀": 9662,
      "녁": 9663,
      "년": 9664,
      "념": 9665,
      "녔": 9666,
      "녕": 9667,
      "노": 9668,
      "녹": 9669,
      "논": 9670,
      "놀": 9671,
      "놈": 9672,
      "놉": 9673,
      "농": 9674,
      "높": 9675,
      "놓": 9676,
      "뇌": 9677,
      "뇨": 9678,
      "누": 9679,
      "눈": 9680,
      "눔": 9681,
      "눕": 9682,
      "눠": 9683,
      "뉘": 9684,
      "뉴": 9685,
      "늄": 9686,
      "느": 9687,
      "늑": 9688,
      "는": 9689,
      "늘": 9690,
      "능": 9691,
      "늦": 9692,
      "늪": 9693,
      "늬": 9694,
      "니": 9695,
      "닉": 9696,
      "닌": 9697,
      "닐": 9698,
      "님": 9699,
      "닛": 9700,
      "닝": 9701,
      "다": 9702,
      "닥": 9703,
      "닦": 9704,
      "단": 9705,
      "닫": 9706,
      "달": 9707,
      "닭": 9708,
      "닮": 9709,
      "담": 9710,
      "답": 9711,
      "닷": 9712,
      "당": 9713,
      "대": 9714,
      "댄": 9715,
      "댈": 9716,
      "더": 9717,
      "덕": 9718,
      "던": 9719,
      "덜": 9720,
      "덟": 9721,
      "덤": 9722,
      "덧": 9723,
      "덩": 9724,
      "덮": 9725,
      "데": 9726,
      "덴": 9727,
      "델": 9728,
      "뎅": 9729,
      "도": 9730,
      "독": 9731,
      "돈": 9732,
      "돋": 9733,
      "돌": 9734,
      "돕": 9735,
      "동": 9736,
      "돼": 9737,
      "됐": 9738,
      "되": 9739,
      "된": 9740,
      "될": 9741,
      "됨": 9742,
      "두": 9743,
      "둑": 9744,
      "둔": 9745,
      "둘": 9746,
      "둠": 9747,
      "둡": 9748,
      "둥": 9749,
      "뒀": 9750,
      "뒤": 9751,
      "듀": 9752,
      "드": 9753,
      "득": 9754,
      "든": 9755,
      "듣": 9756,
      "들": 9757,
      "듬": 9758,
      "듭": 9759,
      "듯": 9760,
      "등": 9761,
      "디": 9762,
      "딕": 9763,
      "딘": 9764,
      "딜": 9765,
      "딩": 9766,
      "딪": 9767,
      "따": 9768,
      "딸": 9769,
      "땄": 9770,
      "땅": 9771,
      "때": 9772,
      "땜": 9773,
      "떠": 9774,
      "떡": 9775,
      "떤": 9776,
      "떨": 9777,
      "떴": 9778,
      "떻": 9779,
      "떼": 9780,
      "또": 9781,
      "똑": 9782,
      "뚜": 9783,
      "뚝": 9784,
      "뚫": 9785,
      "뛰": 9786,
      "뛴": 9787,
      "뛸": 9788,
      "뜨": 9789,
      "뜬": 9790,
      "뜯": 9791,
      "뜻": 9792,
      "띄": 9793,
      "띠": 9794,
      "라": 9795,
      "락": 9796,
      "란": 9797,
      "랄": 9798,
      "람": 9799,
      "랍": 9800,
      "랏": 9801,
      "랐": 9802,
      "랑": 9803,
      "래": 9804,
      "랙": 9805,
      "랜": 9806,
      "램": 9807,
      "랫": 9808,
      "랬": 9809,
      "략": 9810,
      "량": 9811,
      "러": 9812,
      "런": 9813,
      "럼": 9814,
      "럽": 9815,
      "럿": 9816,
      "렀": 9817,
      "렇": 9818,
      "레": 9819,
      "렉": 9820,
      "렌": 9821,
      "렐": 9822,
      "려": 9823,
      "력": 9824,
      "련": 9825,
      "렬": 9826,
      "렴": 9827,
      "렵": 9828,
      "렷": 9829,
      "렸": 9830,
      "령": 9831,
      "례": 9832,
      "로": 9833,
      "록": 9834,
      "론": 9835,
      "롤": 9836,
      "롬": 9837,
      "롭": 9838,
      "롯": 9839,
      "롱": 9840,
      "뢰": 9841,
      "료": 9842,
      "룡": 9843,
      "루": 9844,
      "룩": 9845,
      "룬": 9846,
      "룰": 9847,
      "룹": 9848,
      "뤄": 9849,
      "류": 9850,
      "륙": 9851,
      "륜": 9852,
      "률": 9853,
      "륭": 9854,
      "르": 9855,
      "륵": 9856,
      "른": 9857,
      "를": 9858,
      "름": 9859,
      "릇": 9860,
      "릉": 9861,
      "리": 9862,
      "릭": 9863,
      "린": 9864,
      "릴": 9865,
      "림": 9866,
      "립": 9867,
      "릿": 9868,
      "링": 9869,
      "마": 9870,
      "막": 9871,
      "만": 9872,
      "많": 9873,
      "말": 9874,
      "맑": 9875,
      "망": 9876,
      "맞": 9877,
      "맡": 9878,
      "매": 9879,
      "맥": 9880,
      "맨": 9881,
      "맬": 9882,
      "맷": 9883,
      "맹": 9884,
      "맺": 9885,
      "머": 9886,
      "먹": 9887,
      "먼": 9888,
      "멀": 9889,
      "멈": 9890,
      "멋": 9891,
      "메": 9892,
      "멕": 9893,
      "멘": 9894,
      "멜": 9895,
      "멧": 9896,
      "며": 9897,
      "면": 9898,
      "멸": 9899,
      "명": 9900,
      "몇": 9901,
      "모": 9902,
      "목": 9903,
      "몫": 9904,
      "몬": 9905,
      "몰": 9906,
      "몸": 9907,
      "못": 9908,
      "몽": 9909,
      "묘": 9910,
      "무": 9911,
      "묵": 9912,
      "묶": 9913,
      "문": 9914,
      "묻": 9915,
      "물": 9916,
      "뭇": 9917,
      "뭔": 9918,
      "뮌": 9919,
      "뮤": 9920,
      "므": 9921,
      "미": 9922,
      "믹": 9923,
      "민": 9924,
      "믿": 9925,
      "밀": 9926,
      "밍": 9927,
      "및": 9928,
      "밑": 9929,
      "바": 9930,
      "박": 9931,
      "밖": 9932,
      "반": 9933,
      "받": 9934,
      "발": 9935,
      "밝": 9936,
      "밟": 9937,
      "밤": 9938,
      "밥": 9939,
      "방": 9940,
      "밭": 9941,
      "배": 9942,
      "백": 9943,
      "뱀": 9944,
      "뱅": 9945,
      "뱉": 9946,
      "버": 9947,
      "번": 9948,
      "벌": 9949,
      "범": 9950,
      "법": 9951,
      "벗": 9952,
      "벙": 9953,
      "베": 9954,
      "벤": 9955,
      "벧": 9956,
      "벨": 9957,
      "벵": 9958,
      "벼": 9959,
      "벽": 9960,
      "변": 9961,
      "별": 9962,
      "병": 9963,
      "보": 9964,
      "복": 9965,
      "본": 9966,
      "볼": 9967,
      "봉": 9968,
      "봐": 9969,
      "봤": 9970,
      "부": 9971,
      "북": 9972,
      "분": 9973,
      "붇": 9974,
      "불": 9975,
      "붉": 9976,
      "붓": 9977,
      "붕": 9978,
      "붙": 9979,
      "뷔": 9980,
      "뷜": 9981,
      "뷰": 9982,
      "브": 9983,
      "븐": 9984,
      "블": 9985,
      "비": 9986,
      "빅": 9987,
      "빈": 9988,
      "빌": 9989,
      "빚": 9990,
      "빛": 9991,
      "빠": 9992,
      "빤": 9993,
      "빨": 9994,
      "빵": 9995,
      "빼": 9996,
      "뺄": 9997,
      "뻔": 9998,
      "뻘": 9999,
      "뼈": 10000,
      "뼉": 10001,
      "뽑": 10002,
      "뿌": 10003,
      "뿐": 10004,
      "뿔": 10005,
      "쁜": 10006,
      "사": 10007,
      "삭": 10008,
      "산": 10009,
      "살": 10010,
      "삶": 10011,
      "삼": 10012,
      "삽": 10013,
      "삿": 10014,
      "샀": 10015,
      "상": 10016,
      "새": 10017,
      "색": 10018,
      "샘": 10019,
      "생": 10020,
      "샤": 10021,
      "샨": 10022,
      "서": 10023,
      "석": 10024,
      "섞": 10025,
      "선": 10026,
      "설": 10027,
      "섬": 10028,
      "섭": 10029,
      "섯": 10030,
      "섰": 10031,
      "성": 10032,
      "세": 10033,
      "센": 10034,
      "셀": 10035,
      "셈": 10036,
      "셉": 10037,
      "셋": 10038,
      "셔": 10039,
      "션": 10040,
      "셨": 10041,
      "셰": 10042,
      "소": 10043,
      "속": 10044,
      "손": 10045,
      "솔": 10046,
      "솜": 10047,
      "솟": 10048,
      "송": 10049,
      "솥": 10050,
      "쇄": 10051,
      "쇠": 10052,
      "쇼": 10053,
      "수": 10054,
      "숙": 10055,
      "순": 10056,
      "술": 10057,
      "숨": 10058,
      "숫": 10059,
      "숭": 10060,
      "숱": 10061,
      "숲": 10062,
      "쉈": 10063,
      "쉐": 10064,
      "쉬": 10065,
      "쉴": 10066,
      "쉽": 10067,
      "슈": 10068,
      "슐": 10069,
      "슛": 10070,
      "스": 10071,
      "슨": 10072,
      "슬": 10073,
      "슴": 10074,
      "습": 10075,
      "슷": 10076,
      "승": 10077,
      "시": 10078,
      "식": 10079,
      "신": 10080,
      "실": 10081,
      "싫": 10082,
      "심": 10083,
      "십": 10084,
      "싱": 10085,
      "싶": 10086,
      "싸": 10087,
      "싹": 10088,
      "싼": 10089,
      "쌍": 10090,
      "쌓": 10091,
      "써": 10092,
      "썹": 10093,
      "썼": 10094,
      "쏘": 10095,
      "쏜": 10096,
      "쏟": 10097,
      "쐐": 10098,
      "쑤": 10099,
      "쑨": 10100,
      "쓰": 10101,
      "쓴": 10102,
      "쓸": 10103,
      "씀": 10104,
      "씌": 10105,
      "씨": 10106,
      "씩": 10107,
      "씰": 10108,
      "아": 10109,
      "악": 10110,
      "안": 10111,
      "앉": 10112,
      "않": 10113,
      "알": 10114,
      "앎": 10115,
      "앓": 10116,
      "암": 10117,
      "압": 10118,
      "앗": 10119,
      "았": 10120,
      "앙": 10121,
      "앞": 10122,
      "애": 10123,
      "액": 10124,
      "앤": 10125,
      "앨": 10126,
      "앰": 10127,
      "야": 10128,
      "약": 10129,
      "얀": 10130,
      "얄": 10131,
      "양": 10132,
      "얕": 10133,
      "어": 10134,
      "억": 10135,
      "언": 10136,
      "얻": 10137,
      "얼": 10138,
      "얽": 10139,
      "엄": 10140,
      "업": 10141,
      "없": 10142,
      "엇": 10143,
      "었": 10144,
      "엎": 10145,
      "에": 10146,
      "엑": 10147,
      "엔": 10148,
      "엘": 10149,
      "엣": 10150,
      "여": 10151,
      "역": 10152,
      "연": 10153,
      "열": 10154,
      "엷": 10155,
      "염": 10156,
      "엽": 10157,
      "엿": 10158,
      "였": 10159,
      "영": 10160,
      "옆": 10161,
      "예": 10162,
      "옌": 10163,
      "옐": 10164,
      "옛": 10165,
      "오": 10166,
      "옥": 10167,
      "온": 10168,
      "올": 10169,
      "옮": 10170,
      "옳": 10171,
      "옵": 10172,
      "옷": 10173,
      "옹": 10174,
      "와": 10175,
      "완": 10176,
      "왐": 10177,
      "왔": 10178,
      "왕": 10179,
      "왜": 10180,
      "외": 10181,
      "왼": 10182,
      "요": 10183,
      "욕": 10184,
      "용": 10185,
      "우": 10186,
      "욱": 10187,
      "운": 10188,
      "울": 10189,
      "움": 10190,
      "웃": 10191,
      "웅": 10192,
      "워": 10193,
      "원": 10194,
      "월": 10195,
      "웠": 10196,
      "웨": 10197,
      "웹": 10198,
      "위": 10199,
      "윈": 10200,
      "윌": 10201,
      "윗": 10202,
      "윙": 10203,
      "유": 10204,
      "육": 10205,
      "윤": 10206,
      "율": 10207,
      "융": 10208,
      "으": 10209,
      "윽": 10210,
      "은": 10211,
      "을": 10212,
      "음": 10213,
      "읍": 10214,
      "응": 10215,
      "의": 10216,
      "이": 10217,
      "익": 10218,
      "인": 10219,
      "일": 10220,
      "읽": 10221,
      "잃": 10222,
      "임": 10223,
      "입": 10224,
      "잇": 10225,
      "있": 10226,
      "잉": 10227,
      "잊": 10228,
      "자": 10229,
      "작": 10230,
      "잔": 10231,
      "잖": 10232,
      "잘": 10233,
      "잠": 10234,
      "잡": 10235,
      "장": 10236,
      "재": 10237,
      "잿": 10238,
      "쟁": 10239,
      "저": 10240,
      "적": 10241,
      "전": 10242,
      "절": 10243,
      "젊": 10244,
      "점": 10245,
      "접": 10246,
      "정": 10247,
      "젖": 10248,
      "제": 10249,
      "젝": 10250,
      "젠": 10251,
      "젱": 10252,
      "져": 10253,
      "젼": 10254,
      "졌": 10255,
      "조": 10256,
      "족": 10257,
      "존": 10258,
      "졸": 10259,
      "좀": 10260,
      "좁": 10261,
      "종": 10262,
      "좋": 10263,
      "좌": 10264,
      "죄": 10265,
      "주": 10266,
      "죽": 10267,
      "준": 10268,
      "줄": 10269,
      "중": 10270,
      "쥐": 10271,
      "쥔": 10272,
      "쥬": 10273,
      "쥴": 10274,
      "즈": 10275,
      "즉": 10276,
      "즌": 10277,
      "즐": 10278,
      "즘": 10279,
      "증": 10280,
      "지": 10281,
      "직": 10282,
      "진": 10283,
      "질": 10284,
      "짐": 10285,
      "집": 10286,
      "짓": 10287,
      "징": 10288,
      "짖": 10289,
      "짜": 10290,
      "짝": 10291,
      "짧": 10292,
      "짰": 10293,
      "째": 10294,
      "쨌": 10295,
      "쨍": 10296,
      "쩌": 10297,
      "쩔": 10298,
      "쪽": 10299,
      "쫓": 10300,
      "찌": 10301,
      "찍": 10302,
      "찔": 10303,
      "찢": 10304,
      "차": 10305,
      "착": 10306,
      "찬": 10307,
      "찮": 10308,
      "찰": 10309,
      "참": 10310,
      "창": 10311,
      "찾": 10312,
      "채": 10313,
      "책": 10314,
      "챈": 10315,
      "챔": 10316,
      "처": 10317,
      "척": 10318,
      "천": 10319,
      "철": 10320,
      "첨": 10321,
      "첩": 10322,
      "첫": 10323,
      "청": 10324,
      "체": 10325,
      "첸": 10326,
      "첼": 10327,
      "쳐": 10328,
      "쳤": 10329,
      "초": 10330,
      "촉": 10331,
      "촌": 10332,
      "총": 10333,
      "촬": 10334,
      "최": 10335,
      "추": 10336,
      "축": 10337,
      "춘": 10338,
      "출": 10339,
      "춤": 10340,
      "충": 10341,
      "춰": 10342,
      "췌": 10343,
      "취": 10344,
      "츠": 10345,
      "측": 10346,
      "츰": 10347,
      "층": 10348,
      "치": 10349,
      "칙": 10350,
      "친": 10351,
      "칠": 10352,
      "침": 10353,
      "칫": 10354,
      "칭": 10355,
      "카": 10356,
      "칸": 10357,
      "칼": 10358,
      "캄": 10359,
      "캐": 10360,
      "캔": 10361,
      "캘": 10362,
      "캠": 10363,
      "커": 10364,
      "컨": 10365,
      "컬": 10366,
      "컵": 10367,
      "컷": 10368,
      "컸": 10369,
      "케": 10370,
      "켄": 10371,
      "켈": 10372,
      "켓": 10373,
      "켜": 10374,
      "켰": 10375,
      "코": 10376,
      "콘": 10377,
      "콜": 10378,
      "콩": 10379,
      "콰": 10380,
      "쾌": 10381,
      "쾨": 10382,
      "쿄": 10383,
      "쿠": 10384,
      "쿨": 10385,
      "쿰": 10386,
      "퀘": 10387,
      "퀴": 10388,
      "퀼": 10389,
      "큐": 10390,
      "큔": 10391,
      "크": 10392,
      "큰": 10393,
      "클": 10394,
      "큼": 10395,
      "킁": 10396,
      "키": 10397,
      "킥": 10398,
      "킨": 10399,
      "킬": 10400,
      "킴": 10401,
      "타": 10402,
      "탁": 10403,
      "탄": 10404,
      "탈": 10405,
      "탐": 10406,
      "탑": 10407,
      "탕": 10408,
      "태": 10409,
      "택": 10410,
      "탱": 10411,
      "터": 10412,
      "턴": 10413,
      "텁": 10414,
      "텃": 10415,
      "테": 10416,
      "텍": 10417,
      "텐": 10418,
      "텔": 10419,
      "템": 10420,
      "텨": 10421,
      "토": 10422,
      "톤": 10423,
      "톨": 10424,
      "톰": 10425,
      "톱": 10426,
      "통": 10427,
      "퇴": 10428,
      "투": 10429,
      "툼": 10430,
      "퉁": 10431,
      "튀": 10432,
      "튠": 10433,
      "트": 10434,
      "특": 10435,
      "튼": 10436,
      "틀": 10437,
      "틈": 10438,
      "티": 10439,
      "틱": 10440,
      "틴": 10441,
      "틸": 10442,
      "팀": 10443,
      "팅": 10444,
      "파": 10445,
      "판": 10446,
      "팔": 10447,
      "팡": 10448,
      "패": 10449,
      "팩": 10450,
      "팬": 10451,
      "팽": 10452,
      "퍼": 10453,
      "펀": 10454,
      "페": 10455,
      "펜": 10456,
      "펠": 10457,
      "편": 10458,
      "펼": 10459,
      "폈": 10460,
      "평": 10461,
      "폐": 10462,
      "포": 10463,
      "폭": 10464,
      "폰": 10465,
      "폴": 10466,
      "표": 10467,
      "푸": 10468,
      "푼": 10469,
      "풀": 10470,
      "품": 10471,
      "풍": 10472,
      "퓌": 10473,
      "퓨": 10474,
      "프": 10475,
      "픈": 10476,
      "플": 10477,
      "픔": 10478,
      "피": 10479,
      "픽": 10480,
      "핀": 10481,
      "필": 10482,
      "핍": 10483,
      "핏": 10484,
      "핑": 10485,
      "하": 10486,
      "학": 10487,
      "한": 10488,
      "할": 10489,
      "함": 10490,
      "합": 10491,
      "핫": 10492,
      "항": 10493,
      "해": 10494,
      "핵": 10495,
      "핸": 10496,
      "햄": 10497,
      "햇": 10498,
      "했": 10499,
      "행": 10500,
      "향": 10501,
      "허": 10502,
      "헌": 10503,
      "헐": 10504,
      "험": 10505,
      "헛": 10506,
      "헤": 10507,
      "헨": 10508,
      "헬": 10509,
      "헷": 10510,
      "혀": 10511,
      "혁": 10512,
      "현": 10513,
      "혈": 10514,
      "협": 10515,
      "혓": 10516,
      "혔": 10517,
      "형": 10518,
      "혜": 10519,
      "호": 10520,
      "혹": 10521,
      "혼": 10522,
      "홀": 10523,
      "홈": 10524,
      "홉": 10525,
      "홋": 10526,
      "홍": 10527,
      "화": 10528,
      "확": 10529,
      "환": 10530,
      "활": 10531,
      "황": 10532,
      "회": 10533,
      "획": 10534,
      "횡": 10535,
      "효": 10536,
      "후": 10537,
      "훈": 10538,
      "훌": 10539,
      "훔": 10540,
      "훗": 10541,
      "훤": 10542,
      "훼": 10543,
      "휘": 10544,
      "휩": 10545,
      "휴": 10546,
      "흉": 10547,
      "흐": 10548,
      "흑": 10549,
      "흔": 10550,
      "흘": 10551,
      "흙": 10552,
      "흠": 10553,
      "흡": 10554,
      "흥": 10555,
      "흩": 10556,
      "희": 10557,
      "흰": 10558,
      "히": 10559,
      "힌": 10560,
      "힐": 10561,
      "힘": 10562,
      "": 10563,
      "": 10564,
      "": 10565,
      "": 10566,
      "": 10567,
      "": 10568,
      "": 10569,
      "": 10570,
      "": 10571,
      "": 10572,
      "": 10573,
      "": 10574,
      "": 10575,
      "ﬁ": 10576,
      "ﬂ": 10577,
      "ﭔ": 10578,
      "ﭖ": 10579,
      "ﭗ": 10580,
      "ﭘ": 10581,
      "ﭙ": 10582,
      "ﭜ": 10583,
      "ﭝ": 10584,
      "ﭞ": 10585,
      "ﭠ": 10586,
      "ﭡ": 10587,
      "ﭤ": 10588,
      "ﭥ": 10589,
      "ﭧ": 10590,
      "ﭲ": 10591,
      "ﭳ": 10592,
      "ﭵ": 10593,
      "ﭸ": 10594,
      "ﭺ": 10595,
      "ﭼ": 10596,
      "ﭽ": 10597,
      "ﮀ": 10598,
      "ﮂ": 10599,
      "ﮃ": 10600,
      "ﮄ": 10601,
      "ﮅ": 10602,
      "ﮊ": 10603,
      "ﮎ": 10604,
      "ﮐ": 10605,
      "ﮑ": 10606,
      "ﮓ": 10607,
      "ﮔ": 10608,
      "ﮕ": 10609,
      "ﮖ": 10610,
      "ﮘ": 10611,
      "ﮙ": 10612,
      "ﮠ": 10613,
      "ﮡ": 10614,
      "ﮢ": 10615,
      "ﮣ": 10616,
      "ﮨ": 10617,
      "ﮩ": 10618,
      "ﮪ": 10619,
      "ﮫ": 10620,
      "ﮬ": 10621,
      "ﮭ": 10622,
      "ﮯ": 10623,
      "ﯓ": 10624,
      "ﯔ": 10625,
      "ﯕ": 10626,
      "ﯖ": 10627,
      "ﯗ": 10628,
      "ﯘ": 10629,
      "ﯚ": 10630,
      "ﯛ": 10631,
      "ﯜ": 10632,
      "ﯞ": 10633,
      "ﯟ": 10634,
      "ﯤ": 10635,
      "ﯥ": 10636,
      "ﯦ": 10637,
      "ﯧ": 10638,
      "ﯨ": 10639,
      "ﯩ": 10640,
      "ﯼ": 10641,
      "ﯽ": 10642,
      "ﯾ": 10643,
      "ﯿ": 10644,
      "ﷲ": 10645,
      "ﷺ": 10646,
      "︰": 10647,
      "﹑": 10648,
      "﹕": 10649,
      "﹖": 10650,
      "﹗": 10651,
      "﹝": 10652,
      "﹞": 10653,
      "﹪": 10654,
      "ﺀ": 10655,
      "ﺁ": 10656,
      "ﺃ": 10657,
      "ﺅ": 10658,
      "ﺆ": 10659,
      "ﺇ": 10660,
      "ﺋ": 10661,
      "ﺌ": 10662,
      "ﺍ": 10663,
      "ﺎ": 10664,
      "ﺏ": 10665,
      "ﺐ": 10666,
      "ﺑ": 10667,
      "ﺒ": 10668,
      "ﺓ": 10669,
      "ﺔ": 10670,
      "ﺕ": 10671,
      "ﺖ": 10672,
      "ﺗ": 10673,
      "ﺘ": 10674,
      "ﺜ": 10675,
      "ﺝ": 10676,
      "ﺞ": 10677,
      "ﺟ": 10678,
      "ﺠ": 10679,
      "ﺡ": 10680,
      "ﺢ": 10681,
      "ﺣ": 10682,
      "ﺤ": 10683,
      "ﺦ": 10684,
      "ﺧ": 10685,
      "ﺨ": 10686,
      "ﺩ": 10687,
      "ﺪ": 10688,
      "ﺫ": 10689,
      "ﺬ": 10690,
      "ﺭ": 10691,
      "ﺮ": 10692,
      "ﺯ": 10693,
      "ﺰ": 10694,
      "ﺱ": 10695,
      "ﺲ": 10696,
      "ﺳ": 10697,
      "ﺴ": 10698,
      "ﺵ": 10699,
      "ﺶ": 10700,
      "ﺷ": 10701,
      "ﺸ": 10702,
      "ﺻ": 10703,
      "ﺼ": 10704,
      "ﺿ": 10705,
      "ﻀ": 10706,
      "ﻃ": 10707,
      "ﻄ": 10708,
      "ﻇ": 10709,
      "ﻈ": 10710,
      "ﻉ": 10711,
      "ﻋ": 10712,
      "ﻌ": 10713,
      "ﻏ": 10714,
      "ﻐ": 10715,
      "ﻑ": 10716,
      "ﻒ": 10717,
      "ﻓ": 10718,
      "ﻔ": 10719,
      "ﻕ": 10720,
      "ﻖ": 10721,
      "ﻗ": 10722,
      "ﻘ": 10723,
      "ﻙ": 10724,
      "ﻚ": 10725,
      "ﻛ": 10726,
      "ﻜ": 10727,
      "ﻝ": 10728,
      "ﻞ": 10729,
      "ﻟ": 10730,
      "ﻠ": 10731,
      "ﻡ": 10732,
      "ﻢ": 10733,
      "ﻣ": 10734,
      "ﻤ": 10735,
      "ﻥ": 10736,
      "ﻦ": 10737,
      "ﻧ": 10738,
      "ﻨ": 10739,
      "ﻩ": 10740,
      "ﻪ": 10741,
      "ﻫ": 10742,
      "ﻬ": 10743,
      "ﻭ": 10744,
      "ﻮ": 10745,
      "ﻯ": 10746,
      "ﻰ": 10747,
      "ﻱ": 10748,
      "ﻲ": 10749,
      "ﻳ": 10750,
      "ﻴ": 10751,
      "ﻻ": 10752,
      "ﻼ": 10753,
      "﻿": 10754,
      "！": 10755,
      "＄": 10756,
      "％": 10757,
      "＆": 10758,
      "（": 10759,
      "）": 10760,
      "＋": 10761,
      "，": 10762,
      "－": 10763,
      "．": 10764,
      "／": 10765,
      "２": 10766,
      "８": 10767,
      "９": 10768,
      "：": 10769,
      "；": 10770,
      "＜": 10771,
      "＝": 10772,
      "＞": 10773,
      "？": 10774,
      "Ｊ": 10775,
      "［": 10776,
      "］": 10777,
      "ｍ": 10778,
      "｜": 10779,
      "～": 10780,
      "､": 10781,
      "￼": 10782,
      "�": 10783,
      "𐎢": 10784,
      "𐎤": 10785,
      "𐎽": 10786,
      "𐏁": 10787,
      "🇴": 10788,
      "🇸": 10789,
      "😎": 10790,
      "𠀧": 10791,
      "𠐤": 10792,
      "𡅏": 10793,
      "𡍲": 10794,
      "𡒉": 10795,
      "𢍰": 10796,
      "𢙯": 10797,
      "𣍐": 10798,
      "𣗬": 10799,
      "𣴓": 10800,
      "𧙗": 10801,
      "𧣾": 10802,
      "𧨳": 10803,
      "𧰵": 10804,
      "𧼱": 10805,
      "𧾎": 10806,
      "𨮁": 10807,
      "􏰀": 10808,
      "an": 10809,
      "en": 10810,
      "in": 10811,
      "er": 10812,
      "ar": 10813,
      "al": 10814,
      "on": 10815,
      "de": 10816,
      "at": 10817,
      "st": 10818,
      "ch": 10819,
      "as": 10820,
      "or": 10821,
      "di": 10822,
      "un": 10823,
      "is": 10824,
      "es": 10825,
      "it": 10826,
      "el": 10827,
      "am": 10828,
      "et": 10829,
      "il": 10830,
      "la": 10831,
      "da": 10832,
      "ur": 10833,
      "om": 10834,
      "ol": 10835,
      "re": 10836,
      "ra": 10837,
      "ka": 10838,
      "na": 10839,
      "ri": 10840,
      "ti": 10841,
      "te": 10842,
      "li": 10843,
      "os": 10844,
      "ан": 10845,
      "ta": 10846,
      "le": 10847,
      "us": 10848,
      "ng": 10849,
      "ro": 10850,
      "ma": 10851,
      "ар": 10852,
      "19": 10853,
      "se": 10854,
      "ha": 10855,
      "si": 10856,
      "he": 10857,
      "ba": 10858,
      "um": 10859,
      "ang": 10860,
      "ci": 10861,
      "sa": 10862,
      "wa": 10863,
      "ki": 10864,
      "ал": 10865,
      "ya": 10866,
      "to": 10867,
      "ga": 10868,
      "em": 10869,
      "ul": 10870,
      "ni": 10871,
      "do": 10872,
      "ko": 10873,
      "ir": 10874,
      "ان": 10875,
      "ke": 10876,
      "00": 10877,
      "je": 10878,
      "ال": 10879,
      "ne": 10880,
      "ing": 10881,
      "ku": 10882,
      "ст": 10883,
      "на": 10884,
      "im": 10885,
      "pa": 10886,
      "ed": 10887,
      "ia": 10888,
      "ен": 10889,
      "ut": 10890,
      "po": 10891,
      "ent": 10892,
      "ja": 10893,
      "ер": 10894,
      "ca": 10895,
      "no": 10896,
      "va": 10897,
      "qu": 10898,
      "он": 10899,
      "ат": 10900,
      "bi": 10901,
      "ار": 10902,
      "and": 10903,
      "me": 10904,
      "ин": 10905,
      "ор": 10906,
      "hi": 10907,
      "lo": 10908,
      "да": 10909,
      "ad": 10910,
      "ge": 10911,
      "gi": 10912,
      "su": 10913,
      "go": 10914,
      "id": 10915,
      "ara": 10916,
      "ve": 10917,
      "ол": 10918,
      "zi": 10919,
      "ын": 10920,
      "्य": 10921,
      "ana": 10922,
      "be": 10923,
      "ter": 10924,
      "vi": 10925,
      "ра": 10926,
      "ati": 10927,
      "pi": 10928,
      "du": 10929,
      "est": 10930,
      "ak": 10931,
      "per": 10932,
      "mo": 10933,
      "ho": 10934,
      "्र": 10935,
      "ari": 10936,
      "tu": 10937,
      "bo": 10938,
      "ru": 10939,
      "ов": 10940,
      "pe": 10941,
      "so": 10942,
      "ка": 10943,
      "ла": 10944,
      "ver": 10945,
      "we": 10946,
      "ay": 10947,
      "ce": 10948,
      "pr": 10949,
      "ali": 10950,
      "mi": 10951,
      "der": 10952,
      "gu": 10953,
      "20": 10954,
      "ek": 10955,
      "ant": 10956,
      "za": 10957,
      ").": 10958,
      "200": 10959,
      "),": 10960,
      "ala": 10961,
      "18": 10962,
      "den": 10963,
      "ik": 10964,
      "co": 10965,
      "ina": 10966,
      "par": 10967,
      "yn": 10968,
      "lu": 10969,
      "ай": 10970,
      "bu": 10971,
      "ini": 10972,
      "vo": 10973,
      "ran": 10974,
      "con": 10975,
      "ber": 10976,
      "fi": 10977,
      "ел": 10978,
      "ای": 10979,
      "og": 10980,
      "th": 10981,
      "ور": 10982,
      "pro": 10983,
      "ag": 10984,
      "kan": 10985,
      "man": 10986,
      "ون": 10987,
      "та": 10988,
      "ур": 10989,
      "of": 10990,
      "ार": 10991,
      "mu": 10992,
      "ил": 10993,
      "ма": 10994,
      "од": 10995,
      "ny": 10996,
      "the": 10997,
      "ie": 10998,
      "pu": 10999,
      "hu": 11000,
      "sta": 11001,
      "che": 11002,
      "ji": 11003,
      "van": 11004,
      "ju": 11005,
      "del": 11006,
      "ко": 11007,
      "cu": 11008,
      "dan": 11009,
      "ata": 11010,
      "men": 11011,
      "ит": 11012,
      "ye": 11013,
      "for": 11014,
      "op": 11015,
      "ре": 11016,
      "ва": 11017,
      "न्": 11018,
      "ig": 11019,
      "اس": 11020,
      "ab": 11021,
      "ot": 11022,
      "ия": 11023,
      "han": 11024,
      "ыл": 11025,
      "ات": 11026,
      "od": 11027,
      "ze": 11028,
      "In": 11029,
      "ine": 11030,
      "ong": 11031,
      "र्": 11032,
      "ул": 11033,
      "ий": 11034,
      "lan": 11035,
      "ет": 11036,
      "201": 11037,
      "por": 11038,
      "ام": 11039,
      "ili": 11040,
      "га": 11041,
      "эр": 11042,
      "ani": 11043,
      "но": 11044,
      "གས": 11045,
      "за": 11046,
      "ama": 11047,
      "स्": 11048,
      "са": 11049,
      "fa": 11050,
      "com": 11051,
      "chi": 11052,
      "का": 11053,
      "yo": 11054,
      "eri": 11055,
      "que": 11056,
      "gen": 11057,
      "ول": 11058,
      "от": 11059,
      "ик": 11060,
      "сь": 11061,
      "lar": 11062,
      "मा": 11063,
      "au": 11064,
      "nu": 11065,
      "tr": 11066,
      "ten": 11067,
      "ist": 11068,
      "ale": 11069,
      "ts": 11070,
      "འི": 11071,
      "या": 11072,
      "iti": 11073,
      "ун": 11074,
      "ah": 11075,
      "्या": 11076,
      "jo": 11077,
      "ere": 11078,
      "ск": 11079,
      "ба": 11080,
      "ın": 11081,
      "ны": 11082,
      "des": 11083,
      "لى": 11084,
      "ung": 11085,
      "ate": 11086,
      "ap": 11087,
      "دا": 11088,
      "ला": 11089,
      "ир": 11090,
      "ем": 11091,
      "ok": 11092,
      "ین": 11093,
      "sch": 11094,
      "ste": 11095,
      "او": 11096,
      "sk": 11097,
      "ic": 11098,
      "una": 11099,
      "ро": 11100,
      "ды": 11101,
      "199": 11102,
      "kon": 11103,
      "रा": 11104,
      "ди": 11105,
      "eng": 11106,
      "ना": 11107,
      "av": 11108,
      "die": 11109,
      "17": 11110,
      "ele": 11111,
      "are": 11112,
      "und": 11113,
      "iz": 11114,
      "के": 11115,
      "An": 11116,
      "ست": 11117,
      "को": 11118,
      "င်": 11119,
      "int": 11120,
      "era": 11121,
      "wo": 11122,
      "ྱི": 11123,
      "эн": 11124,
      "las": 11125,
      "af": 11126,
      "eg": 11127,
      "не": 11128,
      "ом": 11129,
      "15": 11130,
      "10": 11131,
      "се": 11132,
      "wan": 11133,
      "دی": 11134,
      "ac": 11135,
      "য়": 11136,
      "wi": 11137,
      "ben": 11138,
      "ու": 11139,
      "gh": 11140,
      "res": 11141,
      "ты": 11142,
      "sen": 11143,
      "olo": 11144,
      "ud": 11145,
      "mar": 11146,
      "gan": 11147,
      "all": 11148,
      "De": 11149,
      "ob": 11150,
      "son": 11151,
      "16": 11152,
      "де": 11153,
      "къ": 11154,
      "го": 11155,
      "isi": 11156,
      "sti": 11157,
      "ति": 11158,
      "ys": 11159,
      "asi": 11160,
      "ို": 11161,
      "ven": 11162,
      "им": 11163,
      "ation": 11164,
      "rit": 11165,
      "met": 11166,
      "ता": 11167,
      "ori": 11168,
      "les": 11169,
      "во": 11170,
      "ার": 11171,
      "प्र": 11172,
      "را": 11173,
      "La": 11174,
      "kom": 11175,
      "tra": 11176,
      "ара": 11177,
      "Al": 11178,
      "nga": 11179,
      "sh": 11180,
      "tur": 11181,
      "वा": 11182,
      "one": 11183,
      "در": 11184,
      "asa": 11185,
      "ou": 11186,
      "क्": 11187,
      "pan": 11188,
      "гъ": 11189,
      "نى": 11190,
      "្រ": 11191,
      "वि": 11192,
      "ón": 11193,
      "gr": 11194,
      "ai": 11195,
      "ек": 11196,
      "می": 11197,
      "pri": 11198,
      "मे": 11199,
      "ни": 11200,
      "Ch": 11201,
      "ken": 11202,
      "fe": 11203,
      "ން": 11204,
      "pre": 11205,
      "то": 11206,
      "oni": 11207,
      "fu": 11208,
      "ser": 11209,
      "ис": 11210,
      "ban": 11211,
      "12": 11212,
      "ela": 11213,
      "из": 11214,
      "ين": 11215,
      "km": 11216,
      "yr": 11217,
      "یا": 11218,
      "ку": 11219,
      "tan": 11220,
      "dal": 11221,
      "ने": 11222,
      "dr": 11223,
      "по": 11224,
      "uk": 11225,
      "ರ್": 11226,
      "14": 11227,
      "ತ್": 11228,
      "ile": 11229,
      "mer": 11230,
      "mas": 11231,
      "zo": 11232,
      "ins": 11233,
      "str": 11234,
      "ell": 11235,
      "by": 11236,
      "ann": 11237,
      "198": 11238,
      "бу": 11239,
      "བས": 11240,
      "ան": 11241,
      "ед": 11242,
      "با": 11243,
      "ის": 11244,
      "ene": 11245,
      "var": 11246,
      "kar": 11247,
      "नि": 11248,
      "yi": 11249,
      "ले": 11250,
      "ান": 11251,
      "لە": 11252,
      "uni": 11253,
      "tor": 11254,
      "pol": 11255,
      "pl": 11256,
      "ыр": 11257,
      "ده": 11258,
      "13": 11259,
      "ita": 11260,
      "ым": 11261,
      "सा": 11262,
      "val": 11263,
      "эм": 11264,
      "Ar": 11265,
      "Re": 11266,
      "ill": 11267,
      "па": 11268,
      "är": 11269,
      "min": 11270,
      "Le": 11271,
      "ру": 11272,
      "ers": 11273,
      "त्": 11274,
      "من": 11275,
      "لا": 11276,
      "ck": 11277,
      "ری": 11278,
      "Mar": 11279,
      "ོད": 11280,
      "eli": 11281,
      "རྒ": 11282,
      "vu": 11283,
      "197": 11284,
      "fo": 11285,
      "mat": 11286,
      "رو": 11287,
      "yu": 11288,
      "ard": 11289,
      "br": 11290,
      "ന്": 11291,
      "ಲ್": 11292,
      "ав": 11293,
      "ައ": 11294,
      "ua": 11295,
      "fr": 11296,
      "تا": 11297,
      "ore": 11298,
      "sin": 11299,
      "yan": 11300,
      "पा": 11301,
      "dia": 11302,
      "196": 11303,
      "ona": 11304,
      "ನ್": 11305,
      "II": 11306,
      "ov": 11307,
      "རྒྱ": 11308,
      "था": 11309,
      "ри": 11310,
      "ph": 11311,
      "ach": 11312,
      "ast": 11313,
      "کی": 11314,
      "bli": 11315,
      "ly": 11316,
      "ما": 11317,
      "ex": 11318,
      "isch": 11319,
      "bar": 11320,
      "ან": 11321,
      "ish": 11322,
      "ха": 11323,
      "ော": 11324,
      "az": 11325,
      "nan": 11326,
      "194": 11327,
      "ite": 11328,
      "ura": 11329,
      "land": 11330,
      "bil": 11331,
      "pen": 11332,
      "itu": 11333,
      "те": 11334,
      "dis": 11335,
      "وا": 11336,
      "fer": 11337,
      "tem": 11338,
      "än": 11339,
      "со": 11340,
      "atu": 11341,
      "ord": 11342,
      "és": 11343,
      "ху": 11344,
      "ons": 11345,
      "དང": 11346,
      "до": 11347,
      "tal": 11348,
      "эл": 11349,
      "وم": 11350,
      "ente": 11351,
      "དུ": 11352,
      "up": 11353,
      "त्र": 11354,
      "بی": 11355,
      "har": 11356,
      "ту": 11357,
      "bin": 11358,
      "න්": 11359,
      "لی": 11360,
      "ند": 11361,
      "ча": 11362,
      "არ": 11363,
      "Ma": 11364,
      "eta": 11365,
      "су": 11366,
      "Se": 11367,
      "ала": 11368,
      "jen": 11369,
      "000": 11370,
      "tar": 11371,
      "بر": 11372,
      "til": 11373,
      "ora": 11374,
      "én": 11375,
      "το": 11376,
      "ти": 11377,
      "ത്": 11378,
      "ес": 11379,
      "án": 11380,
      "uri": 11381,
      "cha": 11382,
      "ער": 11383,
      "ind": 11384,
      "30": 11385,
      "म्": 11386,
      "zu": 11387,
      "dat": 11388,
      "can": 11389,
      "ана": 11390,
      "ыш": 11391,
      "oli": 11392,
      "ei": 11393,
      "195": 11394,
      "25": 11395,
      "ུང": 11396,
      "्व": 11397,
      "ks": 11398,
      "esi": 11399,
      "бол": 11400,
      "ket": 11401,
      "qa": 11402,
      "kas": 11403,
      "ug": 11404,
      "ەر": 11405,
      "yon": 11406,
      "ler": 11407,
      "ته": 11408,
      "जा": 11409,
      "ок": 11410,
      "به": 11411,
      "ည်": 11412,
      "்க": 11413,
      "ли": 11414,
      "сы": 11415,
      "ato": 11416,
      "ме": 11417,
      "ero": 11418,
      "cht": 11419,
      "ami": 11420,
      "los": 11421,
      "ef": 11422,
      "པའི": 11423,
      "سا": 11424,
      "ör": 11425,
      "ಕ್": 11426,
      "11": 11427,
      "से": 11428,
      "تر": 11429,
      "ole": 11430,
      "ans": 11431,
      "хь": 11432,
      "دى": 11433,
      "isa": 11434,
      "ары": 11435,
      "ებ": 11436,
      "ог": 11437,
      "The": 11438,
      "ty": 11439,
      "ист": 11440,
      "ლი": 11441,
      "sp": 11442,
      "Di": 11443,
      "bir": 11444,
      "יי": 11445,
      "له": 11446,
      "په": 11447,
      "جي": 11448,
      "্য": 11449,
      "ens": 11450,
      "En": 11451,
      "gn": 11452,
      "tin": 11453,
      "བྱ": 11454,
      "fin": 11455,
      "سی": 11456,
      "Li": 11457,
      "ам": 11458,
      "cia": 11459,
      "kun": 11460,
      "ки": 11461,
      "het": 11462,
      "sto": 11463,
      "ིན": 11464,
      "pat": 11465,
      "सं": 11466,
      "dir": 11467,
      "ос": 11468,
      "लि": 11469,
      "हा": 11470,
      "Am": 11471,
      "نه": 11472,
      "gra": 11473,
      "të": 11474,
      "din": 11475,
      "fil": 11476,
      "eb": 11477,
      "Sa": 11478,
      "dy": 11479,
      "ев": 11480,
      "ക്": 11481,
      "kat": 11482,
      "ོན": 11483,
      "Fran": 11484,
      "ري": 11485,
      "pas": 11486,
      "sy": 11487,
      "ци": 11488,
      "eti": 11489,
      "St": 11490,
      "དེ": 11491,
      "ren": 11492,
      "sc": 11493,
      "رى": 11494,
      "об": 11495,
      "بو": 11496,
      "ား": 11497,
      "ez": 11498,
      "ow": 11499,
      "قى": 11500,
      "vin": 11501,
      "war": 11502,
      "دو": 11503,
      "kr": 11504,
      "تى": 11505,
      "oo": 11506,
      "mit": 11507,
      "fam": 11508,
      "ވެ": 11509,
      "му": 11510,
      "El": 11511,
      "anga": 11512,
      "ык": 11513,
      "mon": 11514,
      "ila": 11515,
      "stu": 11516,
      "bre": 11517,
      "ton": 11518,
      "ад": 11519,
      "Na": 11520,
      "пу": 11521,
      "cun": 11522,
      "که": 11523,
      "pos": 11524,
      "kin": 11525,
      "ker": 11526,
      "sam": 11527,
      "يا": 11528,
      "ོང": 11529,
      "ती": 11530,
      "hen": 11531,
      "ره": 11532,
      "24": 11533,
      "ess": 11534,
      "bat": 11535,
      "ནས": 11536,
      "пр": 11537,
      "ger": 11538,
      "äl": 11539,
      "եր": 11540,
      "ise": 11541,
      "гу": 11542,
      "yang": 11543,
      "ski": 11544,
      "نی": 11545,
      "က်": 11546,
      "mal": 11547,
      "ano": 11548,
      "बा": 11549,
      "்த": 11550,
      "ದ್": 11551,
      "үн": 11552,
      "vol": 11553,
      "भा": 11554,
      "wer": 11555,
      "her": 11556,
      "نا": 11557,
      "Ang": 11558,
      "नी": 11559,
      "bas": 11560,
      "tt": 11561,
      "mun": 11562,
      "मि": 11563,
      "ся": 11564,
      "وی": 11565,
      "oma": 11566,
      "ган": 11567,
      "ду": 11568,
      "ич": 11569,
      "bit": 11570,
      "mil": 11571,
      "lat": 11572,
      "يو": 11573,
      "Su": 11574,
      "193": 11575,
      "èn": 11576,
      "kal": 11577,
      "..": 11578,
      "ак": 11579,
      "ман": 11580,
      "دە": 11581,
      "में": 11582,
      "ཀྱི": 11583,
      "ាន": 11584,
      "эх": 11585,
      "ün": 11586,
      "bol": 11587,
      "ம்": 11588,
      "inn": 11589,
      "gar": 11590,
      "дж": 11591,
      "pal": 11592,
      "क्ष": 11593,
      "лу": 11594,
      "कर": 11595,
      "ते": 11596,
      "Ro": 11597,
      "cal": 11598,
      "ིག": 11599,
      "الم": 11600,
      "མས": 11601,
      "pres": 11602,
      "dh": 11603,
      "som": 11604,
      "ble": 11605,
[...]
