{
  "version": "1.0",
  "truncation": null,
  "padding": null,
  "added_tokens": [
    {
      "id": 0,
      "content": "<UNK>",
      "single_word": false,
      "lstrip": false,
      "rstrip": false,
      "normalized": false,
      "special": true
    },
    {
      "id": 1,
      "content": "<SEP>",
      "single_word": false,
      "lstrip": false,
      "rstrip": false,
      "normalized": false,
      "special": true
    },
    {
      "id": 2,
      "content": "<MASK>",
      "single_word": false,
      "lstrip": false,
      "rstrip": false,
      "normalized": false,
      "special": true
    },
    {
      "id": 3,
      "content": "<CLS>",
      "single_word": false,
      "lstrip": false,
      "rstrip": false,
      "normalized": false,
      "special": true
    }
  ],
  "normalizer": null,
  "pre_tokenizer": {
    "type": "Whitespace"
  },
  "post_processor": null,
  "decoder": null,
  "model": {
    "type": "BPE",
    "dropout": null,
    "unk_token": "<UNK>",
    "continuing_subword_prefix": null,
    "end_of_word_suffix": null,
    "fuse_unk": false,
    "byte_fallback": false,
    "vocab": {
      "<UNK>": 0,
      "<SEP>": 1,
      "<MASK>": 2,
      "<CLS>": 3,
      "!": 4,
      "\"": 5,
      "#": 6,
      "$": 7,
      "%": 8,
      "&": 9,
      "'": 10,
      "(": 11,
      ")": 12,
      "*": 13,
      "+": 14,
      ",": 15,
      "-": 16,
      ".": 17,
      "/": 18,
      "0": 19,
      "1": 20,
      "2": 21,
      "3": 22,
      "4": 23,
      "5": 24,
      "6": 25,
      "7": 26,
      "8": 27,
      "9": 28,
      ":": 29,
      ";": 30,
      "=": 31,
      ">": 32,
      "?": 33,
      "A": 34,
      "B": 35,
      "C": 36,
      "D": 37,
      "E": 38,
      "F": 39,
      "G": 40,
      "H": 41,
      "I": 42,
      "J": 43,
      "K": 44,
      "L": 45,
      "M": 46,
      "N": 47,
      "O": 48,
      "P": 49,
      "Q": 50,
      "R": 51,
      "S": 52,
      "T": 53,
      "U": 54,
      "V": 55,
      "W": 56,
      "X": 57,
      "Y": 58,
      "Z": 59,
      "[": 60,
      "]": 61,
      "`": 62,
      "a": 63,
      "b": 64,
      "c": 65,
      "d": 66,
      "e": 67,
      "f": 68,
      "g": 69,
      "h": 70,
      "i": 71,
      "j": 72,
      "k": 73,
      "l": 74,
      "m": 75,
      "n": 76,
      "o": 77,
      "p": 78,
      "q": 79,
      "r": 80,
      "s": 81,
      "t": 82,
      "u": 83,
      "v": 84,
      "w": 85,
      "x": 86,
      "y": 87,
      "z": 88,
      "|": 89,
      "": 90,
      "¢": 91,
      "£": 92,
      "«": 93,
      "°": 94,
      "²": 95,
      "»": 96,
      "À": 97,
      "Ä": 98,
      "Æ": 99,
      "Ç": 100,
      "É": 101,
      "Î": 102,
      "Ó": 103,
      "Ö": 104,
      "×": 105,
      "Ø": 106,
      "Ü": 107,
      "ß": 108,
      "à": 109,
      "á": 110,
      "â": 111,
      "ã": 112,
      "ä": 113,
      "å": 114,
      "æ": 115,
      "ç": 116,
      "è": 117,
      "é": 118,
      "ê": 119,
      "ë": 120,
      "í": 121,
      "î": 122,
      "ï": 123,
      "ñ": 124,
      "ò": 125,
      "ó": 126,
      "ô": 127,
      "ö": 128,
      "ø": 129,
      "ù": 130,
      "û": 131,
      "ü": 132,
      "ý": 133,
      "ā": 134,
      "ă": 135,
      "ą": 136,
      "Č": 137,
      "č": 138,
      "ē": 139,
      "ę": 140,
      "ī": 141,
      "ı": 142,
      "Ł": 143,
      "ł": 144,
      "ń": 145,
      "ņ": 146,
      "ň": 147,
      "Ō": 148,
      "ō": 149,
      "ő": 150,
      "Œ": 151,
      "œ": 152,
      "ř": 153,
      "ś": 154,
      "Ş": 155,
      "ş": 156,
      "Š": 157,
      "š": 158,
      "ū": 159,
      "ż": 160,
      "ț": 161,
      "ɔ": 162,
      "ɛ": 163,
      "ɪ": 164,
      "ɲ": 165,
      "ʁ": 166,
      "ʒ": 167,
      "ʲ": 168,
      "ʾ": 169,
      "ˈ": 170,
      "̃": 171,
      "̯": 172,
      "͡": 173,
      "Γ": 174,
      "Κ": 175,
      "έ": 176,
      "ή": 177,
      "ί": 178,
      "α": 179,
      "β": 180,
      "ε": 181,
      "ι": 182,
      "λ": 183,
      "ν": 184,
      "ο": 185,
      "π": 186,
      "ς": 187,
      "σ": 188,
      "τ": 189,
      "φ": 190,
      "І": 191,
      "Ї": 192,
      "А": 193,
      "Б": 194,
      "В": 195,
      "Г": 196,
      "И": 197,
      "К": 198,
      "Н": 199,
      "О": 200,
      "Р": 201,
      "С": 202,
      "Т": 203,
      "У": 204,
      "Ш": 205,
      "Ь": 206,
      "а": 207,
      "в": 208,
      "д": 209,
      "е": 210,
      "и": 211,
      "й": 212,
      "к": 213,
      "л": 214,
      "н": 215,
      "о": 216,
      "п": 217,
      "р": 218,
      "с": 219,
      "т": 220,
      "у": 221,
      "ц": 222,
      "ы": 223,
      "ь": 224,
      "я": 225,
      "ё": 226,
      "Ґ": 227,
      "א": 228,
      "ו": 229,
      "כ": 230,
      "ל": 231,
      "ש": 232,
      "ا": 233,
      "ح": 234,
      "د": 235,
      "ر": 236,
      "ز": 237,
      "س": 238,
      "ص": 239,
      "ع": 240,
      "ك": 241,
      "ل": 242,
      "م": 243,
      "و": 244,
      "ي": 245,
      "ہ": 246,
      "ی": 247,
      "क": 248,
      "द": 249,
      "न": 250,
      "प": 251,
      "म": 252,
      "र": 253,
      "ह": 254,
      "ा": 255,
      "ी": 256,
      "ु": 257,
      "्": 258,
      "ᑖ": 259,
      "ᑭ": 260,
      "ᒃ": 261,
      "ᓗ": 262,
      "ᕿ": 263,
      "ᖅ": 264,
      "ἀ": 265,
      "‎": 266,
      "‑": 267,
      "–": 268,
      "—": 269,
      "‘": 270,
      "’": 271,
      "‚": 272,
      "“": 273,
      "”": 274,
      "„": 275,
      "†": 276,
      "•": 277,
      "…": 278,
      "‬": 279,
      "′": 280,
      "⁄": 281,
      "€": 282,
      "ℝ": 283,
      "ℤ": 284,
      "→": 285,
      "↦": 286,
      "−": 287,
      "∞": 288,
      "あ": 289,
      "さ": 290,
      "ま": 291,
      "区": 292,
      "區": 293,
      "川": 294,
      "思": 295,
      "渭": 296,
      "滨": 297,
      "濱": 298,
      "駅": 299,
      "en": 300,
      "er": 301,
      "in": 302,
      "an": 303,
      "de": 304,
      "on": 305,
      "ch": 306,
      "es": 307,
      "is": 308,
      "ar": 309,
      "or": 310,
      "te": 311,
      "he": 312,
      "al": 313,
      "it": 314,
      "ie": 315,
      "re": 316,
      "at": 317,
      "un": 318,
      "le": 319,
      "ur": 320,
      "as": 321,
      "ge": 322,
      "st": 323,
      "der": 324,
      "et": 325,
      "the": 326,
      "ent": 327,
      "il": 328,
      "ion": 329,
      "el": 330,
      "au": 331,
      "ro": 332,
      "and": 333,
      "am": 334,
      "la": 335,
      "om": 336,
      "se": 337,
      "ing": 338,
      "to": 339,
      "ol": 340,
      "of": 341,
      "ic": 342,
      "ij": 343,
      "qu": 344,
      "ou": 345,
      "den": 346,
      "19": 347,
      "ver": 348,
      "ig": 349,
      "ich": 350,
      "ter": 351,
      "ra": 352,
      "van": 353,
      "us": 354,
      "ed": 355,
      "est": 356,
      "be": 357,
      "des": 358,
      "sch": 359,
      "im": 360,
      "th": 361,
      "op": 362,
      "und": 363,
      "ation": 364,
      "die": 365,
      "20": 366,
      "oor": 367,
      "ten": 368,
      "ce": 369,
      "ir": 370,
      "ve": 371,
      "me": 372,
      "ber": 373,
      "ne": 374,
      "ct": 375,
      "um": 376,
      "ier": 377,
      "wer": 378,
      "gen": 379,
      "du": 380,
      "ad": 381,
      "ein": 382,
      "een": 383,
      "par": 384,
      "het": 385,
      "ut": 386,
      "les": 387,
      "isch": 388,
      "pr": 389,
      "lo": 390,
      "con": 391,
      "for": 392,
      "ach": 393,
      "ist": 394,
      "id": 395,
      "In": 396,
      "ant": 397,
      "com": 398,
      "ment": 399,
      "we": 400,
      "hr": 401,
      "ab": 402,
      "ma": 403,
      "di": 404,
      "De": 405,
      "pro": 406,
      "ran": 407,
      "was": 408,
      "ers": 409,
      "ung": 410,
      "po": 411,
      "ul": 412,
      "ap": 413,
      "ke": 414,
      "St": 415,
      "ri": 416,
      "ain": 417,
      "als": 418,
      "af": 419,
      "ot": 420,
      "sp": 421,
      "ag": 422,
      "aar": 423,
      "von": 424,
      "ste": 425,
      "200": 426,
      "li": 427,
      "ru": 428,
      "que": 429,
      "ze": 430,
      "su": 431,
      "ac": 432,
      "ans": 433,
      "The": 434,
      "ly": 435,
      "res": 436,
      "ate": 437,
      "ont": 438,
      "ann": 439,
      "em": 440,
      "ci": 441,
      "voor": 442,
      "18": 443,
      "mo": 444,
      "rie": 445,
      "si": 446,
      "ré": 447,
      "une": 448,
      "201": 449,
      "Le": 450,
      "lu": 451,
      "ken": 452,
      "og": 453,
      "ts": 454,
      "na": 455,
      "ang": 456,
      "wh": 457,
      "ex": 458,
      "aus": 459,
      "war": 460,
      "ien": 461,
      "ass": 462,
      "uit": 463,
      "ire": 464,
      "ale": 465,
      "ow": 466,
      "dem": 467,
      "ort": 468,
      "met": 469,
      "pu": 470,
      "Sch": 471,
      "pl": 472,
      "aan": 473,
      "auf": 474,
      "pe": 475,
      "ite": 476,
      "lich": 477,
      "end": 478,
      "if": 479,
      "dé": 480,
      "ür": 481,
      "our": 482,
      "ine": 483,
      "ith": 484,
      "wur": 485,
      "wor": 486,
      "all": 487,
      "ck": 488,
      "zu": 489,
      "ijn": 490,
      "by": 491,
      "ay": 492,
      "sen": 493,
      "iv": 494,
      ").": 495,
      "mer": 496,
      "mit": 497,
      "ik": 498,
      "ies": 499,
      "gel": 500,
      "son": 501,
      "ischen": 502,
      "door": 503,
      "ll": 504,
      "ted": 505,
      "ces": 506,
      "ét": 507,
      "ah": 508,
      "pla": 509,
      "00": 510,
      "per": 511,
      "ges": 512,
      "lie": 513,
      "man": 514,
      "art": 515,
      "his": 516,
      "oo": 517,
      "An": 518,
      "with": 519,
      "men": 520,
      "ser": 521,
      "Re": 522,
      "fin": 523,
      "Die": 524,
      "Un": 525,
      "ill": 526,
      "av": 527,
      "qui": 528,
      "Fran": 529,
      "ak": 530,
      "ave": 531,
      "her": 532,
      "rou": 533,
      "co": 534,
      "werd": 535,
      "gr": 536,
      "dans": 537,
      "ée": 538,
      "sit": 539,
      "He": 540,
      "ger": 541,
      "ische": 542,
      "199": 543,
      "zijn": 544,
      "Ch": 545,
      "ben": 546,
      "ff": 547,
      "ind": 548,
      "ast": 549,
      "that": 550,
      "ord": 551,
      "ahr": 552,
      "land": 553,
      "wurde": 554,
      "En": 555,
      "Ne": 556,
      "Be": 557,
      "Au": 558,
      "part": 559,
      "),": 560,
      "ia": 561,
      "sh": 562,
      "tre": 563,
      "tra": 564,
      "iss": 565,
      "ard": 566,
      "iel": 567,
      "ure": 568,
      "mar": 569,
      "bre": 570,
      "bl": 571,
      "mp": 572,
      "és": 573,
      "amp": 574,
      "sur": 575,
      "elle": 576,
      "ft": 577,
      "so": 578,
      "Ge": 579,
      "age": 580,
      "vo": 581,
      "ip": 582,
      "das": 583,
      "ise": 584,
      "Al": 585,
      "ph": 586,
      "fa": 587,
      "Ar": 588,
      "rit": 589,
      "ven": 590,
      "urs": 591,
      "rom": 592,
      "no": 593,
      "tr": 594,
      "geb": 595,
      "ive": 596,
      "iz": 597,
      "over": 598,
      "ern": 599,
      "ess": 600,
      "pour": 601,
      "schaf": 602,
      "Mar": 603,
      "La": 604,
      "ib": 605,
      "onder": 606,
      "comp": 607,
      "Ver": 608,
      "dat": 609,
      "für": 610,
      "nation": 611,
      "oh": 612,
      "che": 613,
      "ille": 614,
      "kt": 615,
      "inter": 616,
      "fe": 617,
      "ond": 618,
      "are": 619,
      "eine": 620,
      "ice": 621,
      "sa": 622,
      "aux": 623,
      "ction": 624,
      "rec": 625,
      "igh": 626,
      "erd": 627,
      "je": 628,
      "ins": 629,
      "ren": 630,
      "del": 631,
      "ame": 632,
      "clu": 633,
      "ong": 634,
      "avec": 635,
      "Ro": 636,
      "ux": 637,
      "196": 638,
      "197": 639,
      "igen": 640,
      "cl": 641,
      "from": 642,
      "198": 643,
      "Er": 644,
      "Jahr": 645,
      "nen": 646,
      "Par": 647,
      "ld": 648,
      "icht": 649,
      "ous": 650,
      "bes": 651,
      "bij": 652,
      "one": 653,
      "Sp": 654,
      "ell": 655,
      "17": 656,
      "nie": 657,
      "ue": 658,
      "bei": 659,
      "ingen": 660,
      "comm": 661,
      "bis": 662,
      "os": 663,
      "nach": 664,
      "sich": 665,
      "ob": 666,
      "its": 667,
      "ige": 668,
      "pre": 669,
      "ats": 670,
      "ère": 671,
      "fil": 672,
      "oc": 673,
      "ud": 674,
      "vol": 675,
      "ens": 676,
      "ijk": 677,
      "plus": 678,
      "hij": 679,
      "gro": 680,
      "mber": 681,
      "ign": 682,
      "aint": 683,
      "ique": 684,
      "ér": 685,
      "Se": 686,
      "dur": 687,
      "16": 688,
      "ès": 689,
      "ity": 690,
      "alle": 691,
      "France": 692,
      "pt": 693,
      "ün": 694,
      "bo": 695,
      "ere": 696,
      "ander": 697,
      "cht": 698,
      "ition": 699,
      "ool": 700,
      "än": 701,
      "14": 702,
      "vor": 703,
      "ijke": 704,
      "Saint": 705,
      "ear": 706,
      "iver": 707,
      "lat": 708,
      "15": 709,
      "act": 710,
      "use": 711,
      "aut": 712,
      "sy": 713,
      "ées": 714,
      "erst": 715,
      "waar": 716,
      "dig": 717,
      "ks": 718,
      "ary": 719,
      "app": 720,
      "sie": 721,
      "berg": 722,
      "ho": 723,
      "ert": 724,
      "which": 725,
      "Il": 726,
      "ques": 727,
      "194": 728,
      "publ": 729,
      "ian": 730,
      "int": 731,
      "were": 732,
      "ais": 733,
      "dis": 734,
      "ité": 735,
      "form": 736,
      "vi": 737,
      "tel": 738,
      "ult": 739,
      "schaft": 740,
      "best": 741,
      "nom": 742,
      "tot": 743,
      "had": 744,
      "lin": 745,
      "spe": 746,
      "unter": 747,
      "ungen": 748,
      "out": 749,
      "gan": 750,
      "ok": 751,
      "ric": 752,
      "ust": 753,
      "won": 754,
      "Der": 755,
      "io": 756,
      "port": 757,
      "über": 758,
      "off": 759,
      "195": 760,
      "min": 761,
      "sc": 762,
      "sont": 763,
      "ors": 764,
      "gra": 765,
      "pol": 766,
      "ded": 767,
      "eld": 768,
      "gh": 769,
      "ute": 770,
      "film": 771,
      "Het": 772,
      "fo": 773,
      "att": 774,
      "werden": 775,
      "vent": 776,
      "ical": 777,
      "oth": 778,
      "up": 779,
      "zen": 780,
      "str": 781,
      "amil": 782,
      "bor": 783,
      "amen": 784,
      "uss": 785,
      "oort": 786,
      "New": 787,
      "ampion": 788,
      "Car": 789,
      "ade": 790,
      "but": 791,
      "mat": 792,
      "inn": 793,
      "Or": 794,
      "br": 795,
      "én": 796,
      "12": 797,
      "ai": 798,
      "ook": 799,
      "10": 800,
      "Gr": 801,
      "ance": 802,
      "ore": 803,
      "ette": 804,
      "werk": 805,
      "hal": 806,
      "olog": 807,
      "ég": 808,
      "ated": 809,
      "team": 810,
      "193": 811,
      "club": 812,
      "ae": 813,
      "do": 814,
      "not": 815,
      "vers": 816,
      "ident": 817,
      "ungs": 818,
      "Go": 819,
      "ile": 820,
      "onn": 821,
      "hat": 822,
      "uer": 823,
      "ende": 824,
      "Ze": 825,
      "wo": 826,
      "ler": 827,
      "vel": 828,
      "reich": 829,
      "sten": 830,
      "national": 831,
      "Am": 832,
      "vie": 833,
      "zo": 834,
      "chen": 835,
      "geh": 836,
      "entre": 837,
      "ations": 838,
      "adt": 839,
      "wee": 840,
      "bur": 841,
      "ep": 842,
      "va": 843,
      "Les": 844,
      "nat": 845,
      "ty": 846,
      "zur": 847,
      "auch": 848,
      "lage": 849,
      "produ": 850,
      "durch": 851,
      "Amer": 852,
      "Col": 853,
      "cy": 854,
      "fol": 855,
      "ta": 856,
      "tro": 857,
      "sein": 858,
      "da": 859,
      "wie": 860,
      "deux": 861,
      "alis": 862,
      "acht": 863,
      "erste": 864,
      "prem": 865,
      "iversit": 866,
      "Pro": 867,
      "fran": 868,
      "ses": 869,
      "zum": 870,
      "ied": 871,
      "ings": 872,
      "bet": 873,
      "col": 874,
      "vis": 875,
      "ör": 876,
      "ild": 877,
      "bach": 878,
      "ron": 879,
      "sel": 880,
      "ree": 881,
      "utsch": 882,
      "II": 883,
      "famil": 884,
      "mus": 885,
      "naar": 886,
      "pas": 887,
      "iter": 888,
      "naam": 889,
      "Joh": 890,
      "under": 891,
      "ster": 892,
      "ions": 893,
      "old": 894,
      "été": 895,
      "gt": 896,
      "enn": 897,
      "ister": 898,
      "pres": 899,
      "able": 900,
      "worden": 901,
      "Rang": 902,
      "ble": 903,
      "mon": 904,
      "pop": 905,
      "car": 906,
      "champion": 907,
      "ents": 908,
      "who": 909,
      "Ab": 910,
      "Po": 911,
      "ry": 912,
      "wir": 913,
      "year": 914,
      "reg": 915,
      "ath": 916,
      "ase": 917,
      "low": 918,
      "ack": 919,
      "ows": 920,
      "puis": 921,
      "Im": 922,
      "Je": 923,
      "ait": 924,
      "aat": 925,
      "eten": 926,
      "ime": 927,
      "einer": 928,
      "ight": 929,
      "We": 930,
      "fer": 931,
      "kom": 932,
      "ät": 933,
      "ison": 934,
      "amm": 935,
      "vier": 936,
      "éc": 937,
      "gew": 938,
      "ires": 939,
      "also": 940,
      "hl": 941,
      "kel": 942,
      "lle": 943,
      "vil": 944,
      "ish": 945,
      "ari": 946,
      "ally": 947,
      "ood": 948,
      "On": 949,
      "aal": 950,
      "kl": 951,
      "ker": 952,
      "oder": 953,
      "temp": 954,
      "urop": 955,
      "eter": 956,
      "dies": 957,
      "rief": 958,
      "own": 959,
      "Ber": 960,
      "dt": 961,
      "ug": 962,
      "orp": 963,
      "appel": 964,
      "fü": 965,
      "ide": 966,
      "ss": 967,
      "stit": 968,
      "elt": 969,
      "work": 970,
      "13": 971,
      "For": 972,
      "It": 973,
      "bu": 974,
      "bar": 975,
      "fr": 976,
      "fir": 977,
      "ih": 978,
      "urn": 979,
      "Universit": 980,
      "No": 981,
      "hom": 982,
      "deel": 983,
      "soci": 984,
      "Br": 985,
      "Brief": 986,
      "Com": 987,
      "Mit": 988,
      "eft": 989,
      "has": 990,
      "mes": 991,
      "pers": 992,
      "arch": 993,
      "stand": 994,
      "ments": 995,
      "tes": 996,
      "ons": 997,
      "dern": 998,
      "cre": 999,
      "dan": 1000,
      "ahn": 1001,
      "commun": 1002,
      "Bo": 1003,
      "Te": 1004,
      "aire": 1005,
      "hu": 1006,
      "teil": 1007,
      "unt": 1008,
      "Paris": 1009,
      "Chr": 1010,
      "fen": 1011,
      "ië": 1012,
      "bec": 1013,
      "school": 1014,
      "einen": 1015,
      "ahl": 1016,
      "rich": 1017,
      "zw": 1018,
      "isse": 1019,
      "alb": 1020,
      "let": 1021,
      "etz": 1022,
      "Briefmar": 1023,
      "Ein": 1024,
      "eerst": 1025,
      "ved": 1026,
      "organ": 1027,
      "000": 1028,
      "ced": 1029,
      "jour": 1030,
      "lan": 1031,
      "mal": 1032,
      "twee": 1033,
      "eng": 1034,
      "geme": 1035,
      "ijd": 1036,
      "diff": 1037,
      "clubs": 1038,
      "bel": 1039,
      "go": 1040,
      "hen": 1041,
      "kan": 1042,
      "med": 1043,
      "och": 1044,
      "wen": 1045,
      "iten": 1046,
      "Stadt": 1047,
      "2013": 1048,
      "finale": 1049,
      "speci": 1050,
      "familie": 1051,
      "Main": 1052,
      "bas": 1053,
      "dition": 1054,
      "ial": 1055,
      "cher": 1056,
      "stru": 1057,
      "Ph": 1058,
      "Wind": 1059,
      "grou": 1060,
      "iè": 1061,
      "iques": 1062,
      "pte": 1063,
      "zel": 1064,
      "zwe": 1065,
      "är": 1066,
      "iste": 1067,
      "alt": 1068,
      "192": 1069,
      "popul": 1070,
      "Page": 1071,
      "cra": 1072,
      "pes": 1073,
      "weten": 1074,
      "teur": 1075,
      "190": 1076,
      "einem": 1077,
      "près": 1078,
      "idae": 1079,
      "wurden": 1080,
      "gesch": 1081,
      "iceerd": 1082,
      "franç": 1083,
      "wird": 1084,
      "führ": 1085,
      "Lou": 1086,
      "cent": 1087,
      "kle": 1088,
      "mann": 1089,
      "soort": 1090,
      "vin": 1091,
      "ence": 1092,
      "ines": 1093,
      "ged": 1094,
      "new": 1095,
      "iert": 1096,
      "lock": 1097,
      "cons": 1098,
      "cont": 1099,
      "stell": 1100,
      "Briefmarken": 1101,
      "wetensch": 1102,
      "Her": 1103,
      "cou": 1104,
      "ple": 1105,
      "ret": 1106,
      "bert": 1107,
      "iers": 1108,
      "prof": 1109,
      "ject": 1110,
      "As": 1111,
      "Op": 1112,
      "Sh": 1113,
      "band": 1114,
      "hab": 1115,
      "ière": 1116,
      "lang": 1117,
      "nam": 1118,
      "ule": 1119,
      "zich": 1120,
      "itz": 1121,
      "gepubl": 1122,
      "ouse": 1123,
      "Inter": 1124,
      "ants": 1125,
      "after": 1126,
      "such": 1127,
      "plaats": 1128,
      "partic": 1129,
      "niet": 1130,
      "appelijke": 1131,
      "first": 1132,
      "gepubliceerd": 1133,
      "..": 1134,
      "Europ": 1135,
      "Fe": 1136,
      "cted": 1137,
      "kon": 1138,
      "pen": 1139,
      "deze": 1140,
      "ork": 1141,
      "rei": 1142,
      "atie": 1143,
      "versch": 1144,
      "mais": 1145,
      "2005": 1146,
      "2011": 1147,
      "liche": 1148,
      "Windows": 1149,
      "wetenschappelijke": 1150,
      ".\"": 1151,
      "Land": 1152,
      "bal": 1153,
      "cal": 1154,
      "dit": 1155,
      "ele": 1156,
      "stu": 1157,
      "ders": 1158,
      "ijden": 1159,
      "this": 1160,
      "lichen": 1161,
      "geldig": 1162,
      "play": 1163,
      "serv": 1164,
      "Jean": 1165,
      "11": 1166,
      "Co": 1167,
      "Qu": 1168,
      "ory": 1169,
      "stud": 1170,
      "beg": 1171,
      "2009": 1172,
      "Unter": 1173,
      "noch": 1174,
      "nombre": 1175,
      "Rangers": 1176,
      "Af": 1177,
      "Das": 1178,
      "Ges": 1179,
      "ek": 1180,
      "eerste": 1181,
      "lar": 1182,
      "mil": 1183,
      "som": 1184,
      "sind": 1185,
      "ton": 1186,
      "inclu": 1187,
      "oren": 1188,
      "gez": 1189,
      "stad": 1190,
      "32": 1191,
      "fl": 1192,
      "kw": 1193,
      "ner": 1194,
      "oen": 1195,
      "ön": 1196,
      "ates": 1197,
      "ures": 1198,
      "wordt": 1199,
      "fait": 1200,
      "village": 1201,
      "Mainz": 1202,
      "30": 1203,
      "Hij": 1204,
      "bru": 1205,
      "can": 1206,
      "net": 1207,
      "rij": 1208,
      "time": 1209,
      "way": 1210,
      "any": 1211,
      "iet": 1212,
      "asse": 1213,
      "their": 1214,
      "ils": 1215,
      "pos": 1216,
      "fois": 1217,
      "other": 1218,
      "album": 1219,
      "Dur": 1220,
      "Kir": 1221,
      "Ser": 1222,
      "num": 1223,
      "pend": 1224,
      "él": 1225,
      "inde": 1226,
      "aten": 1227,
      "gele": 1228,
      "aul": 1229,
      "ession": 1230,
      "nieu": 1231,
      "John": 1232,
      "Bar": 1233,
      "Ger": 1234,
      "Gro": 1235,
      "Vor": 1236,
      "cour": 1237,
      "dam": 1238,
      "gs": 1239,
      "ße": 1240,
      "ähr": 1241,
      "hel": 1242,
      "star": 1243,
      "188": 1244,
      "Zeit": 1245,
      "Americ": 1246,
      "25": 1247,
      "Aus": 1248,
      "Hol": 1249,
      "Is": 1250,
      "York": 1251,
      "ban": 1252,
      "bed": 1253,
      "mont": 1254,
      "nou": 1255,
      "wel": 1256,
      "ßen": 1257,
      "beh": 1258,
      "been": 1259,
      "rans": 1260,
      "stem": 1261,
      "2008": 1262,
      "2014": 1263,
      "place": 1264,
      "Phil": 1265,
      "hn": 1266,
      "ium": 1267,
      "plo": 1268,
      "rat": 1269,
      "uch": 1270,
      "ick": 1271,
      "comme": 1272,
      "acc": 1273,
      "akt": 1274,
      "later": 1275,
      "Jah": 1276,
      "bli": 1277,
      "km": 1278,
      "mé": 1279,
      "ente": 1280,
      "tell": 1281,
      "heeft": 1282,
      "anden": 1283,
      "posit": 1284,
      "stein": 1285,
      "2000": 1286,
      "grand": 1287,
      "Roiss": 1288,
      "Ex": 1289,
      "Gen": 1290,
      "She": 1291,
      "bin": 1292,
      "ds": 1293,
      "ix": 1294,
      "ode": 1295,
      "sol": 1296,
      "tement": 1297,
      "rem": 1298,
      "stra": 1299,
      "ument": 1300,
      "pré": 1301,
      "prés": 1302,
      "main": 1303,
      "polit": 1304,
      "championnat": 1305,
      "Jahre": 1306,
      "At": 1307,
      "Con": 1308,
      "Nach": 1309,
      "din": 1310,
      "don": 1311,
      "have": 1312,
      "kun": 1313,
      "äl": 1314,
      "chn": 1315,
      "alif": 1316,
      "enter": 1317,
      "waren": 1318,
      "School": 1319,
      "nationale": 1320,
      "ption": 1321,
      "public": 1322,
      "Lu": 1323,
      "ace": 1324,
      "gust": 1325,
      "lig": 1326,
      "val": 1327,
      "erde": 1328,
      "into": 1329,
      "isten": 1330,
      "orf": 1331,
      "ament": 1332,
      "tober": 1333,
      "dire": 1334,
      "born": 1335,
      "burg": 1336,
      "22": 1337,
      "Dies": 1338,
      "Nor": 1339,
      "Wor": 1340,
      "cer": 1341,
      "cle": 1342,
      "gle": 1343,
      "ient": 1344,
      "jou": 1345,
      "nicht": 1346,
      "üh": 1347,
      "ali": 1348,
      "ales": 1349,
      "elen": 1350,
      "rap": 1351,
      "vant": 1352,
      "sche": 1353,
      "2006": 1354,
      "186": 1355,
      "lui": 1356,
      "Power": 1357,
      "Can": 1358,
      "Jan": 1359,
      "Su": 1360,
      "az": 1361,
      "eff": 1362,
      "mbre": 1363,
      "équi": 1364,
      "ina": 1365,
      "seit": 1366,
      "outh": 1367,
      "ierte": 1368,
      "ischer": 1369,
      "State": 1370,
      "suc": 1371,
      "ogle": 1372,
      "ship": 1373,
      "Roissy": 1374,
      "28": 1375,
      "eg": 1376,
      "han": 1377,
      "ket": 1378,
      "chter": 1379,
      "arr": 1380,
      "ieden": 1381,
      "reis": 1382,
      "state": 1383,
      "tour": 1384,
      "quat": 1385,
      "open": 1386,
      "meer": 1387,
      "Deutsch": 1388,
      "cess": 1389,
      "Neder": 1390,
      "ibli": 1391,
      "andere": 1392,
      "Google": 1393,
      "velop": 1394,
      "view": 1395,
      "\".": 1396,
      "Ste": 1397,
      "ader": 1398,
      "jaar": 1399,
      "kann": 1400,
      "miss": 1401,
      "test": 1402,
      "ück": 1403,
      "ussen": 1404,
      "los": 1405,
      "Deze": 1406,
      "rég": 1407,
      "when": 1408,
      "Louis": 1409,
      "American": 1410,
      "IS": 1411,
      "Pol": 1412,
      "cette": 1413,
      "dist": 1414,
      "ging": 1415,
      "hunder": 1416,
      "long": 1417,
      "she": 1418,
      "vom": 1419,
      "zie": 1420,
      "eren": 1421,
      "ante": 1422,
      "ater": 1423,
      "uni": 1424,
      "ict": 1425,
      "ther": 1426,
      "ierre": 1427,
      "2007": 1428,
      "2010": 1429,
      "Reg": 1430,
      "Auf": 1431,
      "Fr": 1432,
      "Mom": 1433,
      "Mont": 1434,
      "Welt": 1435,
      "cor": 1436,
      "dar": 1437,
      "gén": 1438,
      "ht": 1439,
      "hin": 1440,
      "king": 1441,
      "pé": 1442,
      "sow": 1443,
      "wn": 1444,
      "ême": 1445,
      "demo": 1446,
      "lex": 1447,
      "els": 1448,
      "top": 1449,
      "mehr": 1450,
      "gram": 1451,
      "gehör": 1452,
      "University": 1453,
      "Mombach": 1454,
      "Elle": 1455,
      "Jo": 1456,
      "Lo": 1457,
      "Nation": 1458,
      "Wil": 1459,
      "ding": 1460,
      "fé": 1461,
      "fut": 1462,
      "gar": 1463,
      "nur": 1464,
      "wa": 1465,
      "äu": 1466,
      "deutsch": 1467,
      "ief": 1468,
      "seiz": 1469,
      "rain": 1470,
      "bere": 1471,
      "about": 1472,
      "made": 1473,
      "maar": 1474,
      "dien": 1475,
      "rug": 1476,
      "185": 1477,
      "2015": 1478,
      "alement": 1479,
      "ließ": 1480,
      "August": 1481,
      "Geme": 1482,
      "Jahren": 1483,
      "Jahrhunder": 1484,
      "years": 1485,
      "Nederland": 1486,
      "Ma": 1487,
      "Met": 1488,
      "Mich": 1489,
      "Th": 1490,
      "West": 1491,
      "ca": 1492,
      "cin": 1493,
      "fun": 1494,
      "haus": 1495,
      "ju": 1496,
      "two": 1497,
      "rele": 1498,
      "ause": 1499,
      "secon": 1500,
      "ctor": 1501,
      "conom": 1502,
      "sub": 1503,
      "lymp": 1504,
      "ried": 1505,
      "class": 1506,
      "commune": 1507,
      "zelf": 1508,
      "cracy": 1509,
      "Es": 1510,
      "Olymp": 1511,
      "Paul": 1512,
      "ail": 1513,
      "cel": 1514,
      "daar": 1515,
      "kn": 1516,
      "tit": 1517,
      "yn": 1518,
      "ches": 1519,
      "tout": 1520,
      "very": 1521,
      "umb": 1522,
      "genom": 1523,
      "ution": 1524,
      "range": 1525,
      "années": 1526,
      "besch": 1527,
      "Ort": 1528,
      "Christ": 1529,
      "population": 1530,
      "World": 1531,
      "OS": 1532,
      "Sü": 1533,
      "bou": 1534,
      "ball": 1535,
      "gl": 1536,
      "haar": 1537,
      "ko": 1538,
      "lors": 1539,
      "spr": 1540,
      "trou": 1541,
      "inst": 1542,
      "det": 1543,
      "chan": 1544,
      "char": 1545,
      "ald": 1546,
      "led": 1547,
      "leg": 1548,
      "they": 1549,
      "ouden": 1550,
      "ters": 1551,
      "then": 1552,
      "ains": 1553,
      "again": 1554,
      "aanse": 1555,
      "ited": 1556,
      "gebru": 1557,
      "used": 1558,
      "habit": 1559,
      "Europe": 1560,
      "26": 1561,
      "Mus": 1562,
      "Na": 1563,
      "So": 1564,
      "mas": 1565,
      "mid": 1566,
      "more": 1567,
      "pass": 1568,
      "sk": 1569,
      "sou": 1570,
      "vari": 1571,
      "ys": 1572,
      "éro": 1573,
      "ese": 1574,
      "issen": 1575,
      "orig": 1576,
      "alen": 1577,
      "atz": 1578,
      "aum": 1579,
      "icro": 1580,
      "ould": 1581,
      "mag": 1582,
      "zeich": 1583,
      "189": 1584,
      "itel": 1585,
      "rough": 1586,
      "Geor": 1587,
      "record": 1588,
      "Amerik": 1589,
      "trois": 1590,
      "français": 1591,
      "profession": 1592,
      "seizoen": 1593,
      "Rom": 1594,
      "US": 1595,
      "Um": 1596,
      "cas": 1597,
      "gest": 1598,
      "gab": 1599,
      "hand": 1600,
      "ihr": 1601,
      "jet": 1602,
      "même": 1603,
      "nog": 1604,
      "ois": 1605,
      "ped": 1606,
      "put": 1607,
      "rent": 1608,
      "rest": 1609,
      "tu": 1610,
      "être": 1611,
      "arm": 1612,
      "tegen": 1613,
      "red": 1614,
      "oft": 1615,
      "oul": 1616,
      "tern": 1617,
      "estiv": 1618,
      "design": 1619,
      "opt": 1620,
      "ieren": 1621,
      "2012": 1622,
      "aussch": 1623,
      "ives": 1624,
      "situ": 1625,
      "1999": 1626,
      "Char": 1627,
      "premier": 1628,
      "sowie": 1629,
      "21": 1630,
      "24": 1631,
      "50": 1632,
      "Cl": 1633,
      "Für": 1634,
      "Ke": 1635,
      "Nord": 1636,
      "Pierre": 1637,
      "bro": 1638,
      "cré": 1639,
      "cult": 1640,
      "dom": 1641,
      "glie": 1642,
      "iden": 1643,
      "mot": 1644,
      "rum": 1645,
      "sw": 1646,
      "sé": 1647,
      "ves": 1648,
      "vre": 1649,
      "vest": 1650,
      "ville": 1651,
      "ël": 1652,
      "aren": 1653,
      "amer": 1654,
      "ammen": 1655,
      "ico": 1656,
      "ics": 1657,
      "oph": 1658,
      "vember": 1659,
      "ages": 1660,
      "2004": 1661,
      "nah": 1662,
      "Columb": 1663,
      "music": 1664,
      "zwischen": 1665,
      "Janu": 1666,
      "gebruik": 1667,
      "\",": 1668,
      "23": 1669,
      "90": 1670,
      "All": 1671,
      "Een": 1672,
      "Lan": 1673,
      "Me": 1674,
      "Mo": 1675,
      "Sy": 1676,
      "Van": 1677,
      "aille": 1678,
      "cur": 1679,
      "cri": 1680,
      "day": 1681,
      "hist": 1682,
      "house": 1683,
      "mis": 1684,
      "oot": 1685,
      "por": 1686,
      "uur": 1687,
      "äch": 1688,
      "isation": 1689,
      "rech": 1690,
      "law": 1691,
      "imm": 1692,
      "contre": 1693,
      "project": 1694,
      "2002": 1695,
      "siè": 1696,
      "feat": 1697,
      "formation": 1698,
      "wieder": 1699,
      "ptember": 1700,
      "40": 1701,
      "Bern": 1702,
      "Gl": 1703,
      "Gu": 1704,
      "Gra": 1705,
      "Kon": 1706,
      "Pr": 1707,
      "Rich": 1708,
      "Sie": 1709,
      "bit": 1710,
      "bahn": 1711,
      "ef": 1712,
      "gu": 1713,
      "hol": 1714,
      "mand": 1715,
      "sous": 1716,
      "writ": 1717,
      "would": 1718,
      "ink": 1719,
      "orn": 1720,
      "ital": 1721,
      "rel": 1722,
      "ator": 1723,
      "pose": 1724,
      "ape": 1725,
      "187": 1726,
      "useum": 1727,
      "joue": 1728,
      "mission": 1729,
      "Bes": 1730,
      "El": 1731,
      "Hau": 1732,
      "Kar": 1733,
      "San": 1734,
      "aise": 1735,
      "bon": 1736,
      "dro": 1737,
      "eigen": 1738,
      "hiel": 1739,
      "jo": 1740,
      "mol": 1741,
      "nu": 1742,
      "non": 1743,
      "samen": 1744,
      "tussen": 1745,
      "zt": 1746,
      "ème": 1747,
      "inci": 1748,
      "depuis": 1749,
      "heid": 1750,
      "ett": 1751,
      "ilom": 1752,
      "sem": 1753,
      "ica": 1754,
      "ices": 1755,
      "qualif": 1756,
      "iger": 1757,
      "neu": 1758,
      "cture": 1759,
      "dust": 1760,
      "loc": 1761,
      "weg": 1762,
      "ress": 1763,
      "2016": 1764,
      "allen": 1765,
      "Hear": 1766,
      "saison": 1767,
      "Godin": 1768,
      "quatre": 1769,
      "génér": 1770,
      "rugby": 1771,
      "AP": 1772,
      "Bel": 1773,
      "Cou": 1774,
      "Dis": 1775,
      "Fl": 1776,
      "Ju": 1777,
      "Mat": 1778,
      "Mart": 1779,
      "RIS": 1780,
      "Vol": 1781,
      "Win": 1782,
      "cis": 1783,
      "dass": 1784,
      "him": 1785,
      "jus": 1786,
      "ka": 1787,
      "né": 1788,
      "od": 1789,
      "ving": 1790,
      "dest": 1791,
      "aly": 1792,
      "ased": 1793,
      "andid": 1794,
      "ichte": 1795,
      "racht": 1796,
      "meister": 1797,
      "pril": 1798,
      "weit": 1799,
      "program": 1800,
      "ott": 1801,
      "zeit": 1802,
      "ienne": 1803,
      "publi": 1804,
      "international": 1805,
      "ctions": 1806,
      "clus": 1807,
      "system": 1808,
      "match": 1809,
      "follow": 1810,
      "seiner": 1811,
      "archite": 1812,
      "ijdens": 1813,
      "nieuwe": 1814,
      "Columbia": 1815,
      "Hearst": 1816,
      "RISC": 1817,
      "Bibli": 1818,
      "Dom": 1819,
      "Dav": 1820,
      "Jul": 1821,
      "Mon": 1822,
      "May": 1823,
      "Per": 1824,
      "Sa": 1825,
      "bla": 1826,
      "cro": 1827,
      "gre": 1828,
      "run": 1829,
      "west": 1830,
      "ween": 1831,
      "».": 1832,
      "èque": 1833,
      "ères": 1834,
      "öl": 1835,
      "inwon": 1836,
      "issu": 1837,
      "techn": 1838,
      "alors": 1839,
      "geben": 1840,
      "dere": 1841,
      "ames": 1842,
      "lag": 1843,
      "mee": 1844,
      "nement": 1845,
      "key": 1846,
      "keit": 1847,
      "sport": 1848,
      "2003": 1849,
      "suite": 1850,
      "2017": 1851,
      "where": 1852,
      "ward": 1853,
      "1998": 1854,
      "très": 1855,
      "particip": 1856,
      "pendant": 1857,
      "Bra": 1858,
      "Fil": 1859,
      "High": 1860,
      "Zwe": 1861,
      "aires": 1862,
      "après": 1863,
      "dont": 1864,
      "ps": 1865,
      "pun": 1866,
      "sign": 1867,
      "soft": 1868,
      "vir": 1869,
      "za": 1870,
      "Ét": 1871,
      "ßer": 1872,
      "éom": 1873,
      "arbe": 1874,
      "heute": 1875,
      "ative": 1876,
      "leu": 1877,
      "ley": 1878,
      "lect": 1879,
      "deren": 1880,
      "toire": 1881,
      "ication": 1882,
      "uses": 1883,
      "eds": 1884,
      "iment": 1885,
      "gend": 1886,
      "constru": 1887,
      "aine": 1888,
      "ainsi": 1889,
      "avo": 1890,
      "Geb": 1891,
      "ized": 1892,
      "ktion": 1893,
      "minist": 1894,
      "hatte": 1895,
      "person": 1896,
      "zwei": 1897,
      "including": 1898,
      "équipes": 1899,
      "inwoners": 1900,
      "AS": 1901,
      "Ho": 1902,
      "Hen": 1903,
      "Har": 1904,
      "Kön": 1905,
      "Zu": 1906,
      "air": 1907,
      "aant": 1908,
      "bi": 1909,
      "camp": 1910,
      "kte": 1911,
      "lung": 1912,
      "nor": 1913,
      "name": 1914,
      "où": 1915,
      "pat": 1916,
      "trans": 1917,
      "vrou": 1918,
      "wes": 1919,
      "will": 1920,
      "well": 1921,
      "winn": 1922,
      "ähl": 1923,
      "erie": 1924,
      "heim": 1925,
      "atur": 1926,
      "quel": 1927,
      "ough": 1928,
      "verw": 1929,
      "member": 1930,
      "Instit": 1931,
      "kehr": 1932,
      "rieg": 1933,
      "kend": 1934,
      "many": 1935,
      "illion": 1936,
      "Heuer": 1937,
      "1996": 1938,
      "schaften": 1939,
      "1970": 1940,
      "autor": 1941,
      "athol": 1942,
      "temps": 1943,
      "became": 1944,
      "International": 1945,
      "some": 1946,
      "against": 1947,
      "API": 1948,
      "Bre": 1949,
      "Den": 1950,
      "Fo": 1951,
      "Man": 1952,
      "Nie": 1953,
      "Plat": 1954,
      "Sn": 1955,
      "Samm": 1956,
      "South": 1957,
      "crit": 1958,
      "glich": 1959,
      "mi": 1960,
      "ms": 1961,
      "mun": 1962,
      "té": 1963,
      "üt": 1964,
      "hed": 1965,
      "itu": 1966,
      "ieurs": 1967,
      "ating": 1968,
      "leur": 1969,
      "vert": 1970,
      "tend": 1971,
      "ischof": 1972,
      "princi": 1973,
      "former": 1974,
      "Stade": 1975,
      "spä": 1976,
      "resp": 1977,
      "rieb": 1978,
      "ogra": 1979,
      "ired": 1980,
      "était": 1981,
      "sera": 1982,
      "Als": 1983,
      "1968": 1984,
      "rict": 1985,
      "othèque": 1986,
      "halten": 1987,
      "between": 1988,
      "groupe": 1989,
      "After": 1990,
      "kwam": 1991,
      "Johnson": 1992,
      "nouve": 1993,
      "jusqu": 1994,
      "27": 1995,
      "Ad": 1996,
      "Ban": 1997,
      "Bau": 1998,
      "Gre": 1999,
      "Ra": 2000,
      "Ré": 2001,
      "Ur": 2002,
      "Wer": 2003,
      "drei": 2004,
      "eu": 2005,
      "eil": 2006,
      "fig": 2007,
      "ful": 2008,
      "ga": 2009,
      "har": 2010,
      "lim": 2011,
      "eral": 2012,
      "erreich": 2013,
      "inc": 2014,
      "ars": 2015,
      "arte": 2016,
      "heb": 2017,
      "ities": 2018,
      "requ": 2019,
      "ason": 2020,
      "seine": 2021,
      "igt": 2022,
      "usammen": 2023,
      "than": 2024,
      "cts": 2025,
      "gens": 2026,
      "prend": 2027,
      "ists": 2028,
      "riv": 2029,
      "stel": 2030,
      "most": 2031,
      "United": 2032,
      "Ent": 2033,
      "Beau": 2034,
      "face": 2035,
      "Art": 2036,
      "offic": 2037,
      "première": 2038,
      "Johann": 2039,
      "build": 2040,
      "huis": 2041,
      "journ": 2042,
      "présent": 2043,
      "democracy": 2044,
      "siècle": 2045,
      "éomorp": 2046,
      "Cast": 2047,
      "City": 2048,
      "Lond": 2049,
      "Mann": 2050,
      "Port": 2051,
      "Ter": 2052,
      "XV": 2053,
      "bil": 2054,
      "bau": 2055,
      "cord": 2056,
      "econom": 2057,
      "fon": 2058,
      "flu": 2059,
      "kus": 2060,
      "lit": 2061,
      "lid": 2062,
      "macht": 2063,
      "pal": 2064,
      "wij": 2065,
      "zer": 2066,
      "develop": 2067,
      "only": 2068,
      "tet": 2069,
      "heit": 2070,
      "iti": 2071,
      "real": 2072,
      "regel": 2073,
      "ury": 2074,
      "uren": 2075,
      "station": 2076,
      "there": 2077,
      "prim": 2078,
      "dio": 2079,
      "lies": 2080,
      "emplo": 2081,
      "iff": 2082,
      "1990": 2083,
      "Bei": 2084,
      "delen": 2085,
      "Spiel": 2086,
      "during": 2087,
      "wonnen": 2088,
      "Grund": 2089,
      "ology": 2090,
      "species": 2091,
      "...": 2092,
      "ährend": 2093,
      "Gemeinde": 2094,
      "habitants": 2095,
      "professionn": 2096,
      "Best": 2097,
      "Ce": 2098,
      "Dan": 2099,
      "His": 2100,
      "Hoch": 2101,
      "Küh": 2102,
      "Ru": 2103,
      "Res": 2104,
      "bat": 2105,
      "back": 2106,
      "dou": 2107,
      "dag": 2108,
      "event": 2109,
      "hau": 2110,
      "ius": 2111,
      "kamp": 2112,
      "pf": 2113,
      "pet": 2114,
      "piel": 2115,
      "ral": 2116,
      "same": 2117,
      "tri": 2118,
      "uß": 2119,
      "var": 2120,
      "velle": 2121,
      "»,": 2122,
      "ös": 2123,
      "remp": 2124,
      "staat": 2125,
      "ijders": 2126,
      "igkeit": 2127,
      "oord": 2128,
      "neur": 2129,
      "ierung": 2130,
      "pris": 2131,
      "fort": 2132,
      "weer": 2133,
      "make": 2134,
      "Stra": 2135,
      "aff": 2136,
      "spiel": 2137,
      "agne": 2138,
      "site": 2139,
      "sive": 2140,
      "Frank": 2141,
      "partie": 2142,
      "voet": 2143,
      "trich": 2144,
      "ibt": 2145,
      "plusieurs": 2146,
      "September": 2147,
      "hoof": 2148,
      "ungsaussch": 2149,
      "Berlin": 2150,
      "française": 2151,
      "Febru": 2152,
      "Kirche": 2153,
      "released": 2154,
      "January": 2155,
      "clusive": 2156,
      "Bibliothèque": 2157,
      "aantal": 2158,
      "100": 2159,
      "Bij": 2160,
      "Gal": 2161,
      "Min": 2162,
      "Mex": 2163,
      "Pres": 2164,
      "Rad": 2165,
      "Vers": 2166,
      "Wal": 2167,
      "Zent": 2168,
      "aden": 2169,
      "aéro": 2170,
      "blie": 2171,
      "bzw": 2172,
      "cat": 2173,
      "drie": 2174,
      "four": 2175,
      "gers": 2176,
      "high": 2177,
      "kar": 2178,
      "my": 2179,
      "mach": 2180,
      "pel": 2181,
      "pap": 2182,
      "ration": 2183,
      "sim": 2184,
      "cha": 2185,
      "chron": 2186,
      "orte": 2187,
      "get": 2188,
      "enten": 2189,
      "sect": 2190,
      "toe": 2191,
      "olf": 2192,
      "ople": 2193,
      "lot": 2194,
      "fore": 2195,
      "forme": 2196,
      "iding": 2197,
      "Indi": 2198,
      "maakt": 2199,
      "direc": 2200,
      "ateur": 2201,
      "six": 2202,
      "side": 2203,
      "plan": 2204,
      "peut": 2205,
      "aller": 2206,
      "ays": 2207,
      "1997": 2208,
      "schafts": 2209,
      "delijk": 2210,
      "1979": 2211,
      "Seit": 2212,
      "activ": 2213,
      "autres": 2214,
      "aient": 2215,
      "III": 2216,
      "dieser": 2217,
      "verschieden": 2218,
      "élé": 2219,
      "alifor": 2220,
      "effe": 2221,
      "région": 2222,
      "National": 2223,
      "estival": 2224,
      "Martin": 2225,
      "avoir": 2226,
      "König": 2227,
      "Snijders": 2228,
      "ograph": 2229,
      "AG": 2230,
      "April": 2231,
      "Des": 2232,
      "Fried": 2233,
      "Kle": 2234,
      "Mal": 2235,
      "Micro": 2236,
      "Top": 2237,
      "Zw": 2238,
      "avant": 2239,
      "dra": 2240,
      "hum": 2241,
      "hier": 2242,
      "ira": 2243,
      "jan": 2244,
      "tag": 2245,
      "wed": 2246,
      "woh": 2247,
      "wood": 2248,
      "ém": 2249,
      "év": 2250,
      "éli": 2251,
      "üs": 2252,
      "erhiel": 2253,
      "anci": 2254,
      "ances": 2255,
      "deck": 2256,
      "ished": 2257,
      "lever": 2258,
      "lement": 2259,
      "gewonnen": 2260,
      "partement": 2261,
      "log": 2262,
      "loss": 2263,
      "local": 2264,
      "weiter": 2265,
      "appe": 2266,
      "States": 2267,
      "2001": 2268,
      "rup": 2269,
      "song": 2270,
      "perio": 2271,
      "liegt": 2272,
      "Franç": 2273,
      "coach": 2274,
      "Champion": 2275,
      "faire": 2276,
      "try": 2277,
      "March": 2278,
      "onderdeel": 2279,
      "said": 2280,
      "beste": 2281,
      "groep": 2282,
      "également": 2283,
      "zoals": 2284,
      "vision": 2285,
      "Teil": 2286,
      "because": 2287,
      "jours": 2288,
      "Philip": 2289,
      "second": 2290,
      "culture": 2291,
      "général": 2292,
      "Diskus": 2293,
      "später": 2294,
      "éomorphis": 2295,
      "29": 2296,
      "Bu": 2297,
      "Bun": 2298,
      "Bet": 2299,
      "Bus": 2300,
      "Cob": 2301,
      "Fol": 2302,
      "Kur": 2303,
      "LA": 2304,
      "Mil": 2305,
      "Mai": 2306,
      "Ok": 2307,
      "Ren": 2308,
      "Sna": 2309,
      "bra": 2310,
      "bus": 2311,
      "cil": 2312,
      "cation": 2313,
      "cap": 2314,
      "gte": 2315,
      "ior": 2316,
      "nung": 2317,
      "pou": 2318,
      "setz": 2319,
      "tijdens": 2320,
      "vra": 2321,
      "vleu": 2322,
      "zien": 2323,
      "édi": 2324,
      "ences": 2325,
      "teurs": 2326,
      "hem": 2327,
      "ités": 2328,
      "ash": 2329,
      "stadt": 2330,
      "them": 2331,
      "ely": 2332,
      "auen": 2333,
      "rol": 2334,
      "ama": 2335,
      "late": 2336,
      "see": 2337,
      "town": 2338,
      "territ": 2339,
      "being": 2340,
      "schri": 2341,
      "oper": 2342,
      "contra": 2343,
      "ular": 2344,
      "appar": 2345,
      "riend": 2346,
      "spel": 2347,
      "sui": 2348,
      "sup": 2349,
      "rés": 2350,
      "réal": 2351,
      "meter": 2352,
      "ific": 2353,
      "gelijk": 2354,
      "Dietrich": 2355,
      "akte": 2356,
      "coun": 2357,
      "tradition": 2358,
      "Arbe": 2359,
      "Robert": 2360,
      "1960": 2361,
      "alled": 2362,
      "vide": 2363,
      "sterreich": 2364,
      "present": 2365,
      "Noël": 2366,
      "November": 2367,
      "Mitglie": 2368,
      "contin": 2369,
      "Associ": 2370,
      "Coun": 2371,
      "Untersuch": 2372,
      "large": 2373,
      "kunnen": 2374,
      "gleich": 2375,
      "succes": 2376,
      "Jahrhundert": 2377,
      "vestig": 2378,
      "nouveau": 2379,
      "Kühberg": 2380,
      "aéroport": 2381,
      "Snake": 2382,
      "45": 2383,
      "Air": 2384,
      "Del": 2385,
      "Kr": 2386,
      "Med": 2387,
      "Mot": 2388,
      "Ook": 2389,
      "Pat": 2390,
      "Rus": 2391,
      "Val": 2392,
      "Wahl": 2393,
      "aber": 2394,
      "cie": 2395,
      "city": 2396,
      "ked": 2397,
      "kir": 2398,
      "kreis": 2399,
      "nord": 2400,
      "rier": 2401,
      "sm": 2402,
      "sle": 2403,
      "set": 2404,
      "wan": 2405,
      "zahl": 2406,
      "ense": 2407,
      "enne": 2408,
      "ering": 2409,
      "ather": 2410,
      "urch": 2411,
      "gef": 2412,
      "ston": 2413,
      "amment": 2414,
      "lagen": 2415,
      "quar": 2416,
      "verl": 2417,
      "import": 2418,
      "gende": 2419,
      "eines": 2420,
      "anton": 2421,
      "weise": 2422,
      "rik": 2423,
      "They": 2424,
      "while": 2425,
      "iens": 2426,
      "world": 2427,
      "here": 2428,
      "cole": 2429,
      "grö": 2430,
      "ards": 2431,
      "disc": 2432,
      "rick": 2433,
      "stral": 2434,
      "ologie": 2435,
      "Ranger": 2436,
      "difféomorphis": 2437,
      "based": 2438,
      "students": 2439,
      "Gesch": 2440,
      "Durch": 2441,
      "nieuw": 2442,
      "position": 2443,
      "Super": 2444,
      "nahm": 2445,
      "histor": 2446,
      "dustrie": 2447,
      "Film": 2448,
      "aliforn": 2449,
      "vleugel": 2450,
      "(*": 2451,
      "35": 2452,
      "Bil": 2453,
      "FC": 2454,
      "Gau": 2455,
      "Kom": 2456,
      "Mag": 2457,
      "Part": 2458,
      "This": 2459,
      "Ul": 2460,
      "Von": 2461,
      "bild": 2462,
      "cert": 2463,
      "candid": 2464,
      "dy": 2465,
      "did": 2466,
      "dann": 2467,
      "doc": 2468,
      "even": 2469,
      "gang": 2470,
      "gouden": 2471,
      "hun": 2472,
      "jed": 2473,
      "just": 2474,
      "kam": 2475,
      "konn": 2476,
      "ling": 2477,
      "lijk": 2478,
      "pra": 2479,
      "sci": 2480,
      "tijd": 2481,
      "ues": 2482,
      "vaar": 2483,
      "zit": 2484,
      "zig": 2485,
      "äs": 2486,
      "ene": 2487,
      "ersch": 2488,
      "esse": 2489,
      "ester": 2490,
      "isen": 2491,
      "allow": 2492,
      "ref": 2493,
      "recht": 2494,
      "ional": 2495,
      "tous": 2496,
      "oly": 2497,
      "quer": 2498,
      "verk": 2499,
      "veral": 2500,
      "bekann": 2501,
      "schap": 2502,
      "through": 2503,
      "veel": 2504,
      "ierten": 2505,
      "spra": 2506,
      "ago": 2507,
      "histoire": 2508,
      "serie": 2509,
      "1995": 2510,
      "shoot": 2511,
      "ured": 2512,
      "soit": 2513,
      "company": 2514,
      "Spra": 2515,
      "anderen": 2516,
      "1945": 2517,
      "Grün": 2518,
      "social": 2519,
      "personn": 2520,
      "Diese": 2521,
      "Canad": 2522,
      "Willi": 2523,
      "cinq": 2524,
      "Amerikaanse": 2525,
      "Raad": 2526,
      "Beaugrand": 2527,
      "Oktober": 2528,
      "jedoch": 2529,
      "70": 2530,
      "80": 2531,
      "Bur": 2532,
      "Bro": 2533,
      "Bischof": 2534,
      "Dar": 2535,
      "Fin": 2536,
      "Fre": 2537,
      "Fahr": 2538,
      "Fuß": 2539,
      "Gar": 2540,
      "Ha": 2541,
      "Jac": 2542,
      "Mor": 2543,
      "Museum": 2544,
      "Namen": 2545,
      "Ober": 2546,
      "Pl": 2547,
      "Pader": 2548,
      "Sc": 2549,
      "Sal": 2550,
      "Sent": 2551,
      "Une": 2552,
      "War": 2553,
      "bst": 2554,
      "called": 2555,
      "dre": 2556,
      "donn": 2557,
      "eben": 2558,
      "echter": 2559,
      "fur": 2560,
      "fab": 2561,
      "gy": 2562,
      "ias": 2563,
      "iber": 2564,
      "jor": 2565,
      "nis": 2566,
      "nit": 2567,
      "sin": 2568,
      "tent": 2569,
      "zou": 2570,
      "indi": 2571,
      "anc": 2572,
      "ony": 2573,
      "recher": 2574,
      "geen": 2575,
      "etwa": 2576,
      "elles": 2577,
      "auer": 2578,
      "amt": 2579,
      "labor": 2580,
      "tou": 2581,
      "toen": 2582,
      "ouw": 2583,
      "imin": 2584,
      "thé": 2585,
      "wereld": 2586,
      "istes": 2587,
      "commer": 2588,
      "abl": 2589,
      "ager": 2590,
      "moins": 2591,
      "exem": 2592,
      "ware": 2593,
      "ürger": 2594,
      "series": 2595,
      "Beg": 2596,
      "Gewerk": 2597,
      "1964": 2598,
      "1985": 2599,
      "1987": 2600,
      "Spelen": 2601,
      "version": 2602,
      "uerre": 2603,
      "communes": 2604,
      "gemeente": 2605,
      "group": 2606,
      "ième": 2607,
      "gezet": 2608,
      "straße": 2609,
      "direct": 2610,
      "Jose": 2611,
      "genomen": 2612,
      "origin": 2613,
      "Charles": 2614,
      "Platz": 2615,
      "hebben": 2616,
      "London": 2617,
      "ungsausschuss": 2618,
      "Microsoft": 2619,
      "erhielt": 2620,
      "William": 2621,
      "48": 2622,
      "95": 2623,
      "But": 2624,
      "Bahn": 2625,
      "Duit": 2626,
      "Fern": 2627,
      "Jap": 2628,
      "Mad": 2629,
      "Pour": 2630,
      "Russ": 2631,
      "Som": 2632,
      "Tur": 2633,
      "Trans": 2634,
      "bt": 2635,
      "bot": 2636,
      "brit": 2637,
      "cé": 2638,
      "cir": 2639,
      "cad": 2640,
      "crat": 2641,
      "ec": 2642,
      "fiel": 2643,
      "gibt": 2644,
      "ha": 2645,
      "häl": 2646,
      "jes": 2647,
      "jar": 2648,
      "kap": 2649,
      "mb": 2650,
      "ny": 2651,
      "ose": 2652,
      "oire": 2653,
      "sing": 2654,
      "tle": 2655,
      "ula": 2656,
      "win": 2657,
      "wic": 2658,
      "xe": 2659,
      "zy": 2660,
      "ären": 2661,
      "instit": 2662,
      "insect": 2663,
      "anim": 2664,
      "onor": 2665,
      "onden": 2666,
      "read": 2667,
      "leurs": 2668,
      "gegen": 2669,
      "geord": 2670,
      "stat": 2671,
      "start": 2672,
      "sterd": 2673,
      "seil": 2674,
      "several": 2675,
      "tobre": 2676,
      "oll": 2677,
      "quin": 2678,
      "ouver": 2679,
      "verm": 2680,
      "edia": 2681,
      "estal": 2682,
      "descri": 2683,
      "three": 2684,
      "though": 2685,
      "genann": 2686,
      "utz": 2687,
      "prise": 2688,
      "loopt": 2689,
      "conce": 2690,
      "istan": 2691,
      "abil": 2692,
      "maken": 2693,
      "post": 2694,
      "ribut": 2695,
      "like": 2696,
      "luit": 2697,
      "assen": 2698,
      "alls": 2699,
      "iven": 2700,
      "grün": 2701,
      "lands": 2702,
      "pho": 2703,
      "gebracht": 2704,
      "essor": 2705,
      "Verein": 2706,
      "1980": 2707,
      "Park": 2708,
      "Sport": 2709,
      "beiden": 2710,
      "octobre": 2711,
      "vorm": 2712,
      "early": 2713,
      "syste": 2714,
      "vient": 2715,
      "News": 2716,
      "ological": 2717,
      "endet": 2718,
      "Amsterd": 2719,
      "epen": 2720,
      "olds": 2721,
      "ennes": 2722,
      "monde": 2723,
      "komen": 2724,
      "diese": 2725,
      "until": 2726,
      "issement": 2727,
      "ières": 2728,
      "student": 2729,
      "Kirchen": 2730,
      "nummer": 2731,
      "Philate": 2732,
      "North": 2733,
      "péri": 2734,
      "bereits": 2735,
      "Nederlandse": 2736,
      "known": 2737,
      "issenschaft": 2738,
      "ilometer": 2739,
      "ählt": 2740,
      "hoofd": 2741,
      "chaque": 2742,
      "Friedrich": 2743,
      "appear": 2744,
      "olymp": 2745,
      "hält": 2746,
      "Amsterdam": 2747,
      "500": 2748,
      "Aut": 2749,
      "Cette": 2750,
      "Californ": 2751,
      "Dit": 2752,
      "Dans": 2753,
      "Grou": 2754,
      "Juni": 2755,
      "Lt": 2756,
      "Mc": 2757,
      "Pre": 2758,
      "Spe": 2759,
      "Wh": 2760,
      "aam": 2761,
      "action": 2762,
      "cr": 2763,
      "dent": 2764,
      "eeu": 2765,
      "far": 2766,
      "fre": 2767,
      "fam": 2768,
      "ften": 2769,
      "fru": 2770,
      "hor": 2771,
      "hof": 2772,
      "hän": 2773,
      "ize": 2774,
      "ious": 2775,
      "juni": 2776,
      "kru": 2777,
      "lam": 2778,
      "mä": 2779,
      "mö": 2780,
      "mult": 2781,
      "million": 2782,
      "oun": 2783,
      "penter": 2784,
      "rijk": 2785,
      "samm": 2786,
      "tal": 2787,
      "uel": 2788,
      "uelle": 2789,
      "vit": 2790,
      "ws": 2791,
      "yr": 2792,
      "zes": 2793,
      "zij": 2794,
      "zusammen": 2795,
      "Über": 2796,
      "éle": 2797,
      "insp": 2798,
      "ande": 2799,
      "chten": 2800,
      "esp": 2801,
      "isme": 2802,
      "alité": 2803,
      "lege": 2804,
      "ural": 2805,
      "roy": 2806,
      "season": 2807,
      "tourn": 2808,
      "oud": 2809,
      "rad": 2810,
      "vangel": 2811,
      "beeld": 2812,
      "bekend": 2813,
      "schließ": 2814,
      "press": 2815,
      "achter": 2816,
      "wever": 2817,
      "dix": 2818,
      "provin": 2819,
      "projet": 2820,
      "erson": 2821,
      "poin": 2822,
      "Stu": 2823,
      "ottes": 2824,
      "ruck": 2825,
      "acqu": 2826,
      "ateurs": 2827,
      "année": 2828,
      "modern": 2829,
      "riegs": 2830,
      "réalis": 2831,
      "exist": 2832,
      "exper": 2833,
      "wards": 2834,
      "metho": 2835,
      "Schwe": 2836,
      "Review": 2837,
      "final": 2838,
      "findet": 2839,
      "cover": 2840,
      "grund": 2841,
      "Austral": 2842,
      "partir": 2843,
      "track": 2844,
      "recke": 2845,
      "1975": 2846,
      "ersten": 2847,
      "disput": 2848,
      "linder": 2849,
      "graph": 2850,
      "vention": 2851,
      "zurück": 2852,
      "Produ": 2853,
      "orps": 2854,
      "ihre": 2855,
      "führt": 2856,
      "milit": 2857,
      "gehörte": 2858,
      "funct": 2859,
      "titre": 2860,
      "trouve": 2861,
      "Georges": 2862,
      "Landes": 2863,
      "molen": 2864,
      "ßerdem": 2865,
      "vrouwen": 2866,
      "autorité": 2867,
      "voetbal": 2868,
      "effect": 2869,
      "größ": 2870,
      "konnte": 2871,
      "Paderborn": 2872,
      "Joseph": 2873,
      "California": 2874,
      "38": 2875,
      "Après": 2876,
      "Award": 2877,
      "Bere": 2878,
      "Dist": 2879,
      "Daar": 2880,
      "Fer": 2881,
      "Hart": 2882,
      "Kenn": 2883,
      "Minn": 2884,
      "Oc": 2885,
      "Pri": 2886,
      "Peter": 2887,
      "aur": 2888,
      "bun": 2889,
      "bass": 2890,
      "cit": 2891,
      "cla": 2892,
      "cken": 2893,
      "eing": 2894,
      "every": 2895,
      "hy": 2896,
      "kern": 2897,
      "kathol": 2898,
      "lon": 2899,
      "line": 2900,
      "mu": 2901,
      "mort": 2902,
      "now": 2903,
      "ov": 2904,
      "oung": 2905,
      "pon": 2906,
      "rend": 2907,
      "tim": 2908,
      "tres": 2909,
      "uge": 2910,
      "vast": 2911,
      "wap": 2912,
      "yer": 2913,
      "ähn": 2914,
      "ède": 2915,
      "ête": 2916,
      "öff": 2917,
      "erfol": 2918,
      "anz": 2919,
      "este": 2920,
      "esot": 2921,
      "head": 2922,
      "alte": 2923,
      "ieke": 2924,
      "attemp": 2925,
      "sta": 2926,
      "stre": 2927,
      "elk": 2928,
      "elde": 2929,
      "aug": 2930,
      "auth": 2931,
      "sed": 2932,
      "sehr": 2933,
      "ijf": 2934,
      "verg": 2935,
      "igung": 2936,
      "terre": 2937,
      "edy": 2938,
      "beim": 2939,
      "these": 2940,
      "nex": 2941,
      "priv": 2942,
      "compl": 2943,
      "major": 2944,
      "Demo": 2945,
      "power": 2946,
      "suit": 2947,
      "cial": 2948,
      "sif": 2949,
      "naast": 2950,
      "ausge": 2951,
      "aussi": 2952,
      "puter": 2953,
      "Schul": 2954,
      "peu": 2955,
      "zug": 2956,
      "gestell": 2957,
      "finden": 2958,
      "aven": 2959,
      "gericht": 2960,
      "1993": 2961,
      "1994": 2962,
      "Neu": 2963,
      "ible": 2964,
      "clar": 2965,
      "1988": 2966,
      "179": 2967,
      "fils": 2968,
      "both": 2969,
      "anderem": 2970,
      "appen": 2971,
      "offen": 2972,
      "1950": 2973,
      "found": 2974,
      "Carpenter": 2975,
      "inner": 2976,
      "Grand": 2977,
      "notamment": 2978,
      "aalde": 2979,
      "kerk": 2980,
      "tempor": 2981,
      "engine": 2982,
      "return": 2983,
      "verschill": 2984,
      "played": 2985,
      "service": 2986,
      "Mainzer": 2987,
      "number": 2988,
      "Groß": 2989,
      "General": 2990,
      "Shealy": 2991,
      "président": 2992,
      "Frauen": 2993,
      "Montréal": 2994,
      "deutschen": 2995,
      "Olympische": 2996,
      "Richard": 2997,
      "President": 2998,
      "Bussy": 2999,
      "suivan": 3000,
      "Association": 3001,
      "Ltd": 3002,
      "Minnesot": 3003,
      ".,": 3004,
      "Bl": 3005,
      "Cent": 3006,
      "Da": 3007,
      "Famil": 3008,
      "Jer": 3009,
      "James": 3010,
      "Miss": 3011,
      "Ob": 3012,
      "Pal": 3013,
      "Sam": 3014,
      "Sol": 3015,
      "SLA": 3016,
      "Tom": 3017,
      "Tra": 3018,
      "Tri": 3019,
      "Tex": 3020,
      "Toul": 3021,
      "Var": 3022,
      "Wy": 3023,
      "Zijn": 3024,
      "bour": 3025,
      "cup": 3026,
      "date": 3027,
      "ehe": 3028,
      "fas": 3029,
      "fac": 3030,
      "fahr": 3031,
      "gé": 3032,
      "hö": 3033,
      "haf": 3034,
      "ider": 3035,
      "kop": 3036,
      "kken": 3037,
      "mals": 3038,
      "ound": 3039,
      "oci": 3040,
      "ram": 3041,
      "right": 3042,
      "tte": 3043,
      "tran": 3044,
      "woor": 3045,
      "zent": 3046,
      "zog": 3047,
      "zonder": 3048,
      "épo": 3049,
      "era": 3050,
      "ero": 3051,
      "inder": 3052,
      "instr": 3053,
      "ana": 3054,
      "dell": 3055,
      "ones": 3056,
      "ism": 3057,
      "around": 3058,
      "orie": 3059,
      "tex": 3060,
      "teau": 3061,
      "held": 3062,
      "alter": 3063,
      "alog": 3064,
      "atte": 3065,
      "atten": 3066,
      "etc": 3067,
      "eln": 3068,
      "rot": 3069,
      "room": 3070,
      "round": 3071,
      "rodu": 3072,
      "sex": 3073,
      "too": 3074,
      "took": 3075,
      "oute": 3076,
      "terug": 3077,
      "ray": 3078,
      "bev": 3079,
      "began": 3080,
      "impro": 3081,
      "ummer": 3082,
      "iere": 3083,
      "gener": 3084,
      "contr": 3085,
      "constit": 3086,
      "may": 3087,
      "rande": 3088,
      "rangers": 3089,
      "appl": 3090,
      "keer": 3091,
      "Stand": 3092,
      "ries": 3093,
      "aines": 3094,
      "affe": 3095,
      "ague": 3096,
      "sure": 3097,
      "nage": 3098,
      "anges": 3099,
      "what": 3100,
      "pect": 3101,
      "ifs": 3102,
      "ift": 3103,
      "ivis": 3104,
      "lieu": 3105,
      "Reich": 3106,
      "Regel": 3107,
      "Reyn": 3108,
      "iller": 3109,
      "mars": 3110,
      "market": 3111,
      "ohn": 3112,
      "1969": 3113,
      "1982": 3114,
      "1989": 3115,
      "groot": 3116,
      "änder": 3117,
      "aison": 3118,
      "bestand": 3119,
      "1959": 3120,
      "halb": 3121,
      "burger": 3122,
      "colle": 3123,
      "collabor": 3124,
      "caract": 3125,
      "ference": 3126,
      "Berg": 3127,
      "ihm": 3128,
      "Universität": 3129,
      "homme": 3130,
      "dernier": 3131,
      "organis": 3132,
      "tweede": 3133,
      "führte": 3134,
      "mannen": 3135,
      "begann": 3136,
      "assem": 3137,
      "During": 3138,
      "Serie": 3139,
      "gelegen": 3140,
      "présen": 3141,
      "amento": 3142,
      "cadem": 3143,
      "Christian": 3144,
      "install": 3145,
      "création": 3146,
      "gebruikt": 3147,
      "semble": 3148,
      "Coupe": 3149,
      "matchs": 3150,
      "David": 3151,
      "issue": 3152,
      "viron": 3153,
      "Henri": 3154,
      "Institute": 3155,
      "journal": 3156,
      "François": 3157,
      "schrift": 3158,
      "Mitglied": 3159,
      "Minnesota": 3160,
      "Reynolds": 3161,
      "31": 3162,
      "60": 3163,
      "Academ": 3164,
      "B6": 3165,
      "By": 3166,
      "Bres": 3167,
      "Brit": 3168,
      "Cas": 3169,
      "Ed": 3170,
      "Em": 3171,
      "Est": 3172,
      "Eine": 3173,
      "Good": 3174,
      "Hor": 3175,
      "Hier": 3176,
      "House": 3177,
      "IV": 3178,
      "Kreis": 3179,
      "Person": 3180,
      "Rot": 3181,
      "Wür": 3182,
      "With": 3183,
      "ao": 3184,
      "aats": 3185,
      "bré": 3186,
      "bien": 3187,
      "core": 3188,
      "centre": 3189,
      "dir": 3190,
      "dort": 3191,
      "dlich": 3192,
      "five": 3193,
      "gent": 3194,
      "hard": 3195,
      "kree": 3196,
      "lijn": 3197,
      "nes": 3198,
      "ning": 3199,
      "nol": 3200,
      "oem": 3201,
      "ring": 3202,
      "richt": 3203,
      "sans": 3204,
      "tar": 3205,
      "tien": 3206,
      "uil": 3207,
      "ually": 3208,
      "völ": 3209,
      "wet": 3210,
      "wide": 3211,
      "zone": 3212,
      "èrent": 3213,
      "enden": 3214,
      "influ": 3215,
      "ché": 3216,
      "ispiel": 3217,
      "arri": 3218,
      "reven": 3219,
      "universit": 3220,
      "entart": 3221,
      "ilt": 3222,
      "ionna": 3223,
      "rote": 3224,
      "role": 3225,
      "omen": 3226,
      "ijs": 3227,
      "quest": 3228,
      "verkehr": 3229,
      "edu": 3230,
      "before": 3231,
      "dessen": 3232,
      "schen": 3233,
      "schule": 3234,
      "prison": 3235,
      "préc": 3236,
      "come": 3237,
      "comot": 3238,
      "combin": 3239,
      "web": 3240,
      "abet": 3241,
      "Debré": 3242,
      "poss": 3243,
      "apt": 3244,
      "ription": 3245,
      "afin": 3246,
      "agu": 3247,
      "acr": 3248,
      "kende": 3249,
      "exp": 3250,
      "uiten": 3251,
      "dévelop": 3252,
      "département": 3253,
      "ources": 3254,
      "étant": 3255,
      "étition": 3256,
      "gren": 3257,
      "1992": 3258,
      "Arch": 3259,
      "compet": 3260,
      "ights": 3261,
      "1966": 3262,
      "1967": 3263,
      "1976": 3264,
      "1983": 3265,
      "oss": 3266,
      "iano": 3267,
      "introdu": 3268,
      "formed": 3269,
      "vious": 3270,
      "bestaat": 3271,
      "ioen": 3272,
      "strijd": 3273,
      "brand": 3274,
      "stenberg": 3275,
      "viele": 3276,
      "vaak": 3277,
      "product": 3278,
      "production": 3279,
      "Form": 3280,
      "frame": 3281,
      "belang": 3282,
      "altung": 3283,
      "kleine": 3284,
      "stelling": 3285,
      "coup": 3286,
      "nombreux": 3287,
      "cours": 3288,
      "bedrij": 3289,
      "accord": 3290,
      "binnen": 3291,
      "équipe": 3292,
      "Deutschland": 3293,
      "Jahrhunderts": 3294,
      "Michel": 3295,
      "genommen": 3296,
      "domin": 3297,
      "joueurs": 3298,
      "Matthe": 3299,
      "publique": 3300,
      "following": 3301,
      "punkt": 3302,
      "Gebiet": 3303,
      "winning": 3304,
      "members": 3305,
      "erreichte": 3306,
      "building": 3307,
      "kampioen": 3308,
      "remport": 3309,
      "country": 3310,
      "Sentai": 3311,
      "théâ": 3312,
      "Japan": 3313,
      "geordn": 3314,
      "photo": 3315,
      "ounced": 3316,
      "44": 3317,
      "47": 3318,
      "52": 3319,
      "AA": 3320,
      "Bären": 3321,
      "CE": 3322,
      "Cor": 3323,
      "Cup": 3324,
      "Di": 3325,
      "Dam": 3326,
      "Dorf": 3327,
      "East": 3328,
      "GB": 3329,
      "Hu": 3330,
      "Han": 3331,
      "Jie": 3332,
      "June": 3333,
      "Krieg": 3334,
      "Kilometer": 3335,
      "Lib": 3336,
      "My": 3337,
      "Mär": 3338,
      "Natur": 3339,
      "Om": 3340,
      "Rac": 3341,
      "Sen": 3342,
      "Sacr": 3343,
      "TAG": 3344,
      "away": 3345,
      "baar": 3346,
      "cm": 3347,
      "cing": 3348,
      "dus": 3349,
      "fem": 3350,
      "festival": 3351,
      "friend": 3352,
      "gd": 3353,
      "how": 3354,
      "job": 3355,
      "jaren": 3356,
      "krieg": 3357,
      "lau": 3358,
      "lég": 3359,
      "liter": 3360,
      "mond": 3361,
      "rus": 3362,
      "tard": 3363,
      "ual": 3364,
      "vas": 3365,
      "vres": 3366,
      "vies": 3367,
      "vlies": 3368,
      "wil": 3369,
      "wig": 3370,
      "wissenschaft": 3371,
      "wrote": 3372,
      "xim": 3373,
      "zal": 3374,
      "zow": 3375,
      "zös": 3376,
      "Österreich": 3377,
      "äus": 3378,
      "ève": 3379,
      "éri": 3380,
      "öhl": 3381,
      "œu": 3382,
      "enf": 3383,
      "environ": 3384,
      "errich": 3385,
      "ined": 3386,
      "anten": 3387,
      "chte": 3388,
      "unde": 3389,
      "uro": 3390,
      "stän": 3391,
      "ily": 3392,
      "elijk": 3393,
      "autre": 3394,
      "rob": 3395,
      "rop": 3396,
      "ammer": 3397,
      "lais": 3398,
      "omat": 3399,
      "sec": 3400,
      "ington": 3401,
      "toep": 3402,
      "qué": 3403,
      "quant": 3404,
      "ouve": 3405,
      "verse": 3406,
      "versie": 3407,
      "radio": 3408,
      "schl": 3409,
      "schul": 3410,
      "immer": 3411,
      "cember": 3412,
      "park": 3413,
      "util": 3414,
      "maakte": 3415,
      "point": 3416,
      "ulous": 3417,
      "kele": 3418,
      "rukt": 3419,
      "suff": 3420,
      "sider": 3421,
      "itein": 3422,
      "ayant": 3423,
      "ivre": 3424,
      "ived": 3425,
      "permet": 3426,
      "liet": 3427,
      "manage": 3428,
      "Ant": 3429,
      "Ange": 3430,
      "Unis": 3431,
      "avor": 3432,
      "aving": 3433,
      "partment": 3434,
      "Alban": 3435,
      "Arts": 3436,
      "compil": 3437,
      "Verw": 3438,
      "interview": 3439,
      "1978": 3440,
      "1984": 3441,
      "Erst": 3442,
      "besonder": 3443,
      "ellschaft": 3444,
      "beide": 3445,
      "allem": 3446,
      "earch": 3447,
      "syn": 3448,
      "1940": 3449,
      "1942": 3450,
      "oktober": 3451,
      "offer": 3452,
      "foot": 3453,
      "Orts": 3454,
      "reiche": 3455,
      "premières": 3456,
      "Ital": 3457,
      "organisation": 3458,
      "medaille": 3459,
      "specif": 3460,
      "klein": 3461,
      "particul": 3462,
      "koning": 3463,
      "elect": 3464,
      "behoort": 3465,
      "success": 3466,
      "lossen": 3467,
      "Dezember": 3468,
      "zelfde": 3469,
      "bouw": 3470,
      "pedition": 3471,
      "Volks": 3472,
      "États": 3473,
      "construction": 3474,
      "quelques": 3475,
      "Nieu": 3476,
      "princip": 3477,
      "Zentim": 3478,
      "karten": 3479,
      "simple": 3480,
      "janvier": 3481,
      "video": 3482,
      "important": 3483,
      "eeuw": 3484,
      "mäß": 3485,
      "District": 3486,
      "Kennedy": 3487,
      "époque": 3488,
      "Sacramento": 3489,
      "vliesvleugel": 3490,
      "toepass": 3491,
      "34": 3492,
      "51": 3493,
      "65": 3494,
      "Alex": 3495,
      "Band": 3496,
      "Bru": 3497,
      "Ces": 3498,
      "Center": 3499,
      "Dire": 3500,
      "Divis": 3501,
      "Gottes": 3502,
      "Hy": 3503,
      "Hein": 3504,
      "Ira": 3505,
      "Kamer": 3506,
      "Lin": 3507,
      "Lat": 3508,
      "Mes": 3509,
      "Nic": 3510,
      "One": 3511,
      "Pla": 3512,
      "Rud": 3513,
      "River": 3514,
      "SA": 3515,
      "SP": 3516,
      "To": 3517,
      "Tour": 3518,
      "Winter": 3519,
      "bs": 3520,
      "bir": 3521,
      "bibli": 3522,
      "buiten": 3523,
      "cast": 3524,
      "celle": 3525,
      "dad": 3526,
      "fang": 3527,
      "gau": 3528,
      "glo": 3529,
      "gouver": 3530,
      "given": 3531,
      "hou": 3532,
      "hold": 3533,
      "iat": 3534,
      "kre": 3535,
      "kill": 3536,
      "kins": 3537,
      "kilom": 3538,
      "len": 3539,
      "othe": 3540,
      "pays": 3541,
      "via": 3542,
      "viel": 3543,
      "vlinder": 3544,
      "während": 3545,
      "zil": 3546,
      "École": 3547,
      "äd": 3548,
      "äts": 3549,
      "één": 3550,
      "ébec": 3551,
      "öst": 3552,
      "encore": 3553,
      "erder": 3554,
      "inte": 3555,
      "initi": 3556,
      "debut": 3557,
      "chien": 3558,
      "chingen": 3559,
      "ares": 3560,
      "order": 3561,
      "tele": 3562,
      "aling": 3563,
      "along": 3564,
      "ita": 3565,
      "rece": 3566,
      "remain": 3567,
      "aties": 3568,
      "story": 3569,
      "stüt": 3570,
      "illa": 3571,
      "roi": 3572,
      "among": 3573,
      "seite": 3574,
      "seule": 3575,
      "toulous": 3576,
      "quent": 3577,
      "1900": 3578,
      "tera": 3579,
      "term": 3580,
      "rage": 3581,
      "imp": 3582,
      "imat": 3583,
      "ird": 3584,
      "irk": 3585,
      "vec": 3586,
      "vembre": 3587,
      "meestal": 3588,
      "neh": 3589,
      "genden": 3590,
      "administ": 3591,
      "less": 3592,
      "contro": 3593,
      "consider": 3594,
      "ford": 3595,
      "achsen": 3596,
      "compos": 3597,
      "dige": 3598,
      "process": 3599,
      "lige": 3600,
      "super": 3601,
      "ately": 3602,
      "rieben": 3603,
      "anger": 3604,
      "explo": 3605,
      "ienen": 3606,
      "uitge": 3607,
      "publie": 3608,
      "Schloss": 3609,
      "people": 3610,
      "mittel": 3611,
      "étu": 3612,
      "gespe": 3613,
      "finales": 3614,
      "Bevöl": 3615,
      "show": 3616,
      "novembre": 3617,
      "izen": 3618,
      "Maria": 3619,
      "compan": 3620,
      "compétition": 3621,
      "1962": 3622,
      "1971": 3623,
      "1974": 3624,
      "ellen": 3625,
      "160": 3626,
      "digde": 3627,
      "telt": 3628,
      "ically": 3629,
      "others": 3630,
      "Carl": 3631,
      "1930": 3632,
      "seinem": 3633,
      "Prof": 3634,
      "kelijk": 3635,
      "worked": 3636,
      "home": 3637,
      "Mitte": 3638,
      "Techn": 3639,
      "iën": 3640,
      "etzt": 3641,
      "1928": 3642,
      "popular": 3643,
      "vinden": 3644,
      "could": 3645,
      "Feier": 3646,
      "playing": 3647,
      "Costa": 3648,
      "Québec": 3649,
      "helm": 3650,
      "nouvelle": 3651,
      "Expedition": 3652,
      "dienst": 3653,
      "ailles": 3654,
      "change": 3655,
      "Music": 3656,
      "souvent": 3657,
      "USA": 3658,
      "Fürstenberg": 3659,
      "featured": 3660,
      "writer": 3661,
      "written": 3662,
      "Belg": 3663,
      "Win32": 3664,
      "RISCOS": 3665,
      "However": 3666,
      "Castle": 3667,
      "Februar": 3668,
      "verschiedenen": 3669,
      "Klein": 3670,
      "Coburn": 3671,
      "difféomorphisme": 3672,
      "document": 3673,
      "Jacques": 3674,
      "Madr": 3675,
      "systeem": 3676,
      "famille": 3677,
      "möglich": 3678,
      "methode": 3679,
      "Schweiz": 3680,
      "author": 3681,
      "gestellt": 3682,
      "verschillende": 3683,
      "Wyatt": 3684,
      "ehemal": 3685,
      "Goodrem": 3686,
      "kreeg": 3687,
      "Matthews": 3688,
      "CEO": 3689,
      "zowel": 3690,
      "toulousain": 3691,
      "Bevölker": 3692,
      "36": 3693,
      "41": 3694,
      "75": 3695,
      "82": 3696,
      "Adam": 3697,
      "BS": 3698,
      "Ben": 3699,
      "Bas": 3700,
      "CD": 3701,
      "Cat": 3702,
      "Du": 3703,
      "Fig": 3704,
      "Fir": 3705,
      "Flu": 3706,
      "Ham": 3707,
      "ID": 3708,
      "Kap": 3709,
      "Mé": 3710,
      "Mün": 3711,
      "Not": 3712,
      "Pu": 3713,
      "Prem": 3714,
      "Sto": 3715,
      "Soc": 3716,
      "Tim": 3717,
      "Thom": 3718,
      "There": 3719,
      "Wur": 3720,
      "Wien": 3721,
      "Während": 3722,
      "Zitu": 3723,
      "ael": 3724,
      "ba": 3725,
      "baan": 3726,
      "cke": 3727,
      "cause": 3728,
      "corps": 3729,
      "down": 3730,
      "evangel": 3731,
      "feld": 3732,
      "falls": 3733,
      "favor": 3734,
      "gal": 3735,
      "gae": 3736,
      "hre": 3737,
      "huit": 3738,
      "iken": 3739,
      "krij": 3740,
      "krain": 3741,
      "list": 3742,
      "lès": 3743,
      "mt": 3744,
      "nel": 3745,
      "pts": 3746,
      "rond": 3747,
      "sus": 3748,
      "tru": 3749,
      "vé": 3750,
      "wat": 3751,
      "wijk": 3752,
      "âteau": 3753,
      "ène": 3754,
      "ép": 3755,
      "ôt": 3756,
      "ût": 3757,
      "üb": 3758,
      "ensuite": 3759,
      "ini": 3760,
      "information": 3761,
      "ane": 3762,
      "dev": 3763,
      "cho": 3764,
      "chsel": 3765,
      "ora": 3766,
      "teach": 3767,
      "hein": 3768,
      "relat": 3769,
      "relig": 3770,
      "level": 3771,
      "still": 3772,
      "ets": 3773,
      "roman": 3774,
      "amér": 3775,
      "lager": 3776,
      "omb": 3777,
      "seig": 3778,
      "septe": 3779,
      "inger": 3780,
      "toute": 3781,
      "oude": 3782,
      "verd": 3783,
      "ichts": 3784,
      "ception": 3785,
      "meur": 3786,
      "meeste": 3787,
      "addition": 3788,
      "advies": 3789,
      "einige": 3790,
      "locomot": 3791,
      "Inclusive": 3792,
      "wechsel": 3793,
      "abhän": 3794,
      "diat": 3795,
      "Depuis": 3796,
      "prob": 3797,
      "protest": 3798,
      "poste": 3799,
      "kevers": 3800,
      "Stich": 3801,
      "Staat": 3802,
      "Staats": 3803,
      "rif": 3804,
      "sph": 3805,
      "spelen": 3806,
      "lib": 3807,
      "zehn": 3808,
      "supé": 3809,
      "aco": 3810,
      "announced": 3811,
      "180": 3812,
      "moder": 3813,
      "moet": 3814,
      "mogelijk": 3815,
      "réf": 3816,
      "wart": 3817,
      "Schied": 3818,
      "aande": 3819,
      "itete": 3820,
      "ife": 3821,
      "début": 3822,
      "plaat": 3823,
      "And": 3824,
      "Angle": 3825,
      "Union": 3826,
      "avait": 3827,
      "gere": 3828,
      "Chong": 3829,
      "bens": 3830,
      "Eng": 3831,
      "Ende": 3832,
      "Auch": 3833,
      "trava": 3834,
      "issant": 3835,
      "phil": 3836,
      "november": 3837,
      "gebied": 3838,
      "essent": 3839,
      "comple": 3840,
      "compag": 3841,
      "ohne": 3842,
      "illed": 3843,
      "rence": 3844,
      "deling": 3845,
      "1963": 3846,
      "1972": 3847,
      "commedia": 3848,
      "object": 3849,
      "previous": 3850,
      "volgens": 3851,
      "mberg": 3852,
      "ände": 3853,
      "vidu": 3854,
      "bestuur": 3855,
      "total": 3856,
      "ght": 3857,
      "strijden": 3858,
      "mater": 3859,
      "halve": 3860,
      "1932": 3861,
      "1936": 3862,
      "1939": 3863,
      "entreprise": 3864,
      "nature": 3865,
      "College": 3866,
      "trop": 3867,
      "alisme": 3868,
      "family": 3869,
      "passe": 3870,
      "popula": 3871,
      "frü": 3872,
      "Europa": 3873,
      "nombreuses": 3874,
      "damit": 3875,
      "started": 3876,
      "ligt": 3877,
      "azine": 3878,
      "opening": 3879,
      "various": 3880,
      "origine": 3881,
      "seizoenen": 3882,
      "gaben": 3883,
      "Class": 3884,
      "current": 3885,
      "rechts": 3886,
      "qualifi": 3887,
      "allenge": 3888,
      "Jugend": 3889,
      "architecture": 3890,
      "signific": 3891,
      "État": 3892,
      "verwendet": 3893,
      "Johannes": 3894,
      "economic": 3895,
      "Radio": 3896,
      "Championship": 3897,
      "Bundes": 3898,
      "County": 3899,
      "Canada": 3900,
      "Scott": 3901,
      "individu": 3902,
      "inspir": 3903,
      "Democracy": 3904,
      "Toulon": 3905,
      "instrument": 3906,
      "Academy": 3907,
      "oemd": 3908,
      "Bärenstein": 3909,
      "Zentimeter": 3910,
      "Zitui": 3911,
      "septembre": 3912,
      "supérie": 3913,
      "Schiedam": 3914,
      "Angleterre": 3915,
      "%)": 3916,
      ",\"": 3917,
      ",.": 3918,
      "1000": 3919,
      "43": 3920,
      "49": 3921,
      "55": 3922,
      "Ap": 3923,
      "Ath": 3924,
      "Asi": 3925,
      "Bay": 3926,
      "Blan": 3927,
      "Bret": 3928,
      "Cur": 3929,
      "Clu": 3930,
      "Don": 3931,
      "Ep": 3932,
      "Ear": 3933,
      "Esc": 3934,
      "FA": 3935,
      "Fach": 3936,
      "Hö": 3937,
      "Hand": 3938,
      "Hann": 3939,
      "Harr": 3940,
      "Honor": 3941,
      "Ill": 3942,
      "Kun": 3943,
      "Kün": 3944,
      "Kriegs": 3945,
      "Lie": 3946,
      "Lab": 3947,
      "Lour": 3948,
      "Län": 3949,
      "Mer": 3950,
      "Mid": 3951,
      "Nik": 3952,
      "Oli": 3953,
      "Pöhl": 3954,
      "Son": 3955,
      "Sun": 3956,
      "Sige": 3957,
      "ax": 3958,
      "base": 3959,
      "cte": 3960,
      "clo": 3961,
      "ez": 3962,
      "europ": 3963,
      "fra": 3964,
      "fond": 3965,
      "ides": 3966,
      "jähr": 3967,
      "kün": 3968,
      "lauf": 3969,
      "lungen": 3970,
      "micro": 3971,
      "museum": 3972,
      "ni": 3973,
      "namen": 3974,
      "piè": 3975,
      "ris": 3976,
      "rary": 3977,
      "san": 3978,
      "sal": 3979,
      "tig": 3980,
      "tant": 3981,
      "tain": 3982,
      "table": 3983,
      "ui": 3984,
      "vla": 3985,
      "vic": 3986,
      "vul": 3987,
      "wing": 3988,
      "wik": 3989,
      "welt": 3990,
      "wär": 3991,
      "äche": 3992,
      "édie": 3993,
      "érie": 3994,
      "émission": 3995,
      "üter": 3996,
      "“.": 3997,
      "ented": 3998,
      "erhalten": 3999,
      "indu": 4000,
      "innen": 4001,
      "industrie": 4002,
      "ano": 4003,
      "deeld": 4004,
      "debu": 4005,
      "devient": 4006,
      "onge": 4007,
      "château": 4008,
      "islat": 4009,
      "arter": 4010,
      "arts": 4011,
      "orde": 4012,
      "orts": 4013,
      "tete": 4014,
      "heiten": 4015,
      "alde": 4016,
      "ites": 4017,
      "itor": 4018,
      "représent": 4019,
      "ata": 4020,
      "ature": 4021,
      "leeft": 4022,
      "gehe": 4023,
      "geven": 4024,
      "gether": 4025,
      "stag": 4026,
      "stème": 4027,
      "ention": 4028,
      "entlich": 4029,
      "elft": 4030,
      "rock": 4031,
      "sey": 4032,
      "tois": 4033,
      "olen": 4034,
      "icip": 4035,
      "vertre": 4036,
      "vangen": 4037,
      "bew": 4038,
      "bez": 4039,
      "schw": 4040,
      "schied": 4041,
      "imens": 4042,
      "died": 4043,
      "tenant": 4044,
      "berht": 4045,
      "needs": 4046,
      "eens": 4047,
      "look": 4048,
      "contempor": 4049,
      "antie": 4050,
      "wege": 4051,
      "weil": 4052,
      "wegen": 4053,
      "absol": 4054,
      "prop": 4055,
      "apol": 4056,
      "Stre": 4057,
      "Stud": 4058,
      "riff": 4059,
      "aflever": 4060,
      "ots": 4061,
      "sud": 4062,
      "acce": 4063,
      "respect": 4064,
      "ontwik": 4065,
      "emp": 4066,
      "voorbeeld": 4067,
      "moe": 4068,
      "sible": 4069,
      "associ": 4070,
      "demi": 4071,
      "dés": 4072,
      "ikan": 4073,
      "llen": 4074,
      "lied": 4075,
      "manager": 4076,
      "artic": 4077,
      "Record": 4078,
      "count": 4079,
      "sitzen": 4080,
      "ordon": 4081,
      "landen": 4082,
      "Engel": 4083,
      "Engl": 4084,
      "Außerdem": 4085,
      "train": 4086,
      "issance": 4087,
      "marque": 4088,
      "blij": 4089,
      "voy": 4090,
      "voir": 4091,
      "ips": 4092,
      "phase": 4093,
      "fact": 4094,
      "gebiet": 4095,
      "illet": 4096,
      "recken": 4097,
      "recense": 4098,
      "dels": 4099,
      "volk": 4100,
      "grote": 4101,
      "große": 4102,
      "boven": 4103,
      "erstmals": 4104,
      "1946": 4105,
      "1949": 4106,
      "speelde": 4107,
      "okument": 4108,
      "1951": 4109,
      "1956": 4110,
      "Organ": 4111,
      "producer": 4112,
      "taken": 4113,
      "dabei": 4114,
      "month": 4115,
      "diesem": 4116,
      "orpor": 4117,
      "built": 4118,
      "Chron": 4119,
      "fense": 4120,
      "1907": 4121,
      "centr": 4122,
      "named": 4123,
      "Gesellschaft": 4124,
      "1885": 4125,
      "Isra": 4126,
      "blies": 4127,
      "soll": 4128,
      "politique": 4129,
      "ligne": 4130,
      "director": 4131,
      "Canade": 4132,
      "effet": 4133,
      "Weltmeister": 4134,
      "Maur": 4135,
      "juin": 4136,
      "juillet": 4137,
      "beschik": 4138,
      "ihren": 4139,
      "tegenwoor": 4140,
      "Kevin": 4141,
      "série": 4142,
      "Bernter": 4143,
      "relation": 4144,
      "posed": 4145,
      "Haupt": 4146,
      "néces": 4147,
      "weitere": 4148,
      "architect": 4149,
      "Juli": 4150,
      "July": 4151,
      "green": 4152,
      "Institut": 4153,
      "Nieder": 4154,
      "respond": 4155,
      "République": 4156,
      "eiland": 4157,
      "full": 4158,
      "February": 4159,
      "period": 4160,
      "territoire": 4161,
      "Untersuchungsausschuss": 4162,
      "Geschichte": 4163,
      "Gaulle": 4164,
      "bekannt": 4165,
      "Sprachen": 4166,
      "institution": 4167,
      "espace": 4168,
      "October": 4169,
      "ttemberg": 4170,
      "grootste": 4171,
      "assemblies": 4172,
      "according": 4173,
      "gespeeld": 4174,
      "companies": 4175,
      "Professor": 4176,
      "Wurf": 4177,
      "améric": 4178,
      "abhäng": 4179,
      "Sigeberht": 4180,
      "elftal": 4181,
      ".)": 4182,
      "37": 4183,
      "39": 4184,
      "53": 4185,
      "56": 4186,
      "97": 4187,
      "AD": 4188,
      "Ac": 4189,
      "Aven": 4190,
      "Avec": 4191,
      "Bi": 4192,
      "Bou": 4193,
      "Bul": 4194,
      "Bill": 4195,
      "Che": 4196,
      "Cre": 4197,
      "Cam": 4198,
      "Fort": 4199,
      "Hz": 4200,
      "Hil": 4201,
      "Hist": 4202,
      "IL": 4203,
      "Ilex": 4204,
      "Ident": 4205,
      "Ko": 4206,
      "Kie": 4207,
      "Klo": 4208,
      "Light": 4209,
      "Men": 4210,
      "Noor": 4211,
      "Name": 4212,
      "Ol": 4213,
      "Oper": 4214,
      "Orange": 4215,
      "Pf": 4216,
      "Pä": 4217,
      "Pan": 4218,
      "Pet": 4219,
      "Sm": 4220,
      "Sil": 4221,
      "Tal": 4222,
      "Twee": 4223,
      "Vall": 4224,
      "Vide": 4225,
      "When": 4226,
      "aim": 4227,
      "bord": 4228,
      "batt": 4229,
      "book": 4230,
      "bürger": 4231,
      "cus": 4232,
      "cles": 4233,
      "care": 4234,
      "case": 4235,
      "dorf": 4236,
      "each": 4237,
      "gie": 4238,
      "gaan": 4239,
      "game": 4240,
      "good": 4241,
      "guerre": 4242,
      "hm": 4243,
      "hon": 4244,
      "ials": 4245,
      "ians": 4246,
      "jul": 4247,
      "ki": 4248,
      "kin": 4249,
      "kas": 4250,
      "kent": 4251,
      "kol": 4252,
      "kten": 4253,
      "kön": 4254,
      "lij": 4255,
      "lant": 4256,
      "lijke": 4257,
      "mel": 4258,
      "mers": 4259,
      "mone": 4260,
      "much": 4261,
      "nas": 4262,
      "pan": 4263,
      "pie": 4264,
      "paar": 4265,
      "père": 4266,
      "rä": 4267,
      "rer": 4268,
      "ril": 4269,
      "rand": 4270,
      "rist": 4271,
      "russ": 4272,
      "raum": 4273,
      "sort": 4274,
      "sour": 4275,
      "tum": 4276,
      "tak": 4277,
      "tschaft": 4278,
      "titel": 4279,
      "vend": 4280,
      "vue": 4281,
      "wit": 4282,
      "women": 4283,
      "yon": 4284,
      "èse": 4285,
      "évol": 4286,
      "éolog": 4287,
      "ît": 4288,
      "ître": 4289,
      "ôle": 4290,
      "enig": 4291,
      "enkele": 4292,
      "iné": 4293,
      "inge": 4294,
      "invol": 4295,
      "incre": 4296,
      "dec": 4297,
      "decis": 4298,
      "ona": 4299,
      "esch": 4300,
      "essen": 4301,
      "iete": 4302,
      "iety": 4303,
      "reu": 4304,
      "reç": 4305,
      "reed": 4306,
      "ati": 4307,
      "leger": 4308,
      "gegeben": 4309,
      "stop": 4310,
      "statt": 4311,
      "derde": 4312,
      "aud": 4313,
      "aume": 4314,
      "amb": 4315,
      "lacht": 4316,
      "omdat": 4317,
      "omob": 4318,
      "sehen": 4319,
      "icago": 4320,
      "quelle": 4321,
      "denen": 4322,
      "dence": 4323,
      "1920": 4324,
      "1911": 4325,
      "igte": 4326,
      "igent": 4327,
      "igten": 4328,
      "ichten": 4329,
      "bede": 4330,
      "beau": 4331,
      "bezeich": 4332,
      "schnit": 4333,
      "schappen": 4334,
      "immen": 4335,
      "those": 4336,
      "tenu": 4337,
      "mei": 4338,
      "bery": 4339,
      "ney": 4340,
      "near": 4341,
      "neut": 4342,
      "uments": 4343,
      "due": 4344,
      "parts": 4345,
      "utes": 4346,
      "isches": 4347,
      "lois": 4348,
      "loop": 4349,
      "lower": 4350,
      "conference": 4351,
      "anti": 4352,
      "commen": 4353,
      "maire": 4354,
      "maart": 4355,
      "propos": 4356,
      "appro": 4357,
      "Star": 4358,
      "spé": 4359,
      "spre": 4360,
      "spap": 4361,
      "rue": 4362,
      "access": 4363,
      "ansluit": 4364,
      "annt": 4365,
      "mod": 4366,
      "moy": 4367,
      "move": 4368,
      "model": 4369,
      "moved": 4370,
      "rée": 4371,
      "Leun": 4372,
      "extra": 4373,
      "assist": 4374,
      "endorf": 4375,
      "ifier": 4376,
      "déc": 4377,
      "works": 4378,
      "étés": 4379,
      "geste": 4380,
      "geslacht": 4381,
      "Francis": 4382,
      "China": 4383,
      "Chicago": 4384,
      "shop": 4385,
      "short": 4386,
      "Alle": 4387,
      "Artois": 4388,
      "geboren": 4389,
      "gebouw": 4390,
      "ivement": 4391,
      "izin": 4392,
      "Mark": 4393,
      "compte": 4394,
      "ktor": 4395,
      "recru": 4396,
      "jeun": 4397,
      "rencontre": 4398,
      "1981": 4399,
      "Span": 4400,
      "großen": 4401,
      "igny": 4402,
      "ération": 4403,
      "durant": 4404,
      "board": 4405,
      "boek": 4406,
      "waarin": 4407,
      "1944": 4408,
      "1948": 4409,
      "published": 4410,
      "telle": 4411,
      "bestu": 4412,
      "nommé": 4413,
      "spect": 4414,
      "graf": 4415,
      "ghan": 4416,
      "half": 4417,
      "1937": 4418,
      "zogen": 4419,
      "native": 4420,
      "folge": 4421,
      "take": 4422,
      "französ": 4423,
      "better": 4424,
      "selbst": 4425,
      "reef": 4426,
      "musical": 4427,
      "mondi": 4428,
      "Abgeordn": 4429,
      "Post": 4430,
      "komt": 4431,
      "kommen": 4432,
      "gewann": 4433,
      "villa": 4434,
      "dti": 4435,
      "bara": 4436,
      "ihn": 4437,
      "Brin": 4438,
      "Comp": 4439,
      "danach": 4440,
      "diffus": 4441,
      "différ": 4442,
      "locks": 4443,
      "Landtag": 4444,
      "stark": 4445,
      "donc": 4446,
      "rapport": 4447,
      "Deutschen": 4448,
      "iction": 4449,
      "correspond": 4450,
      "gehört": 4451,
      "äude": 4452,
      "deutsche": 4453,
      "1857": 4454,
      "Michael": 4455,
      "titres": 4456,
      "Süd": 4457,
      "Südti": 4458,
      "George": 4459,
      "designed": 4460,
      "situation": 4461,
      "Glas": 4462,
      "Davis": 4463,
      "technology": 4464,
      "virtu": 4465,
      "ministre": 4466,
      "ASGB": 4467,
      "Bremen": 4468,
      "municip": 4469,
      "eilanden": 4470,
      "fonction": 4471,
      "Mexico": 4472,
      "India": 4473,
      "Indian": 4474,
      "human": 4475,
      "wohl": 4476,
      "élite": 4477,
      "üsse": 4478,
      "Philippe": 4479,
      "contract": 4480,
      "kirche": 4481,
      "bildung": 4482,
      "Fahrze": 4483,
      "Fußball": 4484,
      "toujours": 4485,
      "britischen": 4486,
      "jarige": 4487,
      "described": 4488,
      "ribution": 4489,
      "période": 4490,
      "Group": 4491,
      "multip": 4492,
      "tournament": 4493,
      "attempt": 4494,
      "suivante": 4495,
      "Personen": 4496,
      "Württemberg": 4497,
      "théâtre": 4498,
      "robbery": 4499,
      "management": 4500,
      "seulement": 4501,
      "Madrid": 4502,
      "Bevölkerung": 4503,
      "seigneur": 4504,
      "Club": 4505,
      "debuut": 4506,
      "Records": 4507,
      "HzL": 4508,
      "Pädiat": 4509,
      "juli": 4510,
      "money": 4511,
      "',": 4512,
      "46": 4513,
      "72": 4514,
      "89": 4515,
      "AC": 4516,
      "Ag": 4517,
      "Cap": 4518,
      "Corn": 4519,
      "Dre": 4520,
      "Dou": 4521,
      "Emp": 4522,
      "Eisen": 4523,
      "Fel": 4524,
      "Fall": 4525,
      "From": 4526,
      "Festival": 4527,
      "Gle": 4528,
      "Gem": 4529,
      "Gold": 4530,
      "Gordon": 4531,
      "Hans": 4532,
      "Hill": 4533,
      "Hack": 4534,
      "Jack": 4535,
      "Kl": 4536,
      "Kat": 4537,
      "Lud": 4538,
      "Map": 4539,
      "Mass": 4540,
      "Nou": 4541,
      "Rica": 4542,
      "Sig": 4543,
      "Seine": 4544,
      "Sén": 4545,
      "Ty": 4546,
      "Tag": 4547,
      "Trum": 4548,
      "Vis": 4549,
      "Vier": 4550,
      "Wissen": 4551,
      "Wash": 4552,
      "XI": 4553,
      "Xe": 4554,
      "Young": 4555,
      "].": 4556,
      "aign": 4557,
      "blo": 4558,
      "bul": 4559,
      "boo": 4560,
      "bare": 4561,
      "bute": 4562,
      "cu": 4563,
      "dll": 4564,
      "eur": 4565,
      "ever": 4566,
      "fel": 4567,
      "fest": 4568,
      "fern": 4569,
      "för": 4570,
      "gun": 4571,
      "ham": 4572,
      "iper": 4573,
      "ja": 4574,
      "jal": 4575,
      "jur": 4576,
      "jam": 4577,
      "klo": 4578,
      "kauf": 4579,
      "kind": 4580,
      "keine": 4581,
      "ls": 4582,
      "lise": 4583,
      "län": 4584,
      "light": 4585,
      "liste": 4586,
      "listen": 4587,
      "ming": 4588,
      "mill": 4589,
      "mouve": 4590,
      "nar": 4591,
      "nent": 4592,
      "ness": 4593,
      "ogen": 4594,
      "pa": 4595,
      "pic": 4596,
      "sü": 4597,
      "tau": 4598,
      "turn": 4599,
      "télé": 4600,
      "vig": 4601,
      "vain": 4602,
      "vlie": 4603,
      "vice": 4604,
      "vaux": 4605,
      "vrier": 4606,
      "wind": 4607,
      "wähn": 4608,
      "zial": 4609,
      "Étr": 4610,
      "äischen": 4611,
      "ènement": 4612,
      "édition": 4613,
      "ône": 4614,
      "ücke": 4615,
      "ener": 4616,
      "ino": 4617,
      "inten": 4618,
      "inois": 4619,
      "inclusive": 4620,
      "deal": 4621,
      "onom": 4622,
      "chts": 4623,
      "child": 4624,
      "iser": 4625,
      "arily": 4626,
      "tee": 4627,
      "teerd": 4628,
      "heden": 4629,
      "alth": 4630,
      "alten": 4631,
      "itie": 4632,
      "ieu": 4633,
      "iele": 4634,
      "refer": 4635,
      "atis": 4636,
      "atives": 4637,
      "leb": 4638,
      "lead": 4639,
      "leiding": 4640,
      "urm": 4641,
      "gem": 4642,
      "geeft": 4643,
      "sty": 4644,
      "stage": 4645,
      "entstand": 4646,
      "elf": 4647,
      "rode": 4648,
      "rois": 4649,
      "ross": 4650,
      "laat": 4651,
      "laquelle": 4652,
      "sech": 4653,
      "together": 4654,
      "quart": 4655,
      "oulos": 4656,
      "verander": 4657,
      "igade": 4658,
      "terrain": 4659,
      "rail": 4660,
      "vanaf": 4661,
      "uset": 4662,
      "bep": 4663,
      "befindet": 4664,
      "scher": 4665,
      "ationen": 4666,
      "meet": 4667,
      "mechan": 4668,
      "wert": 4669,
      "general": 4670,
      "ducation": 4671,
      "parfois": 4672,
      "pri": 4673,
      "prä": 4674,
      "condition": 4675,
      "ida": 4676,
      "Insel": 4677,
      "Industrie": 4678,
      "computer": 4679,
      "weils": 4680,
      "hren": 4681,
      "abin": 4682,
      "maison": 4683,
      "dium": 4684,
      "provi": 4685,
      "ranger": 4686,
      "rière": 4687,
      "ribu": 4688,
      "spil": 4689,
      "space": 4690,
      "agt": 4691,
      "resul": 4692,
      "result": 4693,
      "movie": 4694,
      "réus": 4695,
      "League": 4696,
      "exten": 4697,
      "existe": 4698,
      "pute": 4699,
      "plann": 4700,
      "endant": 4701,
      "dépend": 4702,
      "déclar": 4703,
      "ouri": 4704,
      "word": 4705,
      "iker": 4706,
      "gelang": 4707,
      "artist": 4708,
      "ooit": 4709,
      "Anna": 4710,
      "within": 4711,
      "Reise": 4712,
      "Unabhäng": 4713,
      "avin": 4714,
      "avril": 4715,
      "code": 4716,
      "Challenge": 4717,
      "Beispiel": 4718,
      "shows": 4719,
      "trag": 4720,
      "travers": 4721,
      "surface": 4722,
      "voie": 4723,
      "Arn": 4724,
      "Arle": 4725,
      "urspr": 4726,
      "trat": 4727,
      "Marie": 4728,
      "Laur": 4729,
      "compon": 4730,
      "feder": 4731,
      "febru": 4732,
      "ondissement": 4733,
      "area": 4734,
      "recog": 4735,
      "jeweils": 4736,
      "Rock": 4737,
      "1986": 4738,
      "eller": 4739,
      "nieder": 4740,
      "occup": 4741,
      "alley": 4742,
      "hoog": 4743,
      "1947": 4744,
      "aiser": 4745,
      "links": 4746,
      "1953": 4747,
      "1957": 4748,
      "1958": 4749,
      "scul": 4750,
      "brid": 4751,
      "werkte": 4752,
      "halt": 4753,
      "église": 4754,
      "1933": 4755,
      "dochter": 4756,
      "vader": 4757,
      "type": 4758,
      "premiers": 4759,
      "collect": 4760,
      "self": 4761,
      "isterschaft": 4762,
      "presented": 4763,
      "gewählt": 4764,
      "klass": 4765,
      "archéolog": 4766,
      "community": 4767,
      "Bohe": 4768,
      "Team": 4769,
      "organise": 4770,
      "gemeinde": 4771,
      "belie": 4772,
      "going": 4773,
      "medailles": 4774,
      "basic": 4775,
      "1929": 4776,
      "1906": 4777,
      "kleur": 4778,
      "stellung": 4779,
      "Afghan": 4780,
      "include": 4781,
      "includes": 4782,
      "gezonden": 4783,
      "gelegt": 4784,
      "Barbara": 4785,
      "Vorsitzen": 4786,
      "court": 4787,
      "help": 4788,
      "Holland": 4789,
      "Hollid": 4790,
      "Islam": 4791,
      "grands": 4792,
      "Luci": 4793,
      "arrondissement": 4794,
      "darauf": 4795,
      "topoulos": 4796,
      "férence": 4797,
      "ciné": 4798,
      "celui": 4799,
      "lorsque": 4800,
      "Roman": 4801,
      "Januar": 4802,
      "porte": 4803,
      "ächst": 4804,
      "Besitz": 4805,
      "molens": 4806,
      "dustri": 4807,
      "destag": 4808,
      "programma": 4809,
      "Domkap": 4810,
      "campaign": 4811,
      "Fotopoulos": 4812,
      "principal": 4813,
      "respon": 4814,
      "cording": 4815,
      "development": 4816,
      "employ": 4817,
      "Spieler": 4818,
      "prises": 4819,
      "Königsw": 4820,
      "émie": 4821,
      "ruppe": 4822,
      "periode": 4823,
      "Bundestag": 4824,
      "continu": 4825,
      "small": 4826,
      "Bilde": 4827,
      "pract": 4828,
      "ebenfalls": 4829,
      "since": 4830,
      "exempl": 4831,
      "Gewerkschafts": 4832,
      "Duitse": 4833,
      "field": 4834,
      "wickl": 4835,
      "Philatelie": 4836,
      "appeared": 4837,
      "pointed": 4838,
      "Bereich": 4839,
      "times": 4840,
      "Familie": 4841,
      "Jersey": 4842,
      "Archite": 4843,
      "œuvre": 4844,
      "errichtet": 4845,
      "iteindelijk": 4846,
      "Albanië": 4847,
      "besondere": 4848,
      "football": 4849,
      "Heinrich": 4850,
      "ehemaligen": 4851,
      "moderne": 4852,
      "Harris": 4853,
      "Honoré": 4854,
      "Kunst": 4855,
      "Pöhlbach": 4856,
      "English": 4857,
      "tegenwoordig": 4858,
      "Bernterode": 4859,
      "According": 4860,
      "können": 4861,
      "Unabhängigkeit": 4862,
      "februari": 4863,
      "Afghanistan": 4864,
      "Holliday": 4865,
      "'€": 4866,
      ")-": 4867,
      ".-": 4868,
      ".]": 4869,
      "1er": 4870,
      "64": 4871,
      "66": 4872,
      "Ain": 4873,
      "Ach": 4874,
      "Awards": 4875,
      "Bor": 4876,
      "Blu": 4877,
      "Bour": 4878,
      "Back": 4879,
      "Baden": 4880,
      "Bürger": 4881,
      "Cont": 4882,
      "Dr": 4883,
      "Dé": 4884,
      "Dave": 4885,
      "Fren": 4886,
      "Frei": 4887,
      "Gon": 4888,
      "Gou": 4889,
      "Guerre": 4890,
      "Gavin": 4891,
      "Had": 4892,
      "Just": 4893,
      "Ker": 4894,
      "Khu": 4895,
      "Kinder": 4896,
      "Lé": 4897,
      "Lig": 4898,
      "Los": 4899,
      "Mel": 4900,
      "Mais": 4901,
      "Noord": 4902,
      "Ost": 4903,
      "Pe": 4904,
      "Pun": 4905,
      "Pass": 4906,
      "RC": 4907,
      "Richt": 4908,
      "Sim": 4909,
      "Sci": 4910,
      "Sud": 4911,
      "Tam": 4912,
      "Toch": 4913,
      "Titel": 4914,
      "Tijdens": 4915,
      "Ve": 4916,
      "Vo": 4917,
      "Vin": 4918,
      "WK": 4919,
      "Wie": 4920,
      "Wat": 4921,
      "Wort": 4922,
      "Zusammen": 4923,
      "adel": 4924,
      "bund": 4925,
      "bles": 4926,
      "bres": 4927,
      "brough": 4928,
      "cop": 4929,
      "cated": 4930,
      "dung": 4931,
      "dri": 4932,
      "dru": 4933,
      "ei": 4934,
      "ev": 4935,
      "equ": 4936,
      "fal": 4937,
      "fert": 4938,
      "father": 4939,
      "gde": 4940,
      "gor": 4941,
      "got": 4942,
      "gze": 4943,
      "gré": 4944,
      "gingen": 4945,
      "glichen": 4946,
      "hit": 4947,
      "hain": 4948,
      "hip": 4949,
      "jà": 4950,
      "jury": 4951,
      "kä": 4952,
      "kur": 4953,
      "kund": 4954,
      "kung": 4955,
      "lier": 4956,
      "last": 4957,
      "mut": 4958,
      "mine": 4959,
      "nive": 4960,
      "night": 4961,
      "ock": 4962,
      "oster": 4963,
      "pm": 4964,
      "pur": 4965,
      "pay": 4966,
      "squ": 4967,
      "sett": 4968,
      "summer": 4969,
      "tête": 4970,
      "uf": 4971,
      "viv": 4972,
      "vité": 4973,
      "vijf": 4974,
      "went": 4975,
      "wiss": 4976,
      "wicht": 4977,
      "water": 4978,
      "yser": 4979,
      "zun": 4980,
      "zten": 4981,
      "ètres": 4982,
      "ément": 4983,
      "élu": 4984,
      "öt": 4985,
      "“,": 4986,
      "inform": 4987,
      "investig": 4988,
      "ange": 4989,
      "defin": 4990,
      "deven": 4991,
      "death": 4992,
      "onne": 4993,
      "onnen": 4994,
      "chang": 4995,
      "isted": 4996,
      "orient": 4997,
      "ality": 4998,
      "iek": 4999,
      "rea": 5000,
      "reen": 5001,
      "retour": 5002,
      "repor": 5003,
      "atre": 5004,
      "attra": 5005,
      "univer": 5006,
      "unded": 5007,
      "lech": 5008,
      "leden": 5009,
      "leus": 5010,
      "lets": 5011,
      "left": 5012,
      "lewood": 5013,
      "gegrün": 5014,
      "stär": 5015,
      "strecke": 5016,
      "dert": 5017,
      "entra": 5018,
      "ilen": 5019,
      "illu": 5020,
      "aude": 5021,
      "auto": 5022,
      "seh": 5023,
      "sele": 5024,
      "seul": 5025,
      "search": 5026,
      "september": 5027,
      "toine": 5028,
      "often": 5029,
      "1912": 5030,
      "verein": 5031,
      "igan": 5032,
      "ichier": 5033,
      "terdam": 5034,
      "rate": 5035,
      "race": 5036,
      "edd": 5037,
      "schrij": 5038,
      "schreef": 5039,
      "thing": 5040,
      "opvol": 5041,
      "opgericht": 5042,
      "berger": 5043,
      "neue": 5044,
      "genus": 5045,
      "duo": 5046,
      "eind": 5047,
      "einzel": 5048,
      "eindigde": 5049,
      "utzt": 5050,
      "pression": 5051,
      "präs": 5052,
      "conf": 5053,
      "conn": 5054,
      "conserv": 5055,
      "connu": 5056,
      "forman": 5057,
      "idn": 5058,
      "idig": 5059,
      "ably": 5060,
      "mai": 5061,
      "maal": 5062,
      "making": 5063,
      "diverse": 5064,
      "prote": 5065,
      "potent": 5066,
      "Station": 5067,
      "rian": 5068,
      "rite": 5069,
      "agric": 5070,
      "live": 5071,
      "life": 5072,
      "sug": 5073,
      "lyc": 5074,
      "cially": 5075,
      "voorzien": 5076,
      "mois": 5077,
      "moest": 5078,
      "Lee": 5079,
      "lucht": 5080,
      "expla": 5081,
      "Schles": 5082,
      "iteit": 5083,
      "licher": 5084,
      "ifik": 5085,
      "déjà": 5086,
      "ours": 5087,
      "wurf": 5088,
      "ivent": 5089,
      "étique": 5090,
      "places": 5091,
      "oosten": 5092,
      "Antoine": 5093,
      "served": 5094,
      "illen": 5095,
      "Franse": 5096,
      "herr": 5097,
      "route": 5098,
      "gramm": 5099,
      "1991": 5100,
      "Chico": 5101,
      "indt": 5102,
      "indic": 5103,
      "Auto": 5104,
      "partij": 5105,
      "issent": 5106,
      "marché": 5107,
      "blau": 5108,
      "sole": 5109,
      "Gegen": 5110,
      "vois": 5111,
      "vote": 5112,
      "voit": 5113,
      "Alb": 5114,
      "Army": 5115,
      "nov": 5116,
      "noted": 5117,
      "trente": 5118,
      "gebaut": 5119,
      "ohl": 5120,
      "ohen": 5121,
      "illeurs": 5122,
      "few": 5123,
      "ondance": 5124,
      "delijke": 5125,
      "1965": 5126,
      "1973": 5127,
      "1977": 5128,
      "classe": 5129,
      "besitz": 5130,
      "bijvoorbeeld": 5131,
      "176": 5132,
      "occas": 5133,
      "voll": 5134,
      "volle": 5135,
      "ground": 5136,
      "actor": 5137,
      "auté": 5138,
      "1943": 5139,
      "iana": 5140,
      "offers": 5141,
      "1954": 5142,
      "minent": 5143,
      "gradu": 5144,
      "borne": 5145,
      "Carva": 5146,
      "werking": 5147,
      "1934": 5148,
      "doel": 5149,
      "iled": 5150,
      "reichen": 5151,
      "zoek": 5152,
      "gehö": 5153,
      "week": 5154,
      "Colt": 5155,
      "deuxième": 5156,
      "Provin": 5157,
      "ronde": 5158,
      "reeks": 5159,
      "Onder": 5160,
      "front": 5161,
      "teilung": 5162,
      "Chris": 5163,
      "schools": 5164,
      "engl": 5165,
      "goed": 5166,
      "special": 5167,
      "basis": 5168,
      "groups": 5169,
      "altijd": 5170,
      "geschieden": 5171,
      "century": 5172,
      "newspap": 5173,
      "consult": 5174,
      "stellen": 5175,
      "haben": 5176,
      "elected": 5177,
      "services": 5178,
      "Quel": 5179,
      "studierte": 5180,
      "kwamen": 5181,
      "Germain": 5182,
      "Germany": 5183,
      "1881": 5184,
      "Island": 5185,
      "Gener": 5186,
      "politiques": 5187,
      "Atkins": 5188,
      "district": 5189,
      "ziek": 5190,
      "fémin": 5191,
      "février": 5192,
      "1859": 5193,
      "release": 5194,
      "celles": 5195,
      "Ortste": 5196,
      "Naast": 5197,
      "magazine": 5198,
      "zeichen": 5199,
      "tuin": 5200,
      "armée": 5201,
      "située": 5202,
      "amerikan": 5203,
      "ailleurs": 5204,
      "days": 5205,
      "history": 5206,
      "features": 5207,
      "holly": 5208,
      "italien": 5209,
      "neuen": 5210,
      "located": 5211,
      "Flor": 5212,
      "zeitig": 5213,
      "followed": 5214,
      "black": 5215,
      "great": 5216,
      "westen": 5217,
      "Zweiten": 5218,
      "punten": 5219,
      "personne": 5220,
      "Sammlung": 5221,
      "Bank": 5222,
      "figure": 5223,
      "economy": 5224,
      "emploi": 5225,
      "double": 5226,
      "eventually": 5227,
      "paper": 5228,
      "papier": 5229,
      "directeur": 5230,
      "wedstrijden": 5231,
      "üssen": 5232,
      "Betrieb": 5233,
      "poule": 5234,
      "poules": 5235,
      "Arbeit": 5236,
      "Delft": 5237,
      "wanted": 5238,
      "Party": 5239,
      "candidats": 5240,
      "shooting": 5241,
      "Sprache": 5242,
      "Bischofs": 5243,
      "données": 5244,
      "ancest": 5245,
      "original": 5246,
      "Transliter": 5247,
      "fruits": 5248,
      "radical": 5249,
      "tracks": 5250,
      "functies": 5251,
      "claim": 5252,
      "katholische": 5253,
      "wapen": 5254,
      "elkaar": 5255,
      "innerhalb": 5256,
      "Missouri": 5257,
      "bourg": 5258,
      "constitu": 5259,
      "Standard": 5260,
      "présente": 5261,
      "Bresse": 5262,
      "Caspar": 5263,
      "Rotterdam": 5264,
      "août": 5265,
      "universitaire": 5266,
      "bedrijf": 5267,
      "kampioenschappen": 5268,
      "schluss": 5269,
      "bibliothe": 5270,
      "kilomet": 5271,
      "stütz": 5272,
      "Feierle": 5273,
      "Society": 5274,
      "Thomas": 5275,
      "Escape": 5276,
      "Höhe": 5277,
      "Illinois": 5278,
      "leeftijd": 5279,
      "ontwikkel": 5280,
      "moeder": 5281,
      "Organisation": 5282,
      "Maurice": 5283,
      "relationship": 5284,
      "Tweede": 5285,
      "source": 5286,
      "moyenne": 5287,
      "gesteld": 5288,
      "Maplewood": 5289,
      "Washington": 5290,
      "ursprün": 5291,
      "Domkapitel": 5292,
      "Königswalde": 5293,
      "Ainsi": 5294,
      "French": 5295,
      "brought": 5296,
      "Carvajal": 5297,
      "%,": 5298,
      "120": 5299,
      "54": 5300,
      "59": 5301,
      "69": 5302,
      "77": 5303,
      "78": 5304,
      "700": 5305,
      "86": 5306,
      "88": 5307,
      "AI": 5308,
      "AN": 5309,
      "AT": 5310,
      "Ara": 5311,
      "Bal": 5312,
      "Cal": 5313,
      "Cour": 5314,
      "Cler": 5315,
      "Doc": 5316,
      "Dokument": 5317,
      "Fa": 5318,
      "Far": 5319,
      "Fle": 5320,
      "Fab": 5321,
      "Fichier": 5322,
      "Gent": 5323,
      "Ged": 5324,
      "Gir": 5325,
      "Grie": 5326,
      "Hal": 5327,
      "Hou": 5328,
      "Hig": 5329,
      "Ir": 5330,
      "Jr": 5331,
      "Jes": 5332,
      "Jud": 5333,
      "Li": 5334,
      "Lors": 5335,
      "Later": 5336,
      "Lév": 5337,
      "Londen": 5338,
      "Mur": 5339,
      "Mas": 5340,
      "Mies": 5341,
      "Mos": 5342,
      "Macht": 5343,
      "Net": 5344,
      "Nav": 5345,
      "Over": 5346,
      "Old": 5347,
      "Pom": 5348,
      "Pra": 5349,
      "Pap": 5350,
      "Pak": 5351,
      "Pool": 5352,
      "Ring": 5353,
      "SI": 5354,
      "Sk": 5355,
      "Sar": 5356,
      "Sand": 5357,
      "Sing": 5358,
      "Spr": 5359,
      "Sant": 5360,
      "Sab": 5361,
      "Soh": 5362,
      "Sonn": 5363,
      "Sachsen": 5364,
      "Tem": 5365,
      "Tak": 5366,
      "Town": 5367,
      "Tod": 5368,
      "Wo": 5369,
      "Wit": 5370,
      "Watt": 5371,
      "Wild": 5372,
      "Zum": 5373,
      "avan": 5374,
      "april": 5375,
      "bran": 5376,
      "bischof": 5377,
      "cul": 5378,
      "cate": 5379,
      "came": 5380,
      "canton": 5381,
      "dès": 5382,
      "font": 5383,
      "fire": 5384,
      "fast": 5385,
      "foc": 5386,
      "free": 5387,
      "gon": 5388,
      "gave": 5389,
      "gover": 5390,
      "gaat": 5391,
      "grande": 5392,
      "hé": 5393,
      "hing": 5394,
      "hus": 5395,
      "hib": 5396,
      "kh": 5397,
      "kü": 5398,
      "kro": 5399,
      "kla": 5400,
      "kab": 5401,
      "klin": 5402,
      "kription": 5403,
      "killed": 5404,
      "lè": 5405,
      "lun": 5406,
      "liss": 5407,
      "lance": 5408,
      "mm": 5409,
      "mom": 5410,
      "mass": 5411,
      "mét": 5412,
      "ns": 5413,
      "nul": 5414,
      "nitz": 5415,
      "ole": 5416,
      "ola": 5417,
      "ober": 5418,
      "psy": 5419,
      "punt": 5420,
      "sent": 5421,
      "sil": 5422,
      "sau": 5423,
      "slag": 5424,
      "til": 5425,
      "tap": 5426,
      "uten": 5427,
      "ukrain": 5428,
      "veld": 5429,
      "vrij": 5430,
      "wal": 5431,
      "wür": 5432,
      "wenn": 5433,
      "wald": 5434,
      "yx": 5435,
      "zi": 5436,
      "zü": 5437,
      "Île": 5438,
      "ât": 5439,
      "äf": 5440,
      "çon": 5441,
      "èles": 5442,
      "équ": 5443,
      "éré": 5444,
      "ón": 5445,
      "österreich": 5446,
      "ügel": 5447,
      "ensemble": 5448,
      "erwähn": 5449,
      "inen": 5450,
      "iness": 5451,
      "anst": 5452,
      "angen": 5453,
      "another": 5454,
      "deed": 5455,
      "deut": 5456,
      "once": 5457,
      "isé": 5458,
      "ising": 5459,
      "arg": 5460,
      "ori": 5461,
      "tem": 5462,
      "teidig": 5463,
      "heut": 5464,
      "heits": 5465,
      "alp": 5466,
      "alli": 5467,
      "although": 5468,
      "redu": 5469,
      "reger": 5470,
      "reib": 5471,
      "rechter": 5472,
      "unit": 5473,
      "legen": 5474,
      "leben": 5475,
      "leven": 5476,
      "urer": 5477,
      "urie": 5478,
      "assif": 5479,
      "gedeel": 5480,
      "gemaakt": 5481,
      "stin": 5482,
      "stor": 5483,
      "stamm": 5484,
      "stift": 5485,
      "entarter": 5486,
      "ilit": 5487,
      "eling": 5488,
      "elli": 5489,
      "auli": 5490,
      "roe": 5491,
      "lay": 5492,
      "section": 5493,
      "olie": 5494,
      "ici": 5495,
      "icatie": 5496,
      "ouest": 5497,
      "ouwen": 5498,
      "1914": 5499,
      "veren": 5500,
      "verder": 5501,
      "versi": 5502,
      "verover": 5503,
      "verbun": 5504,
      "termin": 5505,
      "user": 5506,
      "using": 5507,
      "establ": 5508,
      "become": 5509,
      "schol": 5510,
      "thes": 5511,
      "opnieuw": 5512,
      "optera": 5513,
      "oorspr": 5514,
      "ceux": 5515,
      "cembre": 5516,
      "neer": 5517,
      "gene": 5518,
      "genre": 5519,
      "genoemd": 5520,
      "dul": 5521,
      "adop": 5522,
      "einge": 5523,
      "parte": 5524,
      "parks": 5525,
      "parents": 5526,
      "parmi": 5527,
      "prenn": 5528,
      "loß": 5529,
      "loge": 5530,
      "loten": 5531,
      "conc": 5532,
      "conna": 5533,
      "consc": 5534,
      "achuset": 5535,
      "istik": 5536,
      "antes": 5537,
      "comédie": 5538,
      "wehr": 5539,
      "abord": 5540,
      "mate": 5541,
      "maine": 5542,
      "dif": 5543,
      "division": 5544,
      "provo": 5545,
      "proxim": 5546,
      "prominent": 5547,
      "pot": 5548,
      "Stick": 5549,
      "Strecke": 5550,
      "afri": 5551,
      "agit": 5552,
      "vond": 5553,
      "steen": 5554,
      "stead": 5555,
      "libre": 5556,
      "libr": 5557,
      "acte": 5558,
      "across": 5559,
      "reste": 5560,
      "resources": 5561,
      "Lever": 5562,
      "Lehr": 5563,
      "Leip": 5564,
      "kenhuis": 5565,
      "ograp": 5566,
      "expl": 5567,
      "extre": 5568,
      "iennent": 5569,
      "asser": 5570,
      "uitar": 5571,
      "uitgezonden": 5572,
      "demie": 5573,
      "Schyr": 5574,
      "itet": 5575,
      "dération": 5576,
      "décembre": 5577,
      "sens": 5578,
      "sense": 5579,
      "ival": 5580,
      "ively": 5581,
      "mitt": 5582,
      "doorn": 5583,
      "aher": 5584,
      "plak": 5585,
      "placed": 5586,
      "manu": 5587,
      "find": 5588,
      "heren": 5589,
      "roux": 5590,
      "Heute": 5591,
      "Chap": 5592,
      "benannt": 5593,
      "Ency": 5594,
      "shot": 5595,
      "tragen": 5596,
      "travaux": 5597,
      "mark": 5598,
      "blan": 5599,
      "voer": 5600,
      "voerd": 5601,
      "voeg": 5602,
      "vens": 5603,
      "gebouwen": 5604,
      "ization": 5605,
      "overwinning": 5606,
      "Marken": 5607,
      "Verteidig": 5608,
      "internationale": 5609,
      "areas": 5610,
      "saire": 5611,
      "erdings": 5612,
      "jeune": 5613,
      "insbesondere": 5614,
      "delt": 5615,
      "Parijs": 5616,
      "common": 5617,
      "command": 5618,
      "alleen": 5619,
      "body": 5620,
      "itions": 5621,
      "erstör": 5622,
      "waardoor": 5623,
      "hoge": 5624,
      "1941": 5625,
      "tels": 5626,
      "telijke": 5627,
      "1952": 5628,
      "1955": 5629,
      "scen": 5630,
      "grade": 5631,
      "polis": 5632,
      "police": 5633,
      "attach": 5634,
      "attention": 5635,
      "Carol": 5636,
      "bring": 5637,
      "égation": 5638,
      "1938": 5639,
      "doit": 5640,
      "hatten": 5641,
      "velles": 5642,
      "Amt": 5643,
      "zoon": 5644,
      "produced": 5645,
      "products": 5646,
      "seinen": 5647,
      "alisation": 5648,
      "ingsspil": 5649,
      "selon": 5650,
      "presse": 5651,
      "president": 5652,
      "ablement": 5653,
      "Abondance": 5654,
      "reggae": 5655,
      "Web": 5656,
      "ätze": 5657,
      "écan": 5658,
      "écut": 5659,
      "écriv": 5660,
      "gewicht": 5661,
      "aald": 5662,
      "klär": 5663,
      "130": 5664,
      "Forsch": 5665,
      "Force": 5666,
      "Université": 5667,
      "sociale": 5668,
      "Brigade": 5669,
      "teilt": 5670,
      "Einwoh": 5671,
      "gemeen": 5672,
      "medizin": 5673,
      "speciale": 5674,
      "struct": 5675,
      "zweiten": 5676,
      "populations": 5677,
      "1903": 5678,
      "kleuren": 5679,
      "gedra": 5680,
      "gedrukt": 5681,
      "particular": 5682,
      "koningsspil": 5683,
      "Landkreis": 5684,
      "milj": 5685,
      "gezien": 5686,
      "kwalif": 5687,
      "albums": 5688,
      "pendent": 5689,
      "German": 5690,
      "250": 5691,
      "Holly": 5692,
      "montre": 5693,
      "scheiden": 5694,
      "1861": 5695,
      "Deutsche": 5696,
      "Polit": 5697,
      "Weltkrieg": 5698,
      "garten": 5699,
      "wagen": 5700,
      "Michigan": 5701,
      "seconde": 5702,
      "know": 5703,
      "charac": 5704,
      "European": 5705,
      "Musik": 5706,
      "magnol": 5707,
      "Georg": 5708,
      "Romains": 5709,
      "estivals": 5710,
      "Keyser": 5711,
      "broad": 5712,
      "Allgeme": 5713,
      "System": 5714,
      "curity": 5715,
      "Bernard": 5716,
      "Präs": 5717,
      "effort": 5718,
      "eigenen": 5719,
      "location": 5720,
      "vingt": 5721,
      "software": 5722,
      "Zuid": 5723,
      "Réun": 5724,
      "required": 5725,
      "Hochschule": 5726,
      "bataille": 5727,
      "douard": 5728,
      "vara": 5729,
      "Straße": 5730,
      "blieb": 5731,
      "Zwischen": 5732,
      "ruppen": 5733,
      "Champions": 5734,
      "Philipp": 5735,
      "business": 5736,
      "setzte": 5737,
      "setzung": 5738,
      "Motiv": 5739,
      "Russi": 5740,
      "difféomorphismes": 5741,
      "Ulm": 5742,
      "scient": 5743,
      "science": 5744,
      "vaardig": 5745,
      "spraak": 5746,
      "further": 5747,
      "recherche": 5748,
      "commercial": 5749,
      "exemple": 5750,
      "Beginn": 5751,
      "Duits": 5752,
      "Transkription": 5753,
      "single": 5754,
      "concept": 5755,
      "Philatelisten": 5756,
      "schließlich": 5757,
      "provincie": 5758,
      "experien": 5759,
      "Australian": 5760,
      "functie": 5761,
      "voetbalelftal": 5762,
      "muziek": 5763,
      "erfolgte": 5764,
      "1793": 5765,
      "improvis": 5766,
      "Regelkarten": 5767,
      "collaboration": 5768,
      "richting": 5769,
      "ionnais": 5770,
      "question": 5771,
      "remporté": 5772,
      "März": 5773,
      "Angeles": 5774,
      "particulier": 5775,
      "vliesvleugelig": 5776,
      "toepassing": 5777,
      "Latin": 5778,
      "Winterspelen": 5779,
      "global": 5780,
      "kregen": 5781,
      "remaining": 5782,
      "nehmen": 5783,
      "considered": 5784,
      "publiek": 5785,
      "Schweizer": 5786,
      "Notices": 5787,
      "locomotives": 5788,
      "libér": 5789,
      "England": 5790,
      "significant": 5791,
      "Bretagne": 5792,
      "Olivier": 5793,
      "pièce": 5794,
      "bezirk": 5795,
      "recensement": 5796,
      "volkstelling": 5797,
      "centrale": 5798,
      "Israël": 5799,
      "beschikbaar": 5800,
      "Avenue": 5801,
      "Identifier": 5802,
      "Kiev": 5803,
      "Kloster": 5804,
      "Video": 5805,
      "beaucoup": 5806,
      "spéci": 5807,
      "recrutement": 5808,
      "virtuel": 5809,
      "Dreh": 5810,
      "Eisenbahn": 5811,
      "Hackin": 5812,
      "Massachuset": 5813,
      "Nouvelle": 5814,
      "Trumpf": 5815,
      "books": 5816,
      "euros": 5817,
      "jamais": 5818,
      "children": 5819,
      "sechs": 5820,
      "railway": 5821,
      "recogn": 5822,
      "exemplaren": 5823,
      "wicklung": 5824,
      "Pöhlbachs": 5825,
      "'€,": 5826,
      "Gouda": 5827,
      "Khula": 5828,
      "Tochter": 5829,
      "niveau": 5830,
      "zunächst": 5831,
      "gehören": 5832,
      "Lévy": 5833,
      "Pakistan": 5834,
      "moment": 5835,
      "prennent": 5836,
      "proximité": 5837,
      "ographe": 5838,
      "Schyrleus": 5839,
      "Massachusetts": 5840,
      "\")": 5841,
      "%.": 5842,
      "(...": 5843,
      "300": 5844,
      "42": 5845,
      "5000": 5846,
      "76": 5847,
      "Aka": 5848,
      "Apel": 5849,
      "Acad": 5850,
      "BC": 5851,
      "Bis": 5852,
      "Bad": 5853,
      "Bud": 5854,
      "Buch": 5855,
      "Bède": 5856,
      "CN": 5857,
      "Civ": 5858,
      "Cert": 5859,
      "Clar": 5860,
      "DL": 5861,
      "Door": 5862,
      "Dres": 5863,
      "Dél": 5864,
      "Druck": 5865,
      "ER": 5866,
      "ET": 5867,
      "Eu": 5868,
      "Euro": 5869,
      "Education": 5870,
      "Fal": 5871,
      "Finn": 5872,
      "Free": 5873,
      "GV": 5874,
      "Gren": 5875,
      "Gree": 5876,
      "Gator": 5877,
      "Güter": 5878,
      "Hel": 5879,
      "Hof": 5880,
      "Hum": 5881,
      "Hab": 5882,
      "Hend": 5883,
      "Hall": 5884,
      "Hong": 5885,
      "Hell": 5886,
      "Jon": 5887,
      "Ku": 5888,
      "Kil": 5889,
      "King": 5890,
      "Kol": 5891,
      "Kem": 5892,
      "Khar": 5893,
      "Kaiser": 5894,
      "Lar": 5895,
      "Lit": 5896,
      "Lam": 5897,
      "Lim": 5898,
      "Lode": 5899,
      "Liber": 5900,
      "Mü": 5901,
      "Mut": 5902,
      "Mac": 5903,
      "Mans": 5904,
      "Mem": 5905,
      "Mong": 5906,
      "Män": 5907,
      "Moder": 5908,
      "Mode": 5909,
      "Moul": 5910,
      "Nr": 5911,
      "Oir": 5912,
      "Oise": 5913,
      "Pas": 5914,
      "Plan": 5915,
      "RT": 5916,
      "Rh": 5917,
      "Ram": 5918,
      "Rück": 5919,
      "Sel": 5920,
      "Sain": 5921,
      "Sind": 5922,
      "Sied": 5923,
      "Sitz": 5924,
      "Sohn": 5925,
      "TM": 5926,
      "Ta": 5927,
      "Tr": 5928,
      "Ven": 5929,
      "Viet": 5930,
      "Villa": 5931,
      "Valley": 5932,
      "Wa": 5933,
      "Wel": 5934,
      "Wol": 5935,
      "Wag": 5936,
      "Wert": 5937,
      "Wood": 5938,
      "Wald": 5939,
      "Wett": 5940,
      "Wright": 5941,
      "You": 5942,
      "Zur": 5943,
      "Zahl": 5944,
      "aand": 5945,
      "aqu": 5946,
      "bie": 5947,
      "bad": 5948,
      "cum": 5949,
      "cut": 5950,
      "cue": 5951,
      "cès": 5952,
      "drit": 5953,
      "dimin": 5954,
      "dimens": 5955,
      "eas": 5956,
      "ema": 5957,
      "east": 5958,
      "eerder": 5959,
      "fand": 5960,
      "fund": 5961,
      "fach": 5962,
      "fün": 5963,
      "fight": 5964,
      "frei": 5965,
      "gla": 5966,
      "gain": 5967,
      "gres": 5968,
      "games": 5969,
      "guitar": 5970,
      "häu": 5971,
      "honor": 5972,
      "iu": 5973,
      "kat": 5974,
      "kse": 5975,
      "krie": 5976,
      "kamen": 5977,
      "kaum": 5978,
      "kandid": 5979,
      "kiën": 5980,
      "kidn": 5981,
      "las": 5982,
      "lic": 5983,
      "laus": 5984,
      "leng": 5985,
      "läu": 5986,
      "listed": 5987,
      "mor": 5988,
      "mur": 5989,
      "mige": 5990,
      "muss": 5991,
      "mécan": 5992,
      "nischen": 5993,
      "née": 5994,
      "nör": 5995,
      "nisse": 5996,
      "oy": 5997,
      "ost": 5998,
      "odes": 5999,
      "pi": 6000,
      "past": 6001,
      "page": 6002,
      "pens": 6003,
      "poort": 6004,
      "pped": 6005,
      "pages": 6006,
      "purch": 6007,
      "piano": 6008,
      "rant": 6009,
      "rice": 6010,
      "rück": 6011,
      "rhein": 6012,
      "say": 6013,
      "taux": 6014,
      "tät": 6015,
      "tient": 6016,
      "uchen": 6017,
      "vy": 6018,
      "vard": 6019,
      "vict": 6020,
      "wiel": 6021,
      "yo": 6022,
      "yal": 6023,
      "ying": 6024,
      "you": 6025,
      "young": 6026,
      "zte": 6027,
      "ßnitz": 6028,
      "âce": 6029,
      "äten": 6030,
      "öhm": 6031,
      "ücken": 6032,
      "enen": 6033,
      "enfin": 6034,
      "erin": 6035,
      "ination": 6036,
      "inkl": 6037,
      "analy": 6038,
      "dete": 6039,
      "december": 6040,
      "onie": 6041,
      "chem": 6042,
      "esië": 6043,
      "arrange": 6044,
      "arbit": 6045,
      "arriv": 6046,
      "ored": 6047,
      "hect": 6048,
      "hemat": 6049,
      "heures": 6050,
      "heira": 6051,
      "alom": 6052,
      "itser": 6053,
      "itive": 6054,
      "ieve": 6055,
      "rep": 6056,
      "reten": 6057,
      "rejo": 6058,
      "represent": 6059,
      "attend": 6060,
      "leed": 6061,
      "leader": 6062,
      "urt": 6063,
      "aste": 6064,
      "gebe": 6065,
      "gewe": 6066,
      "gevol": 6067,
      "stie": 6068,
      "stig": 6069,
      "stone": 6070,
      "staff": 6071,
      "ilder": 6072,
      "illes": 6073,
      "illy": 6074,
      "elden": 6075,
      "elke": 6076,
      "auc": 6077,
      "row": 6078,
      "amo": 6079,
      "lap": 6080,
      "oma": 6081,
      "ome": 6082,
      "seau": 6083,
      "sept": 6084,
      "sequent": 6085,
      "toes": 6086,
      "today": 6087,
      "oles": 6088,
      "olle": 6089,
      "ollar": 6090,
      "ijzer": 6091,
      "1919": 6092,
      "1918": 6093,
      "1910": 6094,
      "verz": 6095,
      "verlie": 6096,
      "verbre": 6097,
      "igne": 6098,
      "raad": 6099,
      "raire": 6100,
      "raison": 6101,
      "vanne": 6102,
      "usion": 6103,
      "edom": 6104,
      "editor": 6105,
      "bey": 6106,
      "desc": 6107,
      "schon": 6108,
      "schwer": 6109,
      "schijn": 6110,
      "schloss": 6111,
      "oplage": 6112,
      "opération": 6113,
      "2018": 6114,
      "oordin": 6115,
      "cependant": 6116,
      "irie": 6117,
      "veer": 6118,
      "membre": 6119,
      "meilleurs": 6120,
      "never": 6121,
      "need": 6122,
      "neben": 6123,
      "ada": 6124,
      "ado": 6125,
      "adat": 6126,
      "parc": 6127,
      "paralle": 6128,
      "hetzelfde": 6129,
      "lost": 6130,
      "confeder": 6131,
      "forces": 6132,
      "ista": 6133,
      "Inf": 6134,
      "Innen": 6135,
      "comprend": 6136,
      "weig": 6137,
      "ables": 6138,
      "map": 6139,
      "maker": 6140,
      "December": 6141,
      "ership": 6142,
      "pole": 6143,
      "appointed": 6144,
      "Stat": 6145,
      "Strecken": 6146,
      "affen": 6147,
      "spell": 6148,
      "agreed": 6149,
      "aart": 6150,
      "steun": 6151,
      "steden": 6152,
      "steeds": 6153,
      "zeer": 6154,
      "suiv": 6155,
      "ansen": 6156,
      "research": 6157,
      "annuelle": 6158,
      "voort": 6159,
      "voorstel": 6160,
      "moire": 6161,
      "modif": 6162,
      "rédu": 6163,
      "républic": 6164,
      "Leg": 6165,
      "Leop": 6166,
      "kennen": 6167,
      "anglais": 6168,
      "ext": 6169,
      "expos": 6170,
      "exception": 6171,
      "uitger": 6172,
      "Schiff": 6173,
      "plant": 6174,
      "platz": 6175,
      "défin": 6176,
      "dérou": 6177,
      "décis": 6178,
      "worth": 6179,
      "allerdings": 6180,
      "ikt": 6181,
      "sondern": 6182,
      "état": 6183,
      "plate": 6184,
      "mander": 6185,
      "manier": 6186,
      "artists": 6187,
      "ooi": 6188,
      "oostel": 6189,
      "Anlage": 6190,
      "Anton": 6191,
      "finish": 6192,
      "Univer": 6193,
      "illon": 6194,
      "aved": 6195,
      "Frans": 6196,
      "cost": 6197,
      "grâce": 6198,
      "sity": 6199,
      "Heimat": 6200,
      "Bezeich": 6201,
      "Auverg": 6202,
      "ielle": 6203,
      "breption": 6204,
      "surtout": 6205,
      "Gebr": 6206,
      "Alber": 6207,
      "Alph": 6208,
      "phy": 6209,
      "ritz": 6210,
      "izieren": 6211,
      "ibles": 6212,
      "onderdelen": 6213,
      "complex": 6214,
      "Verkehr": 6215,
      "saw": 6216,
      "ongress": 6217,
      "Rohe": 6218,
      "clop": 6219,
      "Erz": 6220,
      "besuch": 6221,
      "Spaanse": 6222,
      "170": 6223,
      "commiss": 6224,
      "osoph": 6225,
      "Secon": 6226,
      "pture": 6227,
      "earlier": 6228,
      "automat": 6229,
      "waarvan": 6230,
      "waarop": 6231,
      "Ils": 6232,
      "disputer": 6233,
      "dispute": 6234,
      "telde": 6235,
      "bestaande": 6236,
      "unterschied": 6237,
      "scri": 6238,
      "score": 6239,
      "graaf": 6240,
      "films": 6241,
      "founded": 6242,
      "venter": 6243,
      "stry": 6244,
      "Carter": 6245,
      "bron": 6246,
      "aide": 6247,
      "halen": 6248,
      "1931": 6249,
      "does": 6250,
      "endete": 6251,
      "wobei": 6252,
      "Améri": 6253,
      "geht": 6254,
      "gehouden": 6255,
      "vait": 6256,
      "produz": 6257,
      "dagen": 6258,
      "aliste": 6259,
      "franc": 6260,
      "betre": 6261,
      "visies": 6262,
      "ronic": 6263,
      "monie": 6264,
      "championship": 6265,
      "regio": 6266,
      "komple": 6267,
      "écrit": 6268,
      "kelijke": 6269,
      "klis": 6270,
      "dieses": 6271,
      "stitu": 6272,
      "frères": 6273,
      "Novara": 6274,
      "société": 6275,
      "Commander": 6276,
      "Mittel": 6277,
      "stands": 6278,
      "create": 6279,
      "Board": 6280,
      "letter": 6281,
      "organized": 6282,
      "diffic": 6283,
      "Stadtteil": 6284,
      "cherche": 6285,
      "structure": 6286,
      "1927": 6287,
      "craft": 6288,
      "1902": 6289,
      "führten": 6290,
      "consist": 6291,
      "Briefmarkensamm": 6292,
      "Herren": 6293,
      "profit": 6294,
      "ièrement": 6295,
      "langs": 6296,
      "langu": 6297,
      "element": 6298,
      "studie": 6299,
      "stuum": 6300,
      "studio": 6301,
      "begon": 6302,
      "Afdeling": 6303,
      "miles": 6304,
      "Durant": 6305,
      "Serge": 6306,
      "Serien": 6307,
      "ault": 6308,
      "helden": 6309,
      "1887": 6310,
      "behaalde": 6311,
      "accue": 6312,
      "political": 6313,
      "Atlant": 6314,
      "Conseil": 6315,
      "donne": 6316,
      "älter": 6317,
      "Dieser": 6318,
      "Dieses": 6319,
      "ühle": 6320,
      "azifik": 6321,
      "opened": 6322,
      "Polish": 6323,
      "distribution": 6324,
      "zieh": 6325,
      "Region": 6326,
      "corn": 6327,
      "mehrere": 6328,
      "Mombacher": 6329,
      "Loire": 6330,
      "Wilhelm": 6331,
      "Gemeins": 6332,
      "Max": 6333,
      "zelfs": 6334,
      "Südo": 6335,
      "sprint": 6336,
      "instantie": 6337,
      "charge": 6338,
      "ledge": 6339,
      "legte": 6340,
      "skate": 6341,
      "variété": 6342,
      "Amerikan": 6343,
      "professional": 6344,
      "Rome": 6345,
      "ihrer": 6346,
      "motor": 6347,
      "nahme": 6348,
      "Allendorf": 6349,
      "Vanaf": 6350,
      "rechten": 6351,
      "Richez": 6352,
      "joueur": 6353,
      "Besch": 6354,
      "Hauk": 6355,
      "Karl": 6356,
      "Karten": 6357,
      "wegung": 6358,
      "destroy": 6359,
      "meisterschaft": 6360,
      "programme": 6361,
      "systems": 6362,
      "blad": 6363,
      "cross": 6364,
      "runs": 6365,
      "running": 6366,
      "participant": 6367,
      "arbeit": 6368,
      "arbeitete": 6369,
      "wespen": 6370,
      "itude": 6371,
      "Banks": 6372,
      "Werk": 6373,
      "gabe": 6374,
      "erreichen": 6375,
      "buildings": 6376,
      "Mannschaft": 6377,
      "Portr": 6378,
      "Terre": 6379,
      "fondé": 6380,
      "developed": 6381,
      "regelmäß": 6382,
      "professionnelle": 6383,
      "professionnalisme": 6384,
      "Danach": 6385,
      "Daniel": 6386,
      "Research": 6387,
      "sivement": 6388,
      "Galerie": 6389,
      "verschiedene": 6390,
      "Zwitser": 6391,
      "ancien": 6392,
      "besteht": 6393,
      "culturel": 6394,
      "Cobalt": 6395,
      "Milit": 6396,
      "édiens": 6397,
      "continue": 6398,
      "zahlreiche": 6399,
      "candidat": 6400,
      "zitten": 6401,
      "erschienen": 6402,
      "verkauf": 6403,
      "Russell": 6404,
      "botan": 6405,
      "cadre": 6406,
      "cratic": 6407,
      "ecological": 6408,
      "wickel": 6409,
      "genannt": 6410,
      "Vereinigten": 6411,
      "olympique": 6412,
      "Preßnitz": 6413,
      "While": 6414,
      "vitation": 6415,
      "projets": 6416,
      "points": 6417,
      "Produktion": 6418,
      "Bereits": 6419,
      "Daarnaast": 6420,
      "öffentlich": 6421,
      "next": 6422,
      "private": 6423,
      "Texas": 6424,
      "bevindt": 6425,
      "Reichs": 6426,
      "caractère": 6427,
      "caractér": 6428,
      "présence": 6429,
      "education": 6430,
      "combinatie": 6431,
      "framework": 6432,
      "Racing": 6433,
      "environment": 6434,
      "compiler": 6435,
      "offered": 6436,
      "electric": 6437,
      "Division": 6438,
      "Iraklis": 6439,
      "Rudolf": 6440,
      "gouvernement": 6441,
      "received": 6442,
      "administration": 6443,
      "études": 6444,
      "Duke": 6445,
      "Figure": 6446,
      "galerie": 6447,
      "krijgt": 6448,
      "protestant": 6449,
      "keversoort": 6450,
      "Künste": 6451,
      "jährigen": 6452,
      "industry": 6453,
      "ongeveer": 6454,
      "vertreten": 6455,
      "bewahr": 6456,
      "afleveringen": 6457,
      "Canadese": 6458,
      "institutional": 6459,
      "Histor": 6460,
      "russischen": 6461,
      "bezeichnet": 6462,
      "schnitt": 6463,
      "bestuurs": 6464,
      "mondiale": 6465,
      "Pädiatrie": 6466,
      "laatste": 6467,
      "quartier": 6468,
      "ributed": 6469,
      "planning": 6470,
      "Laurent": 6471,
      "bridge": 6472,
      "Bohemen": 6473,
      "continued": 6474,
      "Bildechingen": 6475,
      "Haddad": 6476,
      "gegründet": 6477,
      "selected": 6478,
      "opvolger": 6479,
      "connue": 6480,
      "potential": 6481,
      "Schleswig": 6482,
      "occasion": 6483,
      "kilometres": 6484,
      "Sohail": 6485,
      "Takis": 6486,
      "govern": 6487,
      "erwähnt": 6488,
      "regering": 6489,
      "versies": 6490,
      "oorspron": 6491,
      "concern": 6492,
      "library": 6493,
      "Leipzig": 6494,
      "Encyclop": 6495,
      "Verteidigungsausschuss": 6496,
      "miljoen": 6497,
      "character": 6498,
      "Apeldoorn": 6499,
      "Délégation": 6500,
      "Khara": 6501,
      "Moulins": 6502,
      "Sainte": 6503,
      "kidnapp": 6504,
      "hectares": 6505,
      "oostelijke": 6506,
      "besuchte": 6507,
      "Richezza": 6508,
      "-,": 6509,
      ".»": 6510,
      ".),": 6511,
      "114": 6512,
      "400": 6513,
      "71": 6514,
      "79": 6515,
      "800": 6516,
      "96": 6517,
      "98": 6518,
      "AM": 6519,
      "Ak": 6520,
      "Aan": 6521,
      "Aber": 6522,
      "Aansluit": 6523,
      "Bé": 6524,
      "Baf": 6525,
      "Bond": 6526,
      "Bapt": 6527,
      "Blech": 6528,
      "Cop": 6529,
      "Call": 6530,
      "Camp": 6531,
      "Centre": 6532,
      "Dig": 6533,
      "Diff": 6534,
      "Ehe": 6535,
      "Eur": 6536,
      "Esp": 6537,
      "Eli": 6538,
      "Eind": 6539,
      "Emil": 6540,
      "Elect": 6541,
      "Gi": 6542,
      "Gy": 6543,
      "Gel": 6544,
      "Haus": 6545,
      "Hessen": 6546,
      "IE": 6547,
      "Jimm": 6548,
      "Jason": 6549,
      "Kre": 6550,
      "Kent": 6551,
      "Kurs": 6552,
      "Klin": 6553,
      "Khan": 6554,
      "Ly": 6555,
      "Let": 6556,
      "Ling": 6557,
      "Lum": 6558,
      "Lag": 6559,
      "Liste": 6560,
      "Mu": 6561,
      "Million": 6562,
      "Miller": 6563,
      "NS": 6564,
      "NT": 6565,
      "Nä": 6566,
      "OP": 6567,
      "Oh": 6568,
      "Ot": 6569,
      "Osten": 6570,
      "Osw": 6571,
      "Por": 6572,
      "Prom": 6573,
      "Pays": 6574,
      "Pazifik": 6575,
      "Ret": 6576,
      "Rou": 6577,
      "Red": 6578,
      "Rap": 6579,
      "Rog": 6580,
      "SV": 6581,
      "Sem": 6582,
      "Sib": 6583,
      "Stern": 6584,
      "Saison": 6585,
      "Ten": 6586,
      "Tar": 6587,
      "Tor": 6588,
      "Tun": 6589,
      "That": 6590,
      "Tüb": 6591,
      "UE": 6592,
      "VI": 6593,
      "Vla": 6594,
      "Voor": 6595,
      "Vir": 6596,
      "Vul": 6597,
      "Vang": 6598,
      "VAD": 6599,
      "Wences": 6600,
      "Wellen": 6601,
      "Wasser": 6602,
      "Zug": 6603,
      "aj": 6604,
      "aw": 6605,
      "ades": 6606,
      "bracht": 6607,
      "cd": 6608,
      "cet": 6609,
      "cabin": 6610,
      "dal": 6611,
      "dic": 6612,
      "dier": 6613,
      "dischen": 6614,
      "diss": 6615,
      "dood": 6616,
      "dorp": 6617,
      "eux": 6618,
      "eight": 6619,
      "fit": 6620,
      "fro": 6621,
      "fla": 6622,
      "fic": 6623,
      "fix": 6624,
      "fred": 6625,
      "gas": 6626,
      "ggen": 6627,
      "gut": 6628,
      "gung": 6629,
      "gins": 6630,
      "gaven": 6631,
      "hang": 6632,
      "hinter": 6633,
      "having": 6634,
      "iß": 6635,
      "kes": 6636,
      "kra": 6637,
      "ktr": 6638,
      "kmal": 6639,
      "kriegs": 6640,
      "là": 6641,
      "lou": 6642,
      "lalom": 6643,
      "mau": 6644,
      "mig": 6645,
      "mée": 6646,
      "mün": 6647,
      "must": 6648,
      "müssen": 6649,
      "nun": 6650,
      "nies": 6651,
      "nelle": 6652,
      "nern": 6653,
      "nats": 6654,
      "nels": 6655,
      "oep": 6656,
      "pil": 6657,
      "pier": 6658,
      "pein": 6659,
      "plu": 6660,
      "rè": 6661,
      "rats": 6662,
      "rän": 6663,
      "rijke": 6664,
      "rights": 6665,
      "rôle": 6666,
      "sla": 6667,
      "sum": 6668,
      "sicht": 6669,
      "sold": 6670,
      "satz": 6671,
      "tv": 6672,
      "tape": 6673,
      "tarte": 6674,
      "ub": 6675,
      "uay": 6676,
      "ués": 6677,
      "vij": 6678,
      "vlo": 6679,
      "vak": 6680,
      "vènement": 6681,
      "wid": 6682,
      "winter": 6683,
      "wler": 6684,
      "woll": 6685,
      "yzen": 6686,
      "youth": 6687,
      "zul": 6688,
      "zingen": 6689,
      "zens": 6690,
      "zählt": 6691,
      "zerstör": 6692,
      "éch": 6693,
      "économ": 6694,
      "öder": 6695,
      "üder": 6696,
      "ühr": 6697,
      "œur": 6698,
      "enige": 6699,
      "enkel": 6700,
      "enced": 6701,
      "erg": 6702,
      "erve": 6703,
      "inct": 6704,
      "invest": 6705,
      "inande": 6706,
      "industri": 6707,
      "innov": 6708,
      "anteur": 6709,
      "dek": 6710,
      "deli": 6711,
      "deci": 6712,
      "devant": 6713,
      "deyer": 6714,
      "department": 6715,
      "dezelfde": 6716,
      "defense": 6717,
      "oni": 6718,
      "onde": 6719,
      "onto": 6720,
      "oningen": 6721,
      "chol": 6722,
      "espe": 6723,
      "ardi": 6724,
      "ario": 6725,
      "argent": 6726,
      "orer": 6727,
      "ores": 6728,
      "ordi": 6729,
      "ories": 6730,
      "orded": 6731,
      "teen": 6732,
      "teerde": 6733,
      "itch": 6734,
      "ität": 6735,
      "ießen": 6736,
      "unden": 6737,
      "urb": 6738,
      "urde": 6739,
      "urings": 6740,
      "asing": 6741,
      "aster": 6742,
      "gee": 6743,
      "gepres": 6744,
      "geval": 6745,
      "gehalten": 6746,
      "geograph": 6747,
      "geführt": 6748,
      "stij": 6749,
      "sters": 6750,
      "stri": 6751,
      "staan": 6752,
      "stated": 6753,
      "stler": 6754,
      "stick": 6755,
      "stammen": 6756,
      "stoffen": 6757,
      "entwickel": 6758,
      "iler": 6759,
      "iligen": 6760,
      "eldoor": 6761,
      "elijke": 6762,
      "autour": 6763,
      "außerdem": 6764,
      "roll": 6765,
      "oman": 6766,
      "segel": 6767,
      "security": 6768,
      "tower": 6769,
      "tours": 6770,
      "olden": 6771,
      "olaus": 6772,
      "olium": 6773,
      "icy": 6774,
      "ications": 6775,
      "quet": 6776,
      "ouvert": 6777,
      "verdeeld": 6778,
      "terme": 6779,
      "raï": 6780,
      "vanuit": 6781,
      "vanced": 6782,
      "estim": 6783,
      "estation": 6784,
      "beck": 6785,
      "schild": 6786,
      "schieden": 6787,
      "schiff": 6788,
      "imag": 6789,
      "thre": 6790,
      "things": 6791,
      "think": 6792,
      "third": 6793,
      "opper": 6794,
      "oorden": 6795,
      "irs": 6796,
      "vele": 6797,
      "vechten": 6798,
      "meisten": 6799,
      "beru": 6800,
      "umfas": 6801,
      "werkt": 6802,
      "dub": 6803,
      "advis": 6804,
      "einst": 6805,
      "einander": 6806,
      "para": 6807,
      "parten": 6808,
      "print": 6809,
      "loy": 6810,
      "conne": 6811,
      "conseil": 6812,
      "forest": 6813,
      "force": 6814,
      "istische": 6815,
      "idé": 6816,
      "commit": 6817,
      "comédiens": 6818,
      "weder": 6819,
      "maje": 6820,
      "maanden": 6821,
      "dipl": 6822,
      "Department": 6823,
      "Deventer": 6824,
      "proble": 6825,
      "propose": 6826,
      "provide": 6827,
      "programm": 6828,
      "keiten": 6829,
      "Stan": 6830,
      "Stif": 6831,
      "Staten": 6832,
      "Staff": 6833,
      "rive": 6834,
      "otic": 6835,
      "span": 6836,
      "sprech": 6837,
      "split": 6838,
      "aard": 6839,
      "aars": 6840,
      "stehen": 6841,
      "liff": 6842,
      "livre": 6843,
      "rues": 6844,
      "ruff": 6845,
      "acle": 6846,
      "acum": 6847,
      "acteur": 6848,
      "Theod": 6849,
      "resident": 6850,
      "embar": 6851,
      "1820": 6852,
      "sikas": 6853,
      "répart": 6854,
      "Leon": 6855,
      "Leit": 6856,
      "Leben": 6857,
      "nay": 6858,
      "white": 6859,
      "exhib": 6860,
      "ausgest": 6861,
      "warded": 6862,
      "uitgebracht": 6863,
      "uitzonder": 6864,
      "uitgaven": 6865,
      "Schw": 6866,
      "Schol": 6867,
      "Schacht": 6868,
      "Schutz": 6869,
      "aange": 6870,
      "itement": 6871,
      "lichaam": 6872,
      "ifolium": 6873,
      "déf": 6874,
      "worfen": 6875,
      "allée": 6876,
      "zuiden": 6877,
      "mitglie": 6878,
      "ikel": 6879,
      "gelijke": 6880,
      "ließen": 6881,
      "Andere": 6882,
      "Anfang": 6883,
      "menoptera": 6884,
      "Real": 6885,
      "ava": 6886,
      "aves": 6887,
      "avoc": 6888,
      "Franz": 6889,
      "aker": 6890,
      "coal": 6891,
      "counter": 6892,
      "grond": 6893,
      "grès": 6894,
      "Heer": 6895,
      "Chinande": 6896,
      "ffen": 6897,
      "ords": 6898,
      "End": 6899,
      "Enter": 6900,
      "Entre": 6901,
      "Bege": 6902,
      "Beide": 6903,
      "shaus": 6904,
      "shire": 6905,
      "trees": 6906,
      "iellement": 6907,
      "ureau": 6908,
      "markt": 6909,
      "blast": 6910,
      "amps": 6911,
      "ftige": 6912,
      "vocal": 6913,
      "voient": 6914,
      "Alter": 6915,
      "Albert": 6916,
      "phes": 6917,
      "phas": 6918,
      "phys": 6919,
      "fais": 6920,
      "faill": 6921,
      "faible": 6922,
      "novel": 6923,
      "trä": 6924,
      "overgenomen": 6925,
      "overleed": 6926,
      "Marc": 6927,
      "Marne": 6928,
      "onderwij": 6929,
      "chef": 6930,
      "chez": 6931,
      "intercommun": 6932,
      "sait": 6933,
      "recorded": 6934,
      "ameisterschaft": 6935,
      "classif": 6936,
      "itself": 6937,
      "volution": 6938,
      "volgende": 6939,
      "groe": 6940,
      "érer": 6941,
      "érature": 6942,
      "boom": 6943,
      "änger": 6944,
      "laten": 6945,
      "150": 6946,
      "actie": 6947,
      "symb": 6948,
      "système": 6949,
      "waarna": 6950,
      "waaronder": 6951,
      "waarbij": 6952,
      "hoe": 6953,
      "hoch": 6954,
      "host": 6955,
      "intér": 6956,
      "disci": 6957,
      "formule": 6958,
      "viol": 6959,
      "vidence": 6960,
      "ultim": 6961,
      "ulture": 6962,
      "besten": 6963,
      "bestanden": 6964,
      "bestimm": 6965,
      "besturings": 6966,
      "portra": 6967,
      "office": 6968,
      "minder": 6969,
      "minister": 6970,
      "screen": 6971,
      "grab": 6972,
      "gravité": 6973,
      "founder": 6974,
      "Carna": 6975,
      "Orig": 6976,
      "éné": 6977,
      "Groningen": 6978,
      "doivent": 6979,
      "identif": 6980,
      "Amts": 6981,
      "gehend": 6982,
      "typ": 6983,
      "tax": 6984,
      "seines": 6985,
      "alisée": 6986,
      "selben": 6987,
      "musée": 6988,
      "sterk": 6989,
      "bleef": 6990,
      "wirtschaft": 6991,
      "regrou": 6992,
      "Immun": 6993,
      "Weih": 6994,
      "vierte": 6995,
      "idea": 6996,
      "working": 6997,
      "Itali": 6998,
      "Universitäts": 6999,
      "hommes": 7000,
      "Brand": 7001,
      "Commun": 7002,
      "cret": 7003,
      "creation": 7004,
      "created": 7005,
      "communauté": 7006,
      "Bois": 7007,
      "Boden": 7008,
      "huyzen": 7009,
      "iële": 7010,
      "letzt": 7011,
      "Briefmarke": 7012,
      "langen": 7013,
      "differ": 7014,
      "god": 7015,
      "media": 7016,
      "wenhuyzen": 7017,
      "zweite": 7018,
      "1923": 7019,
      "1925": 7020,
      "pesanteur": 7021,
      "1901": 7022,
      "1904": 7023,
      "geschaffen": 7024,
      "führung": 7025,
      "centrum": 7026,
      "couver": 7027,
      "namelijk": 7028,
      "balk": 7029,
      "stuk": 7030,
      "begle": 7031,
      "Unterstütz": 7032,
      "milieu": 7033,
      "sinds": 7034,
      "included": 7035,
      "fläche": 7036,
      "possible": 7037,
      "nummers": 7038,
      "course": 7039,
      "ährt": 7040,
      "America": 7041,
      "Holstein": 7042,
      "bank": 7043,
      "nouvelles": 7044,
      "behind": 7045,
      "placement": 7046,
      "ploeg": 7047,
      "rather": 7048,
      "km2": 7049,
      "méth": 7050,
      "enteerd": 7051,
      "tellen": 7052,
      "positions": 7053,
      "kunde": 7054,
      "valid": 7055,
      "Norm": 7056,
      "rapide": 7057,
      "1866": 7058,
      "kets": 7059,
      "statement": 7060,
      "Stein": 7061,
      "Steve": 7062,
      "régul": 7063,
      "Aufgrund": 7064,
      "Love": 7065,
      "bereik": 7066,
      "ließlich": 7067,
      "Westen": 7068,
      "funktion": 7069,
      "hausen": 7070,
      "Essex": 7071,
      "daarmee": 7072,
      "Süden": 7073,
      "glas": 7074,
      "kostuum": 7075,
      "trouw": 7076,
      "charts": 7077,
      "middelen": 7078,
      "passage": 7079,
      "variétés": 7080,
      "1894": 7081,
      "1895": 7082,
      "Umschrift": 7083,
      "restaur": 7084,
      "Clanton": 7085,
      "broer": 7086,
      "nahmen": 7087,
      "household": 7088,
      "porter": 7089,
      "ächlich": 7090,
      "lawsuit": 7091,
      "Glass": 7092,
      "Graf": 7093,
      "joined": 7094,
      "Winkel": 7095,
      "architecte": 7096,
      "Saaved": 7097,
      "westlich": 7098,
      "participation": 7099,
      "signed": 7100,
      "constructed": 7101,
      "personnage": 7102,
      "campagne": 7103,
      "north": 7104,
      "transform": 7105,
      "vrouw": 7106,
      "heimer": 7107,
      "1970s": 7108,
      "Sammler": 7109,
      "Grepolis": 7110,
      "Urspr": 7111,
      "limit": 7112,
      "journaux": 7113,
      "Mannschaften": 7114,
      "XVe": 7115,
      "realm": 7116,
      "regeln": 7117,
      "emplois": 7118,
      "haupts": 7119,
      "ösung": 7120,
      "remporte": 7121,
      "Straßen": 7122,
      "Berliner": 7123,
      "Minister": 7124,
      "Waldeyer": 7125,
      "chronom": 7126,
      "directed": 7127,
      "allery": 7128,
      "activities": 7129,
      "effects": 7130,
      "wedstrijd": 7131,
      "évé": 7132,
      "weiterhin": 7133,
      "Folge": 7134,
      "Kurfür": 7135,
      "René": 7136,
      "schriften": 7137,
      "speler": 7138,
      "spelers": 7139,
      "support": 7140,
      "Arbeiter": 7141,
      "1960s": 7142,
      "Council": 7143,
      "Airborne": 7144,
      "Motor": 7145,
      "Patrie": 7146,
      "quarante": 7147,
      "discuss": 7148,
      "Gaulois": 7149,
      "Magnol": 7150,
      "eveneens": 7151,
      "erschien": 7152,
      "personnes": 7153,
      "Brown": 7154,
      "Haï": 7155,
      "Moritz": 7156,
      "fabrik": 7157,
      "originally": 7158,
      "Bahnstrecke": 7159,
      "Fernseh": 7160,
      "Sommer": 7161,
      "circonsc": 7162,
      "institut": 7163,
      "genannte": 7164,
      "ability": 7165,
      "hoofdteam": 7166,
      "Groupe": 7167,
      "kruist": 7168,
      "schließend": 7169,
      "Studium": 7170,
      "disputée": 7171,
      "militaire": 7172,
      "größte": 7173,
      "Ferrary": 7174,
      "kernel": 7175,
      "vastgesteld": 7176,
      "wapens": 7177,
      "street": 7178,
      "complices": 7179,
      "engineers": 7180,
      "returned": 7181,
      "Familien": 7182,
      "Tribal": 7183,
      "höch": 7184,
      "zentrum": 7185,
      "attended": 7186,
      "affect": 7187,
      "British": 7188,
      "influence": 7189,
      "educated": 7190,
      "précis": 7191,
      "website": 7192,
      "abeth": 7193,
      "possède": 7194,
      "développe": 7195,
      "productie": 7196,
      "Formule": 7197,
      "belangrijke": 7198,
      "femmes": 7199,
      "wissenschaftliche": 7200,
      "enfants": 7201,
      "Verwaltung": 7202,
      "Italie": 7203,
      "specifieke": 7204,
      "electronic": 7205,
      "Nieuw": 7206,
      "Nieuwenhuyzen": 7207,
      "vliesvleugeligen": 7208,
      "toepassingen": 7209,
      "Alexand": 7210,
      "Hymenoptera": 7211,
      "östlich": 7212,
      "control": 7213,
      "composé": 7214,
      "documentation": 7215,
      "möglichst": 7216,
      "Premier": 7217,
      "evangelische": 7218,
      "probablement": 7219,
      "Staaten": 7220,
      "André": 7221,
      "philosoph": 7222,
      "materials": 7223,
      "populaire": 7224,
      "currently": 7225,
      "qualifiées": 7226,
      "Epis": 7227,
      "Earp": 7228,
      "Nikolaus": 7229,
      "vlakte": 7230,
      "apolis": 7231,
      "articles": 7232,
      "Engels": 7233,
      "months": 7234,
      "nécessaire": 7235,
      "Bulgar": 7236,
      "Chevènement": 7237,
      "career": 7238,
      "kinderen": 7239,
      "taking": 7240,
      "decade": 7241,
      "decisions": 7242,
      "ambten": 7243,
      "spreken": 7244,
      "Abgeordneter": 7245,
      "différent": 7246,
      "correspondant": 7247,
      "Südtirol": 7248,
      "Fahrzeuge": 7249,
      "Katsikas": 7250,
      "Ludwig": 7251,
      "klooster": 7252,
      "mouvement": 7253,
      "bepaalde": 7254,
      "provided": 7255,
      "results": 7256,
      "Arlequin": 7257,
      "sculpture": 7258,
      "archéologique": 7259,
      "Vorsitzender": 7260,
      "Unabhängigkeitstag": 7261,
      "Kerzen": 7262,
      "Vincent": 7263,
      "entraî": 7264,
      "präsent": 7265,
      "explained": 7266,
      "Provinz": 7267,
      "newspaper": 7268,
      "Quelques": 7269,
      "Transliteration": 7270,
      "bibliotheek": 7271,
      "Clermont": 7272,
      "Higgins": 7273,
      "Sonntag": 7274,
      "Wochen": 7275,
      "categ": 7276,
      "oberen": 7277,
      "ukrainischen": 7278,
      "gedeelte": 7279,
      "afrikan": 7280,
      "blankets": 7281,
      "Allgemeine": 7282,
      "Präsident": 7283,
      "Réunion": 7284,
      "Motivsamm": 7285,
      "Akademie": 7286,
      "Dresden": 7287,
      "Sinds": 7288,
      "Siedlung": 7289,
      "Vietnam": 7290,
      "Woodruff": 7291,
      "aquifolium": 7292,
      "häufig": 7293,
      "nördlich": 7294,
      "tätig": 7295,
      "arrivée": 7296,
      "confederal": 7297,
      "Legislat": 7298,
      "Auvergne": 7299,
      "Gebrüder": 7300,
      "language": 7301,
      "government": 7302,
      "Aansluiting": 7303,
      "Klinik": 7304,
      "Millionen": 7305,
      "Oswiu": 7306,
      "Promot": 7307,
      "Tübingen": 7308,
      "Vangu": 7309,
      "Wenceslaus": 7310,
      "zerstört": 7311,
      "Theodor": 7312,
      "Chinandega": 7313,
      "symbol": 7314,
      "Unterstützung": 7315,
      "%).": 7316,
      "(†": 7317,
      "):": 7318,
      "112": 7319,
      "33": 7320,
      "62": 7321,
      "600": 7322,
      "83": 7323,
      "85": 7324,
      "87": 7325,
      "94": 7326,
      "Act": 7327,
      "Agen": 7328,
      "Bd": 7329,
      "Bla": 7330,
      "Bir": 7331,
      "Blo": 7332,
      "Bach": 7333,
      "Bab": 7334,
      "Bell": 7335,
      "Blat": 7336,
      "Both": 7337,
      "Bai": 7338,
      "Bild": 7339,
      "Cy": 7340,
      "Cer": 7341,
      "Cir": 7342,
      "Cab": 7343,
      "Cann": 7344,
      "Cae": 7345,
      "Cedd": 7346,
      "DK": 7347,
      "DV": 7348,
      "Dat": 7349,
      "Dun": 7350,
      "Did": 7351,
      "Dien": 7352,
      "Dort": 7353,
      "Drit": 7354,
      "Dorn": 7355,
      "Et": 7356,
      "Ey": 7357,
      "Eben": 7358,
      "Eins": 7359,
      "Econom": 7360,
      "Every": 7361,
      "Element": 7362,
      "Evangel": 7363,
      "FM": 7364,
      "Fun": 7365,
      "Fau": 7366,
      "Frie": 7367,
      "Ferd": 7368,
      "Gó": 7369,
      "Gas": 7370,
      "Gab": 7371,
      "Gay": 7372,
      "Goo": 7373,
      "Gast": 7374,
      "Gary": 7375,
      "Gust": 7376,
      "Grande": 7377,
      "Gießen": 7378,
      "Hon": 7379,
      "Haar": 7380,
      "Hard": 7381,
      "Halle": 7382,
      "Hohen": 7383,
      "Its": 7384,
      "Jur": 7385,
      "Jam": 7386,
      "Jung": 7387,
      "Jos": 7388,
      "Jordi": 7389,
      "Kä": 7390,
      "Kin": 7391,
      "Kan": 7392,
      "Köl": 7393,
      "Line": 7394,
      "Lind": 7395,
      "Loc": 7396,
      "Life": 7397,
      "Mun": 7398,
      "Mach": 7399,
      "Mess": 7400,
      "Muse": 7401,
      "Meter": 7402,
      "Molen": 7403,
      "NAI": 7404,
      "OV": 7405,
      "Ox": 7406,
      "Out": 7407,
      "Oek": 7408,
      "Ped": 7409,
      "Pop": 7410,
      "Pont": 7411,
      "Pfar": 7412,
      "Pendant": 7413,
      "RD": 7414,
      "RH": 7415,
      "Rat": 7416,
      "Rein": 7417,
      "Rem": 7418,
      "Ray": 7419,
      "Rah": 7420,
      "Rip": 7421,
      "Rho": 7422,
      "Rät": 7423,
      "Raum": 7424,
      "Route": 7425,
      "Rhein": 7426,
      "SM": 7427,
      "Si": 7428,
      "Sat": 7429,
      "Ster": 7430,
      "Sein": 7431,
      "Sonder": 7432,
      "Sens": 7433,
      "Stelle": 7434,
      "Swiss": 7435,
      "SDK": 7436,
      "Tre": 7437,
      "Tro": 7438,
      "Tier": 7439,
      "Tran": 7440,
      "Turn": 7441,
      "Truck": 7442,
      "Tonnen": 7443,
      "TGV": 7444,
      "Vie": 7445,
      "Vill": 7446,
      "Vict": 7447,
      "Wen": 7448,
      "Wes": 7449,
      "Wis": 7450,
      "Wir": 7451,
      "Wall": 7452,
      "Will": 7453,
      "Wong": 7454,
      "Water": 7455,
      "Wohn": 7456,
      "XIV": 7457,
      "XXe": 7458,
      "Zo": 7459,
      "Zie": 7460,
      "Zus": 7461,
      "Zür": 7462,
      "Zoll": 7463,
      "aer": 7464,
      "abe": 7465,
      "aad": 7466,
      "aders": 7467,
      "bol": 7468,
      "bak": 7469,
      "bud": 7470,
      "block": 7471,
      "böhm": 7472,
      "cées": 7473,
      "cél": 7474,
      "cathol": 7475,
      "cœur": 7476,
      "dle": 7477,
      "dau": 7478,
      "dach": 7479,
      "daher": 7480,
      "eken": 7481,
      "ekt": 7482,
      "eded": 7483,
      "fä": 7484,
      "fille": 7485,
      "faut": 7486,
      "farm": 7487,
      "fleurs": 7488,
      "festivals": 7489,
      "gat": 7490,
      "gten": 7491,
      "gran": 7492,
      "gast": 7493,
      "gue": 7494,
      "guer": 7495,
      "handen": 7496,
      "ié": 7497,
      "ibe": 7498,
      "iée": 7499,
      "ially": 7500,
      "ji": 7501,
      "jug": 7502,
      "kg": 7503,
      "ky": 7504,
      "kant": 7505,
      "kont": 7506,
      "lla": 7507,
      "lop": 7508,
      "lli": 7509,
      "mie": 7510,
      "mess": 7511,
      "nst": 7512,
      "ned": 7513,
      "nant": 7514,
      "nég": 7515,
      "näch": 7516,
      "nooit": 7517,
      "oit": 7518,
      "oires": 7519,
      "ping": 7520,
      "poor": 7521,
      "ppe": 7522,
      "pign": 7523,
      "pied": 7524,
      "path": 7525,
      "paten": 7526,
      "pierre": 7527,
      "rim": 7528,
      "sis": 7529,
      "saf": 7530,
      "slu": 7531,
      "sister": 7532,
      "south": 7533,
      "sweise": 7534,
      "snel": 7535,
      "satis": 7536,
      "tw": 7537,
      "tan": 7538,
      "ting": 7539,
      "tingen": 7540,
      "tsche": 7541,
      "ué": 7542,
      "uant": 7543,
      "uari": 7544,
      "uiteindelijk": 7545,
      "vr": 7546,
      "vand": 7547,
      "vals": 7548,
      "vén": 7549,
      "vallen": 7550,
      "vroe": 7551,
      "wl": 7552,
      "wist": 7553,
      "wahl": 7554,
      "ye": 7555,
      "zz": 7556,
      "zus": 7557,
      "zern": 7558,
      "zond": 7559,
      "ziers": 7560,
      "ziger": 7561,
      "zones": 7562,
      "zanger": 7563,
      "zwart": 7564,
      "äre": 7565,
      "ète": 7566,
      "èle": 7567,
      "éen": 7568,
      "éten": 7569,
      "êque": 7570,
      "êtes": 7571,
      "ën": 7572,
      "ële": 7573,
      "ía": 7574,
      "île": 7575,
      "öm": 7576,
      "ül": 7577,
      "üge": 7578,
      "ena": 7579,
      "enk": 7580,
      "enor": 7581,
      "enant": 7582,
      "erf": 7583,
      "erre": 7584,
      "erden": 7585,
      "erkann": 7586,
      "iny": 7587,
      "inal": 7588,
      "inand": 7589,
      "inated": 7590,
      "intell": 7591,
      "invas": 7592,
      "instead": 7593,
      "andes": 7594,
      "anth": 7595,
      "anlage": 7596,
      "anerkann": 7597,
      "deg": 7598,
      "dement": 7599,
      "decor": 7600,
      "onische": 7601,
      "chant": 7602,
      "chans": 7603,
      "chute": 7604,
      "chief": 7605,
      "chois": 7606,
      "ested": 7607,
      "ises": 7608,
      "issi": 7609,
      "isée": 7610,
      "isés": 7611,
      "ismus": 7612,
      "isances": 7613,
      "isabeth": 7614,
      "aries": 7615,
      "arritz": 7616,
      "ormais": 7617,
      "orium": 7618,
      "teles": 7619,
      "teaux": 7620,
      "tekende": 7621,
      "health": 7622,
      "alem": 7623,
      "alités": 7624,
      "itter": 7625,
      "itzen": 7626,
      "itaire": 7627,
      "reach": 7628,
      "really": 7629,
      "reprend": 7630,
      "atom": 7631,
      "atlon": 7632,
      "atrice": 7633,
      "una": 7634,
      "uner": 7635,
      "leten": 7636,
      "least": 7637,
      "lection": 7638,
      "legt": 7639,
      "lequel": 7640,
      "leider": 7641,
      "league": 7642,
      "leaving": 7643,
      "urkund": 7644,
      "asking": 7645,
      "geï": 7646,
      "gede": 7647,
      "geworden": 7648,
      "gegeven": 7649,
      "geprä": 7650,
      "sto": 7651,
      "stap": 7652,
      "stif": 7653,
      "stren": 7654,
      "entarte": 7655,
      "iling": 7656,
      "ilég": 7657,
      "ione": 7658,
      "ela": 7659,
      "elin": 7660,
      "august": 7661,
      "auteurs": 7662,
      "romaine": 7663,
      "lait": 7664,
      "laard": 7665,
      "omium": 7666,
      "seille": 7667,
      "sector": 7668,
      "seiller": 7669,
      "ingt": 7670,
      "tool": 7671,
      "told": 7672,
      "icon": 7673,
      "icus": 7674,
      "quête": 7675,
      "oust": 7676,
      "oupier": 7677,
      "dens": 7678,
      "19th": 7679,
      "1913": 7680,
      "verb": 7681,
      "veroor": 7682,
      "verbet": 7683,
      "vervolgens": 7684,
      "iges": 7685,
      "tere": 7686,
      "rag": 7687,
      "rahl": 7688,
      "vanwege": 7689,
      "users": 7690,
      "usques": 7691,
      "usalem": 7692,
      "bevor": 7693,
      "beispiel": 7694,
      "bevinden": 7695,
      "bewegung": 7696,
      "dessin": 7697,
      "schön": 7698,
      "schutz": 7699,
      "imal": 7700,
      "thu": 7701,
      "opin": 7702,
      "oppel": 7703,
      "opgenomen": 7704,
      "undation": 7705,
      "tene": 7706,
      "ceerd": 7707,
      "mez": 7708,
      "memb": 7709,
      "nemen": 7710,
      "nements": 7711,
      "neapolis": 7712,
      "werken": 7713,
      "geno": 7714,
      "add": 7715,
      "adap": 7716,
      "added": 7717,
      "einfach": 7718,
      "parade": 7719,
      "utch": 7720,
      "utlich": 7721,
      "utive": 7722,
      "pron": 7723,
      "prior": 7724,
      "prenant": 7725,
      "conidae": 7726,
      "connex": 7727,
      "achse": 7728,
      "istischen": 7729,
      "istique": 7730,
      "idingen": 7731,
      "Inner": 7732,
      "Indon": 7733,
      "Investig": 7734,
      "antry": 7735,
      "coming": 7736,
      "compar": 7737,
      "mention": 7738,
      "wezig": 7739,
      "mage": 7740,
      "dite": 7741,
      "diens": 7742,
      "DeFree": 7743,
      "propre": 7744,
      "prosec": 7745,
      "propri": 7746,
      "pool": 7747,
      "poses": 7748,
      "ulp": 7749,
      "ulation": 7750,
      "Story": 7751,
      "rivier": 7752,
      "affa": 7753,
      "sper": 7754,
      "spann": 7755,
      "spread": 7756,
      "agno": 7757,
      "lique": 7758,
      "liance": 7759,
      "lives": 7760,
      "rust": 7761,
      "zeigt": 7762,
      "acre": 7763,
      "acad": 7764,
      "acted": 7765,
      "acteurs": 7766,
      "lyn": 7767,
      "lying": 7768,
      "rescri": 7769,
      "embr": 7770,
      "ciété": 7771,
      "vooral": 7772,
      "voormal": 7773,
      "1800": 7774,
      "1815": 7775,
      "1848": 7776,
      "moeten": 7777,
      "sives": 7778,
      "sibil": 7779,
      "réseau": 7780,
      "Leiter": 7781,
      "ogg": 7782,
      "ogar": 7783,
      "ogie": 7784,
      "navig": 7785,
      "angs": 7786,
      "exact": 7787,
      "uitbre": 7788,
      "demand": 7789,
      "demotic": 7790,
      "mettre": 7791,
      "puters": 7792,
      "Schot": 7793,
      "Schmid": 7794,
      "Schwes": 7795,
      "Schienen": 7796,
      "aufgel": 7797,
      "aufgenommen": 7798,
      "ends": 7799,
      "ifen": 7800,
      "démo": 7801,
      "décl": 7802,
      "déput": 7803,
      "worm": 7804,
      "zuid": 7805,
      "ijnen": 7806,
      "aya": 7807,
      "sons": 7808,
      "ller": 7809,
      "établ": 7810,
      "performed": 7811,
      "gese": 7812,
      "gesetz": 7813,
      "gesamt": 7814,
      "gesloten": 7815,
      "lief": 7816,
      "manif": 7817,
      "manuel": 7818,
      "artific": 7819,
      "Ang": 7820,
      "Andre": 7821,
      "server": 7822,
      "serve": 7823,
      "financi": 7824,
      "aval": 7825,
      "herren": 7826,
      "cock": 7827,
      "Hechingen": 7828,
      "german": 7829,
      "Cham": 7830,
      "Chines": 7831,
      "Chief": 7832,
      "indre": 7833,
      "astic": 7834,
      "ordre": 7835,
      "Aufl": 7836,
      "Außen": 7837,
      "partner": 7838,
      "shall": 7839,
      "shape": 7840,
      "trek": 7841,
      "treat": 7842,
      "ardo": 7843,
      "brev": 7844,
      "break": 7845,
      "bler": 7846,
      "socie": 7847,
      "voed": 7848,
      "Also": 7849,
      "Alpes": 7850,
      "Alfred": 7851,
      "phin": 7852,
      "fail": 7853,
      "façon": 7854,
      "Arvor": 7855,
      "Arroux": 7856,
      "note": 7857,
      "gebiete": 7858,
      "gebäude": 7859,
      "izens": 7860,
      "essel": 7861,
      "schaffen": 7862,
      "Marcel": 7863,
      "Marseille": 7864,
      "Lake": 7865,
      "ondersteun": 7866,
      "compat": 7867,
      "Verder": 7868,
      "Vereine": 7869,
      "Verenig": 7870,
      "datab": 7871,
      "illeaume": 7872,
      "interest": 7873,
      "feiert": 7874,
      "Road": 7875,
      "Royal": 7876,
      "1961": 7877,
      "clé": 7878,
      "climat": 7879,
      "ouses": 7880,
      "besluit": 7881,
      "Sprecher": 7882,
      "observ": 7883,
      "objet": 7884,
      "obtain": 7885,
      "ockey": 7886,
      "groen": 7887,
      "Seiten": 7888,
      "Seoul": 7889,
      "Sears": 7890,
      "allemand": 7891,
      "box": 7892,
      "boy": 7893,
      "boys": 7894,
      "erei": 7895,
      "änden": 7896,
      "1500": 7897,
      "waarmee": 7898,
      "sied": 7899,
      "bergte": 7900,
      "bergang": 7901,
      "Ilana": 7902,
      "ianten": 7903,
      "inté": 7904,
      "bestaan": 7905,
      "toty": 7906,
      "speelt": 7907,
      "minutes": 7908,
      "scale": 7909,
      "polation": 7910,
      "attle": 7911,
      "matches": 7912,
      "doen": 7913,
      "uerwehr": 7914,
      "natuur": 7915,
      "produc": 7916,
      "folgenden": 7917,
      "troepen": 7918,
      "dazu": 7919,
      "wiegend": 7920,
      "alism": 7921,
      "alisierung": 7922,
      "colon": 7923,
      "visie": 7924,
      "bacher": 7925,
      "musste": 7926,
      "carbon": 7927,
      "Poivre": 7928,
      "region": 7929,
      "regular": 7930,
      "regional": 7931,
      "aseerd": 7932,
      "owski": 7933,
      "Weg": 7934,
      "Weit": 7935,
      "Weber": 7936,
      "Weiper": 7937,
      "kommt": 7938,
      "hlung": 7939,
      "klasse": 7940,
      "diesen": 7941,
      "workplace": 7942,
      "Formen": 7943,
      "firma": 7944,
      "ihrem": 7945,
      "deelname": 7946,
      "Command": 7947,
      "standing": 7948,
      "standard": 7949,
      "derniers": 7950,
      "creating": 7951,
      "teilweise": 7952,
      "issements": 7953,
      "albahn": 7954,
      "letzten": 7955,
      "lange": 7956,
      "gemein": 7957,
      "gemeins": 7958,
      "goe": 7959,
      "goden": 7960,
      "medi": 7961,
      "wenige": 7962,
      "groupes": 7963,
      "ièmes": 7964,
      "1922": 7965,
      "1924": 7966,
      "1909": 7967,
      "geschlossen": 7968,
      "Louvres": 7969,
      "central": 7970,
      "ineskiën": 7971,
      "gedaan": 7972,
      "consid": 7973,
      "contain": 7974,
      "contact": 7975,
      "contains": 7976,
      "stellungen": 7977,
      "Herr": 7978,
      "plement": 7979,
      "bertin": 7980,
      "Show": 7981,
      "Shah": 7982,
      "Shink": 7983,
      "habilit": 7984,
      "Internet": 7985,
      "Internationale": 7986,
      "Interview": 7987,
      "elements": 7988,
      "player": 7989,
      "1100": 7990,
      "somet": 7991,
      "stadion": 7992,
      "bruch": 7993,
      "canad": 7994,
      "élimin": 7995,
      "independent": 7996,
      "Johnny": 7997,
      "Groot": 7998,
      "helped": 7999,
      "1888": 8000,
      "1889": 8001,
      "Ausbildung": 8002,
      "Holz": 8003,
      "Isar": 8004,
      "welche": 8005,
      "stemmen": 8006,
      "hnlich": 8007,
      "uchs": 8008,
      "blik": 8009,
      "Conne": 8010,
      "Congrès": 8011,
      "Nachdem": 8012,
      "kunst": 8013,
      "Luc": 8014,
      "Luft": 8015,
      "Norden": 8016,
      "Nordeck": 8017,
      "clear": 8018,
      "rapper": 8019,
      "1860": 8020,
      "1862": 8021,
      "1869": 8022,
      "azz": 8023,
      "ketball": 8024,
      "quator": 8025,
      "missions": 8026,
      "ISO": 8027,
      "disting": 8028,
      "longue": 8029,
      "zieht": 8030,
      "Regional": 8031,
      "Aufstie": 8032,
      "darunter": 8033,
      "democratic": 8034,
      "gehörten": 8035,
      "futur": 8036,
      "These": 8037,
      "funden": 8038,
      "classical": 8039,
      "daarnaast": 8040,
      "Ortar": 8041,
      "Christmas": 8042,
      "WorldCat": 8043,
      "boule": 8044,
      "kozen": 8045,
      "changed": 8046,
      "legal": 8047,
      "habitat": 8048,
      "Sozial": 8049,
      "Société": 8050,
      "masc": 8051,
      "passer": 8052,
      "ysis": 8053,
      "Amerikaan": 8054,
      "restling": 8055,
      "tumeur": 8056,
      "Clim": 8057,
      "brother": 8058,
      "cultiv": 8059,
      "motiv": 8060,
      "ophones": 8061,
      "Most": 8062,
      "Système": 8063,
      "rechte": 8064,
      "Gloupier": 8065,
      "Guilleaume": 8066,
      "Grad": 8067,
      "Koninkl": 8068,
      "1877": 8069,
      "Besonder": 8070,
      "Elisabeth": 8071,
      "Haute": 8072,
      "bonden": 8073,
      "nuisances": 8074,
      "neuf": 8075,
      "ctured": 8076,
      "Fluss": 8077,
      "Winnen": 8078,
      "publié": 8079,
      "Monaco": 8080,
      "Mayor": 8081,
      "Braun": 8082,
      "Braconidae": 8083,
      "Gebiete": 8084,
      "Gebäude": 8085,
      "ASM": 8086,
      "Harry": 8087,
      "biatlon": 8088,
      "patent": 8089,
      "patron": 8090,
      "1970er": 8091,
      "Foundation": 8092,
      "Sammel": 8093,
      "respons": 8094,
      "nouveaux": 8095,
      "Great": 8096,
      "Wereldoor": 8097,
      "figur": 8098,
      "harmon": 8099,
      "incorpor": 8100,
      "Entdeck": 8101,
      "Entwicklung": 8102,
      "Territ": 8103,
      "litt": 8104,
      "little": 8105,
      "wijzen": 8106,
      "realized": 8107,
      "primary": 8108,
      "primaire": 8109,
      "primarily": 8110,
      "dagog": 8111,
      "kampf": 8112,
      "spieler": 8113,
      "Frankreich": 8114,
      "ungsausschüsse": 8115,
      "Minneapolis": 8116,
      "Mexique": 8117,
      "catég": 8118,
      "catalog": 8119,
      "machts": 8120,
      "machines": 8121,
      "chronographe": 8122,
      "toege": 8123,
      "opleiding": 8124,
      "activité": 8125,
      "éléments": 8126,
      "draagt": 8127,
      "humor": 8128,
      "januari": 8129,
      "songfestival": 8130,
      "songwriter": 8131,
      "éditeur": 8132,
      "apparent": 8133,
      "suivant": 8134,
      "suppor": 8135,
      "Untersuchungsausschüsse": 8136,
      "largement": 8137,
      "gleichzeitig": 8138,
      "aéroportu": 8139,
      "kirchen": 8140,
      "verloren": 8141,
      "Ultim": 8142,
      "certain": 8143,
      "dynam": 8144,
      "prakt": 8145,
      "esterol": 8146,
      "allowed": 8147,
      "refuge": 8148,
      "bekannte": 8149,
      "sprach": 8150,
      "Gründung": 8151,
      "Plus": 8152,
      "Salama": 8153,
      "Warren": 8154,
      "fabrie": 8155,
      "onyme": 8156,
      "botij": 8157,
      "vermutlich": 8158,
      "genannten": 8159,
      "Junioren": 8160,
      "McGoo": 8161,
      "aamde": 8162,
      "kruis": 8163,
      "talk": 8164,
      "royale": 8165,
      "existing": 8166,
      "covered": 8167,
      "disputé": 8168,
      "größten": 8169,
      "Prize": 8170,
      "citizens": 8171,
      "katholischen": 8172,
      "longer": 8173,
      "augment": 8174,
      "privilég": 8175,
      "Obwohl": 8176,
      "Varennes": 8177,
      "fahren": 8178,
      "transit": 8179,
      "transport": 8180,
      "zogtum": 8181,
      "texte": 8182,
      "textes": 8183,
      "applied": 8184,
      "application": 8185,
      "nagement": 8186,
      "collection": 8187,
      "installatie": 8188,
      "Horb": 8189,
      "dirig": 8190,
      "lijnen": 8191,
      "uilen": 8192,
      "agua": 8193,
      "competition": 8194,
      "introduced": 8195,
      "bedrijven": 8196,
      "domination": 8197,
      "photograph": 8198,
      "Hubert": 8199,
      "Library": 8200,
      "légales": 8201,
      "ständig": 8202,
      "suffic": 8203,
      "synthes": 8204,
      "Ortskern": 8205,
      "simplement": 8206,
      "Gottesdienst": 8207,
      "Iraq": 8208,
      "Mesmes": 8209,
      "birn": 8210,
      "castle": 8211,
      "ädten": 8212,
      "Carlson": 8213,
      "Belgische": 8214,
      "First": 8215,
      "Flugze": 8216,
      "choix": 8217,
      "wechselte": 8218,
      "essentiellement": 8219,
      "compagnie": 8220,
      "previously": 8221,
      "qualifiés": 8222,
      "supérieur": 8223,
      "Apple": 8224,
      "Lourdes": 8225,
      "Lourens": 8226,
      "close": 8227,
      "microgravité": 8228,
      "tableaux": 8229,
      "wärts": 8230,
      "absolvierte": 8231,
      "Streit": 8232,
      "Student": 8233,
      "Studenten": 8234,
      "respectivement": 8235,
      "désormais": 8236,
      "article": 8237,
      "trainer": 8238,
      "blijven": 8239,
      "voyage": 8240,
      "sollte": 8241,
      "Biarritz": 8242,
      "Lightning": 8243,
      "Peters": 8244,
      "aims": 8245,
      "honneur": 8246,
      "kolon": 8247,
      "reçoit": 8248,
      "omobil": 8249,
      "lowers": 8250,
      "Francisco": 8251,
      "jeunes": 8252,
      "villages": 8253,
      "Company": 8254,
      "Douglas": 8255,
      "Gleich": 8256,
      "Gemar": 8257,
      "Sigmar": 8258,
      "Sénons": 8259,
      "Étrusques": 8260,
      "referred": 8261,
      "lebte": 8262,
      "style": 8263,
      "veranderingen": 8264,
      "Inseln": 8265,
      "practice": 8266,
      "Léger": 8267,
      "Richtung": 8268,
      "Tamauli": 8269,
      "Watson": 8270,
      "kämp": 8271,
      "squad": 8272,
      "reported": 8273,
      "besitzt": 8274,
      "geschiedenis": 8275,
      "Betriebs": 8276,
      "Court": 8277,
      "Poolse": 8278,
      "kroon": 8279,
      "psych": 8280,
      "österreichischen": 8281,
      "stammt": 8282,
      "veroveren": 8283,
      "verbunden": 8284,
      "established": 8285,
      "adopted": 8286,
      "voegd": 8287,
      "scenes": 8288,
      "Carolina": 8289,
      "bringing": 8290,
      "Forschungs": 8291,
      "Einwohner": 8292,
      "gedragen": 8293,
      "knowledge": 8294,
      "experience": 8295,
      "Falken": 8296,
      "Modern": 8297,
      "Pascal": 8298,
      "dritten": 8299,
      "beyond": 8300,
      "parallel": 8301,
      "Infantry": 8302,
      "républicain": 8303,
      "Leopold": 8304,
      "Bezeichnung": 8305,
      "Alphabet": 8306,
      "script": 8307,
      "Amérique": 8308,
      "destroyed": 8309,
      "Porträt": 8310,
      "verkauft": 8311,
      "kidnapping": 8312,
      "Béziers": 8313,
      "Nähe": 8314,
      "UEFA": 8315,
      "plupart": 8316,
      "cholesterol": 8317,
      "gepresenteerd": 8318,
      "schildwespen": 8319,
      "umfasst": 8320,
      "ausgestrahl": 8321,
      "physical": 8322,
      "discipl": 8323,
      "ultimately": 8324,
      "besturingssysteem": 8325,
      "Carnahan": 8326,
      "Italiaanse": 8327,
      "Saavedra": 8328,
      "hauptsächlich": 8329,
      "chronomét": 8330,
      "circonscription": 8331,
      "categorie": 8332,
      "Promotion": 8333,
      "Blatt": 8334,
      "Bailey": 8335,
      "Caecil": 8336,
      "Dornbirn": 8337,
      "Ferdinand": 8338,
      "Gómez": 8339,
      "Oekraï": 8340,
      "Tiergarten": 8341,
      "célè": 8342,
      "catholique": 8343,
      "augustus": 8344,
      "beispielsweise": 8345,
      "DeFreeze": 8346,
      "affaires": 8347,
      "Chinese": 8348,
      "society": 8349,
      "Shinkansen": 8350,
      "Wereldoorlog": 8351,
      "Ultimate": 8352,
      "McGoohan": 8353,
      "(\"": 8354,
      ".[": 8355,
      ".“": 8356,
      "1st": 8357,
      "1200": 8358,
      "117": 8359,
      "57": 8360,
      "67": 8361,
      "73": 8362,
      "74": 8363,
      "92": 8364,
      "99": 8365,
      "A4": 8366,
      "AO": 8367,
      "Ast": 8368,
      "Ala": 8369,
      "Aul": 8370,
      "Ash": 8371,
      "Athen": 8372,
      "Aero": 8373,
      "Area": 8374,
      "Acorn": 8375,
      "BI": 8376,
      "BM": 8377,
      "BV": 8378,
      "Bat": 8379,
      "Bein": 8380,
      "Bist": 8381,
      "Bien": 8382,
      "Bonn": 8383,
      "Brain": 8384,
      "Brian": 8385,
      "Bureau": 8386,
      "CA": 8387,
      "CG": 8388,
      "CH": 8389,
      "CV": 8390,
      "Ck": 8391,
      "Cet": 8392,
      "Cro": 8393,
      "Clo": 8394,
      "Cze": 8395,
      "Corte": 8396,
      "Corps": 8397,
      "CBS": 8398,
      "Do": 8399,
      "Dra": 8400,
      "DSA": 8401,
      "EA": 8402,
      "EK": 8403,
      "Eis": 8404,
      "Eich": 8405,
      "Ell": 8406,
      "Eston": 8407,
      "FI": 8408,
      "Fé": 8409,
      "Ful": 8410,
      "Freg": 8411,
      "Foot": 8412,
      "Friend": 8413,
      "Führ": 8414,
      "Gest": 8415,
      "Gier": 8416,
      "Gut": 8417,
      "Gorn": 8418,
      "Gott": 8419,
      "Gruppe": 8420,
      "HL": 8421,
      "HN": 8422,
      "Hô": 8423,
      "Hex": 8424,
      "Hamp": 8425,
      "Hinter": 8426,
      "Hamil": 8427,
      "Hallow": 8428,
      "If": 8429,
      "Ike": 8430,
      "Ja": 8431,
      "Jar": 8432,
      "Jür": 8433,
      "Jak": 8434,
      "Jér": 8435,
      "Java": 8436,
      "Ken": 8437,
      "Kas": 8438,
      "Kim": 8439,
      "Kont": 8440,
      "Kauf": 8441,
      "Kno": 8442,
      "Kore": 8443,
      "Karr": 8444,
      "Kathol": 8445,
      "Lauf": 8446,
      "Live": 8447,
      "Lux": 8448,
      "Lahn": 8449,
      "Lollar": 8450,
      "Mi": 8451,
      "Mö": 8452,
      "Mol": 8453,
      "More": 8454,
      "Mater": 8455,
      "NV": 8456,
      "Ner": 8457,
      "Non": 8458,
      "Nar": 8459,
      "Nat": 8460,
      "Nun": 8461,
      "Nur": 8462,
      "Nam": 8463,
      "Nür": 8464,
      "Nacht": 8465,
      "Nick": 8466,
      "Nadat": 8467,
      "OC": 8468,
      "Of": 8469,
      "Ou": 8470,
      "Off": 8471,
      "PS": 8472,
      "Paar": 8473,
      "Prich": 8474,
      "Pace": 8475,
      "Press": 8476,
      "PAO": 8477,
      "Qur": 8478,
      "Ri": 8479,
      "Rv": 8480,
      "Ran": 8481,
      "Ron": 8482,
      "Rhe": 8483,
      "Rel": 8484,
      "Rol": 8485,
      "Ric": 8486,
      "Riel": 8487,
      "Rio": 8488,
      "Rennes": 8489,
      "Rights": 8490,
      "Runde": 8491,
      "Ritter": 8492,
      "SU": 8493,
      "Ses": 8494,
      "Sou": 8495,
      "Song": 8496,
      "Sho": 8497,
      "SBS": 8498,
      "TR": 8499,
      "TV": 8500,
      "Tan": 8501,
      "Tau": 8502,
      "Tah": 8503,
      "Two": 8504,
      "Tät": 8505,
      "Takt": 8506,
      "Toute": 8507,
      "Trus": 8508,
      "Truppen": 8509,
      "Uit": 8510,
      "Utre": 8511,
      "Ukrain": 8512,
      "UIL": 8513,
      "Uiteindelijk": 8514,
      "Ukra": 8515,
      "VT": 8516,
      "Valen": 8517,
      "Wü": 8518,
      "Wies": 8519,
      "Wahr": 8520,
      "Who": 8521,
      "Wars": 8522,
      "Wolf": 8523,
      "Wester": 8524,
      "Yor": 8525,
      "Youth": 8526,
      "Zij": 8527,
      "Ziel": 8528,
      "Zone": 8529,
      "aa": 8530,
      "aß": 8531,
      "aí": 8532,
      "aen": 8533,
      "adem": 8534,
      "apart": 8535,
      "aded": 8536,
      "aissance": 8537,
      "aît": 8538,
      "aansluit": 8539,
      "awarded": 8540,
      "bé": 8541,
      "bond": 8542,
      "bren": 8543,
      "bob": 8544,
      "bile": 8545,
      "brief": 8546,
      "baden": 8547,
      "bapt": 8548,
      "bomb": 8549,
      "béné": 8550,
      "cass": 8551,
      "card": 8552,
      "cell": 8553,
      "cité": 8554,
      "citer": 8555,
      "cape": 8556,
      "dj": 8557,
      "dr": 8558,
      "dür": 8559,
      "dische": 8560,
      "dage": 8561,
      "done": 8562,
      "dungs": 8563,
      "dracht": 8564,
      "dram": 8565,
      "eau": 8566,
      "eig": 8567,
      "equi": 8568,
      "eco": 8569,
      "evidence": 8570,
      "fie": 8571,
      "fung": 8572,
      "fall": 8573,
      "fief": 8574,
      "fried": 8575,
      "filled": 8576,
      "fiction": 8577,
      "git": 8578,
      "gather": 8579,
      "gruppe": 8580,
      "golden": 8581,
      "hes": 8582,
      "haut": 8583,
      "hamm": 8584,
      "haal": 8585,
      "häus": 8586,
      "hours": 8587,
      "iant": 8588,
      "idel": 8589,
      "jpr": 8590,
      "jahr": 8591,
      "jud": 8592,
      "kr": 8593,
      "kal": 8594,
      "kers": 8595,
      "kort": 8596,
      "kust": 8597,
      "kking": 8598,
      "kilometer": 8599,
      "lor": 8600,
      "mê": 8601,
      "mund": 8602,
      "mment": 8603,
      "male": 8604,
      "mmet": 8605,
      "migen": 8606,
      "mous": 8607,
      "mile": 8608,
      "mnas": 8609,
      "nt": 8610,
      "nus": 8611,
      "nine": 8612,
      "nell": 8613,
      "nberg": 8614,
      "nette": 8615,
      "noorden": 8616,
      "oe": 8617,
      "oon": 8618,
      "ove": 8619,
      "oine": 8620,
      "oepen": 8621,
      "pin": 8622,
      "pite": 8623,
      "pond": 8624,
      "peine": 8625,
      "prec": 8626,
      "pick": 8627,
      "pistes": 8628,
      "pât": 8629,
      "rd": 8630,
      "rs": 8631,
      "rund": 8632,
      "rut": 8633,
      "rische": 8634,
      "rise": 8635,
      "rong": 8636,
      "rural": 8637,
      "sion": 8638,
      "sli": 8639,
      "sauf": 8640,
      "sah": 8641,
      "sins": 8642,
      "sogar": 8643,
      "tâ": 8644,
      "tor": 8645,
      "tten": 8646,
      "tir": 8647,
      "tab": 8648,
      "tje": 8649,
      "tige": 8650,
      "toren": 8651,
      "tschafts": 8652,
      "ugen": 8653,
      "ußen": 8654,
      "uels": 8655,
      "utend": 8656,
      "vran": 8657,
      "vite": 8658,
      "vais": 8659,
      "vacc": 8660,
      "wth": 8661,
      "want": 8662,
      "wall": 8663,
      "write": 8664,
      "zat": 8665,
      "zet": 8666,
      "zed": 8667,
      "zest": 8668,
      "zak": 8669,
      "zess": 8670,
      "zige": 8671,
      "zwaar": 8672,
      "zeren": 8673,
      "zka": 8674,
      "zähl": 8675,
      "².": 8676,
      "Égl": 8677,
      "Édouard": 8678,
      "èces": 8679,
      "éph": 8680,
      "éens": 8681,
      "étend": 8682,
      "école": 8683,
      "énagement": 8684,
      "ünen": 8685,
      "üss": 8686,
      "ended": 8687,
      "envoy": 8688,
      "enroll": 8689,
      "erb": 8690,
      "erne": 8691,
      "erweise": 8692,
      "erhält": 8693,
      "erlau": 8694,
      "erneut": 8695,
      "inch": 8696,
      "init": 8697,
      "inson": 8698,
      "inction": 8699,
      "inary": 8700,
      "invent": 8701,
      "incar": 8702,
      "inking": 8703,
      "inaug": 8704,
      "anal": 8705,
      "anteil": 8706,
      "anmoins": 8707,
      "dex": 8708,
      "deme": 8709,
      "dead": 8710,
      "deerde": 8711,
      "defeat": 8712,
      "departement": 8713,
      "declar": 8714,
      "onais": 8715,
      "online": 8716,
      "esen": 8717,
      "escape": 8718,
      "ised": 8719,
      "isher": 8720,
      "island": 8721,
      "isition": 8722,
      "armed": 8723,
      "arbres": 8724,
      "oria": 8725,
      "oriën": 8726,
      "teg": 8727,
      "tees": 8728,
      "teken": 8729,
      "teile": 8730,
      "tevens": 8731,
      "heen": 8732,
      "heer": 8733,
      "heure": 8734,
      "alben": 8735,
      "align": 8736,
      "algemeen": 8737,
      "itan": 8738,
      "itur": 8739,
      "iting": 8740,
      "itaires": 8741,
      "itäts": 8742,
      "itäten": 8743,
      "ieur": 8744,
      "iets": 8745,
      "rect": 8746,
      "repres": 8747,
      "review": 8748,
      "reaction": 8749,
      "reprises": 8750,
      "atique": 8751,
      "ators": 8752,
      "atory": 8753,
      "unge": 8754,
      "unche": 8755,
      "unique": 8756,
      "lem": 8757,
      "leun": 8758,
      "leicht": 8759,
      "uring": 8760,
      "assi": 8761,
      "asiat": 8762,
      "geber": 8763,
      "geist": 8764,
      "gement": 8765,
      "getro": 8766,
      "gevangen": 8767,
      "georganise": 8768,
      "gevaardig": 8769,
      "gewerkt": 8770,
      "geworfen": 8771,
      "gekozen": 8772,
      "stab": 8773,
      "stond": 8774,
      "stok": 8775,
      "stade": 8776,
      "staten": 8777,
      "stances": 8778,
      "strecken": 8779,
      "streeks": 8780,
      "derten": 8781,
      "derung": 8782,
      "eth": 8783,
      "ety": 8784,
      "etwas": 8785,
      "ethn": 8786,
      "theory": 8787,
      "theatre": 8788,
      "entier": 8789,
      "entire": 8790,
      "entry": 8791,
      "entlichen": 8792,
      "entdeck": 8793,
      "entsprech": 8794,
      "ilar": 8795,
      "ility": 8796,
      "eland": 8797,
      "ella": 8798,
      "else": 8799,
      "aujour": 8800,
      "audit": 8801,
      "rome": 8802,
      "rout": 8803,
      "roul": 8804,
      "roler": 8805,
      "andis": 8806,
      "andal": 8807,
      "aman": 8808,
      "ambass": 8809,
      "lach": 8810,
      "omer": 8811,
      "omet": 8812,
      "omslag": 8813,
      "seur": 8814,
      "separ": 8815,
      "sema": 8816,
      "seval": 8817,
      "tog": 8818,
      "toern": 8819,
      "tocht": 8820,
      "touch": 8821,
      "toeg": 8822,
      "older": 8823,
      "icle": 8824,
      "icks": 8825,
      "icated": 8826,
      "ijzeren": 8827,
      "quot": 8828,
      "quert": 8829,
      "ouvre": 8830,
      "19e": 8831,
      "1916": 8832,
      "verto": 8833,
      "verant": 8834,
      "verfü": 8835,
      "verband": 8836,
      "verhin": 8837,
      "verhält": 8838,
      "vervangen": 8839,
      "vertegenwoordig": 8840,
      "verstär": 8841,
      "igmann": 8842,
      "icher": 8843,
      "rac": 8844,
      "rach": 8845,
      "rait": 8846,
      "vang": 8847,
      "beendete": 8848,
      "desser": 8849,
      "schu": 8850,
      "schop": 8851,
      "schans": 8852,
      "schwar": 8853,
      "schuss": 8854,
      "schade": 8855,
      "schepen": 8856,
      "schilder": 8857,
      "imar": 8858,
      "imet": 8859,
      "imme": 8860,
      "image": 8861,
      "implement": 8862,
      "thun": 8863,
      "thers": 8864,
      "thèse": 8865,
      "opro": 8866,
      "oppose": 8867,
      "opdracht": 8868,
      "oorde": 8869,
      "tenberg": 8870,
      "cept": 8871,
      "irer": 8872,
      "irent": 8873,
      "vey": 8874,
      "veen": 8875,
      "berüh": 8876,
      "berries": 8877,
      "nem": 8878,
      "neigh": 8879,
      "umes": 8880,
      "umph": 8881,
      "ierungen": 8882,
      "ierungs": 8883,
      "werb": 8884,
      "werke": 8885,
      "gence": 8886,
      "genummer": 8887,
      "pare": 8888,
      "uttle": 8889,
      "ischem": 8890,
      "prest": 8891,
      "loi": 8892,
      "loan": 8893,
      "condu": 8894,
      "concer": 8895,
      "conversion": 8896,
      "forts": 8897,
      "achen": 8898,
      "istisch": 8899,
      "istice": 8900,
      "istance": 8901,
      "ids": 8902,
      "idde": 8903,
      "idity": 8904,
      "Inc": 8905,
      "Ingen": 8906,
      "Information": 8907,
      "comes": 8908,
      "compe": 8909,
      "compris": 8910,
      "mental": 8911,
      "wei": 8912,
      "weist": 8913,
      "weib": 8914,
      "maß": 8915,
      "maî": 8916,
      "dient": 8917,
      "dive": 8918,
      "dioc": 8919,
      "divers": 8920,
      "promo": 8921,
      "proces": 8922,
      "promot": 8923,
      "procès": 8924,
      "Stück": 8925,
      "Strange": 8926,
      "Stimmen": 8927,
      "rift": 8928,
      "rières": 8929,
      "afrit": 8930,
      "spor": 8931,
      "spoor": 8932,
      "spir": 8933,
      "sports": 8934,
      "aarde": 8935,
      "vonden": 8936,
      "stet": 8937,
      "steel": 8938,
      "stemen": 8939,
      "steht": 8940,
      "lip": 8941,
      "liban": 8942,
      "ruz": 8943,
      "ruim": 8944,
      "zem": 8945,
      "zeigte": 8946,
      "zeggen": 8947,
      "sume": 8948,
      "acid": 8949,
      "accom": 8950,
      "acres": 8951,
      "acces": 8952,
      "accompag": 8953,
      "account": 8954,
      "acoust": 8955,
      "Theological": 8956,
      "lyric": 8957,
      "resol": 8958,
      "rescue": 8959,
      "emer": 8960,
      "embla": 8961,
      "cious": 8962,
      "civil": 8963,
      "voordelen": 8964,
      "moires": 8965,
      "mother": 8966,
      "rieved": 8967,
      "réc": 8968,
      "réput": 8969,
      "référence": 8970,
      "Lex": 8971,
      "Leicht": 8972,
      "Lehre": 8973,
      "Lebens": 8974,
      "nait": 8975,
      "exe": 8976,
      "examp": 8977,
      "existen": 8978,
      "express": 8979,
      "ausgaben": 8980,
      "iende": 8981,
      "assel": 8982,
      "uitvo": 8983,
      "demande": 8984,
      "pure": 8985,
      "puissant": 8986,
      "Sche": 8987,
      "Schl": 8988,
      "Schon": 8989,
      "Schwer": 8990,
      "Schach": 8991,
      "Schwar": 8992,
      "Schif": 8993,
      "Schloß": 8994,
      "Schicks": 8995,
      "aanwezig": 8996,
      "aufgrund": 8997,
      "endung": 8998,
      "ified": 8999,
      "dépendant": 9000,
      "décrit": 9001,
      "détru": 9002,
      "déroul": 9003,
      "ineerd": 9004,
      "cker": 9005,
      "zudem": 9006,
      "zuvor": 9007,
      "aykh": 9008,
      "senat": 9009,
      "senior": 9010,
      "iki": 9011,
      "iesen": 9012,
      "geld": 9013,
      "gelaten": 9014,
      "songs": 9015,
      "étrus": 9016,
      "perd": 9017,
      "perate": 9018,
      "perman": 9019,
      "periment": 9020,
      "performan": 9021,
      "gesam": 9022,
      "gespro": 9023,
      "gesche": 9024,
      "liegenden": 9025,
      "artes": 9026,
      "Anw": 9027,
      "Ander": 9028,
      "Andro": 9029,
      "without": 9030,
      "mente": 9031,
      "mensen": 9032,
      "menteerd": 9033,
      "seront": 9034,
      "Republic": 9035,
      "Rechte": 9036,
      "finished": 9037,
      "finanz": 9038,
      "ills": 9039,
      "avy": 9040,
      "Franzo": 9041,
      "heraus": 9042,
      "coer": 9043,
      "coin": 9044,
      "grat": 9045,
      "grens": 9046,
      "sitz": 9047,
      "Chunche": 9048,
      "inda": 9049,
      "indischen": 9050,
      "astro": 9051,
      "astron": 9052,
      "Beer": 9053,
      "Beteil": 9054,
      "Auft": 9055,
      "treden": 9056,
      "trad": 9057,
      "ield": 9058,
      "marken": 9059,
      "marine": 9060,
      "married": 9061,
      "breit": 9062,
      "blauf": 9063,
      "blanc": 9064,
      "surviv": 9065,
      "sovi": 9066,
      "Gew": 9067,
      "Alt": 9068,
      "faith": 9069,
      "venant": 9070,
      "tric": 9071,
      "gebau": 9072,
      "gebaseerd": 9073,
      "overheid": 9074,
      "Mary": 9075,
      "Marion": 9076,
      "Marto": 9077,
      "Markt": 9078,
      "Marino": 9079,
      "Law": 9080,
      "ibel": 9081,
      "compéten": 9082,
      "Vertre": 9083,
      "Vermont": 9084,
      "Verlag": 9085,
      "Verhält": 9086,
      "Verlauf": 9087,
      "Veranst": 9088,
      "nations": 9089,
      "nationaux": 9090,
      "nationwide": 9091,
      "internet": 9092,
      "interface": 9093,
      "recalls": 9094,
      "jekt": 9095,
      "jected": 9096,
      "ongfestival": 9097,
      "onguay": 9098,
      "Rosen": 9099,
      "Roche": 9100,
      "igence": 9101,
      "clam": 9102,
      "Erb": 9103,
      "Ernst": 9104,
      "Paragu": 9105,
      "Parseval": 9106,
      "besliss": 9107,
      "bijzonder": 9108,
      "Spitzen": 9109,
      "osse": 9110,
      "nachdem": 9111,
      "sicher": 9112,
      "obten": 9113,
      "prevent": 9114,
      "volont": 9115,
      "volgde": 9116,
      "gros": 9117,
      "groß": 9118,
      "growing": 9119,
      "growth": 9120,
      "igné": 9121,
      "ignes": 9122,
      "ignor": 9123,
      "alleg": 9124,
      "ünd": 9125,
      "vorgenommen": 9126,
      "autonom": 9127,
      "symp": 9128,
      "waarschijn": 9129,
      "however": 9130,
      "ertigt": 9131,
      "forms": 9132,
      "nommen": 9133,
      "hadden": 9134,
      "lines": 9135,
      "linie": 9136,
      "linien": 9137,
      "ricia": 9138,
      "ricket": 9139,
      "übernahm": 9140,
      "graben": 9141,
      "graven": 9142,
      "zenden": 9143,
      "math": 9144,
      "innt": 9145,
      "énag": 9146,
      "Grünen": 9147,
      "ologne": 9148,
      "ologische": 9149,
      "teams": 9150,
      "versions": 9151,
      "God": 9152,
      "zodat": 9153,
      "gehen": 9154,
      "entreprend": 9155,
      "entretien": 9156,
      "burgeme": 9157,
      "types": 9158,
      "produit": 9159,
      "cylinder": 9160,
      "folgt": 9161,
      "taats": 9162,
      "tails": 9163,
      "taxe": 9164,
      "trodu": 9165,
      "daad": 9166,
      "Protest": 9167,
      "betrieben": 9168,
      "colf": 9169,
      "color": 9170,
      "örper": 9171,
      "IIe": 9172,
      "presque": 9173,
      "pressure": 9174,
      "carrière": 9175,
      "champions": 9176,
      "championnats": 9177,
      "whose": 9178,
      "Abteilung": 9179,
      "Point": 9180,
      "regard": 9181,
      "athle": 9182,
      "acked": 9183,
      "puisqu": 9184,
      "Week": 9185,
      "komst": 9186,
      "klassen": 9187,
      "Beruf": 9188,
      "appelés": 9189,
      "Forum": 9190,
      "frère": 9191,
      "Nova": 9192,
      "sociales": 9193,
      "Brun": 9194,
      "Brionnais": 9195,
      "Commission": 9196,
      "messer": 9197,
      "mesure": 9198,
      "crew": 9199,
      "communic": 9200,
      "Boston": 9201,
      "Tegen": 9202,
      "Teile": 9203,
      "hui": 9204,
      "huizen": 9205,
      "untain": 9206,
      "isseur": 9207,
      "letic": 9208,
      "lettre": 9209,
      "Einzel": 9210,
      "lane": 9211,
      "lande": 9212,
      "malgré": 9213,
      "engag": 9214,
      "diffé": 9215,
      "belge": 9216,
      "belief": 9217,
      "goal": 9218,
      "Maine": 9219,
      "zweig": 9220,
      "altungs": 9221,
      "1926": 9222,
      "geschreven": 9223,
      "führen": 9224,
      "führende": 9225,
      "Louvre": 9226,
      "mannschaft": 9227,
      "news": 9228,
      "locksm": 9229,
      "consum": 9230,
      "consists": 9231,
      "conscious": 9232,
      "bands": 9233,
      "participer": 9234,
      "konden": 9235,
      "penal": 9236,
      "verschenen": 9237,
      "Landry": 9238,
      "election": 9239,
      "elektr": 9240,
      "plays": 9241,
      "Jeanne": 9242,
      "Queen": 9243,
      "begint": 9244,
      "somit": 9245,
      "fluss": 9246,
      "flügel": 9247,
      "brug": 9248,
      "canaden": 9249,
      "ways": 9250,
      "numéro": 9251,
      "geleverd": 9252,
      "Barcel": 9253,
      "Growler": 9254,
      "Vorstand": 9255,
      "courses": 9256,
      "damals": 9257,
      "starten": 9258,
      "1880": 9259,
      "bande": 9260,
      "montres": 9261,
      "welke": 9262,
      "welijke": 9263,
      "behan": 9264,
      "rative": 9265,
      "accident": 9266,
      "médi": 9267,
      "mémoire": 9268,
      "andenburg": 9269,
      "positive": 9270,
      "Express": 9271,
      "Experiment": 9272,
      "Genoot": 9273,
      "Conference": 9274,
      "kunft": 9275,
      "älder": 9276,
      "Schools": 9277,
      "publication": 9278,
      "amental": 9279,
      "direkt": 9280,
      "effic": 9281,
      "seitig": 9282,
      "arrê": 9283,
      "meerdere": 9284,
      "tests": 9285,
      "Polen": 9286,
      "longtemps": 9287,
      "ziekenhuis": 9288,
      "Reggae": 9289,
      "Regierungs": 9290,
      "Frü": 9291,
      "dark": 9292,
      "hinten": 9293,
      "hinaus": 9294,
      "sowohl": 9295,
      "mehreren": 9296,
      "gehörigkeit": 9297,
      "Joy": 9298,
      "Loaí": 9299,
      "future": 9300,
      "gardes": 9301,
      "deutscher": 9302,
      "1856": 9303,
      "ließt": 9304,
      "Thor": 9305,
      "function": 9306,
      "subsequent": 9307,
      "Olympia": 9308,
      "daarna": 9309,
      "toutes": 9310,
      "beschä": 9311,
      "bouwen": 9312,
      "glass": 9313,
      "spring": 9314,
      "chanteur": 9315,
      "Muslim": 9316,
      "middels": 9317,
      "sky": 9318,
      "1892": 9319,
      "1893": 9320,
      "1896": 9321,
      "records": 9322,
      "recording": 9323,
      "troisième": 9324,
      "gestion": 9325,
      "restre": 9326,
      "ausschließlich": 9327,
      "situatie": 9328,
      "Claude": 9329,
      "créé": 9330,
      "créer": 9331,
      "ophone": 9332,
      "902": 9333,
      "Lange": 9334,
      "Meer": 9335,
      "Meister": 9336,
      "ächs": 9337,
      "immt": 9338,
      "immung": 9339,
      "projects": 9340,
      "siècles": 9341,
      "feature": 9342,
      "Grafen": 9343,
      "Konf": 9344,
      "Konz": 9345,
      "Prä": 9346,
      "bahnhof": 9347,
      "efforts": 9348,
      "gues": 9349,
      "guil": 9350,
      "mandat": 9351,
      "1871": 9352,
      "1875": 9353,
      "Besatz": 9354,
      "Karte": 9355,
      "droit": 9356,
      "qualifizieren": 9357,
      "igerung": 9358,
      "saisons": 9359,
      "génération": 9360,
      "Jules": 9361,
      "Matth": 9362,
      "Mathemat": 9363,
      "weitgehend": 9364,
      "publik": 9365,
      "Performan": 9366,
      "Perpign": 9367,
      "Sax": 9368,
      "issues": 9369,
      "technique": 9370,
      "participants": 9371,
      "Zwei": 9372,
      "ASA": 9373,
      "Henne": 9374,
      "Harvard": 9375,
      "bios": 9376,
      "patri": 9377,
      "wesen": 9378,
      "autoroute": 9379,
      "Denkmal": 9380,
      "critic": 9381,
      "témo": 9382,
      "tendance": 9383,
      "Urb": 9384,
      "erreichten": 9385,
      "incident": 9386,
      "request": 9387,
      "requires": 9388,
      "Entart": 9389,
      "Entwurf": 9390,
      "Artikel": 9391,
      "officiel": 9392,
      "official": 9393,
      "Castonguay": 9394,
      "Portland": 9395,
      "XVIII": 9396,
      "itié": 9397,
      "professionnel": 9398,
      "professionnels": 9399,
      "Hispan": 9400,
      "Rub": 9401,
      "haupt": 9402,
      "petit": 9403,
      "triumph": 9404,
      "Straß": 9405,
      "spielt": 9406,
      "Frankrijk": 9407,
      "Galax": 9408,
      "Walter": 9409,
      "formele": 9410,
      "directe": 9411,
      "directement": 9412,
      "activités": 9413,
      "ographes": 9414,
      "ographie": 9415,
      "irage": 9416,
      "émig": 9417,
      "évêque": 9418,
      "anciens": 9419,
      "weiterer": 9420,
      "groepen": 9421,
      "culturelle": 9422,
      "Folgen": 9423,
      "territoires": 9424,
      "operation": 9425,
      "traditions": 9426,
      "Arbeits": 9427,
      "Mitglieder": 9428,
      "successivement": 9429,
      "Aircraft": 9430,
      "Krist": 9431,
      "Medien": 9432,
      "Medlyc": 9433,
      "Patrick": 9434,
      "Rusland": 9435,
      "Wahlkreis": 9436,
      "Wahlbezirk": 9437,
      "gefertigt": 9438,
      "quarts": 9439,
      "importante": 9440,
      "discus": 9441,
      "Durchmesser": 9442,
      "historical": 9443,
      "Bilden": 9444,
      "Billy": 9445,
      "Parti": 9446,
      "justice": 9447,
      "vaart": 9448,
      "rechtspraak": 9449,
      "Grünberg": 9450,
      "Grünhain": 9451,
      "Canadian": 9452,
      "Burgee": 9453,
      "Dark": 9454,
      "Garden": 9455,
      "Garten": 9456,
      "donner": 9457,
      "furent": 9458,
      "fabri": 9459,
      "recherches": 9460,
      "Gewerkschaft": 9461,
      "Gewerkschaften": 9462,
      "Williams": 9463,
      "Butler": 9464,
      "Ferner": 9465,
      "Fernsehen": 9466,
      "Some": 9467,
      "Turm": 9468,
      "ecutive": 9469,
      "zykl": 9470,
      "animateur": 9471,
      "statut": 9472,
      "starting": 9473,
      "abilities": 9474,
      "Kirchengemeinde": 9475,
      "olympisch": 9476,
      "cris": 9477,
      "crème": 9478,
      "freedom": 9479,
      "fruit": 9480,
      "talent": 9481,
      "uellement": 9482,
      "élection": 9483,
      "élections": 9484,
      "espèces": 9485,
      "acquired": 9486,
      "réalisé": 9487,
      "coverage": 9488,
      "disputent": 9489,
      "military": 9490,
      "effectués": 9491,
      "einges": 9492,
      "ähnlich": 9493,
      "erfolg": 9494,
      "Schulen": 9495,
      "Großher": 9496,
      "Dabei": 9497,
      "Object": 9498,
      "Text": 9499,
      "datei": 9500,
      "hafen": 9501,
      "haften": 9502,
      "alternative": 9503,
      "improved": 9504,
      "generally": 9505,
      "contrat": 9506,
      "contrôle": 9507,
      "ändert": 9508,
      "Edward": 9509,
      "Emmanuel": 9510,
      "Hierdoor": 9511,
      "hardware": 9512,
      "influenced": 9513,
      "ionnaire": 9514,
      "belangrijk": 9515,
      "kampioenschap": 9516,
      "Japanse": 9517,
      "photos": 9518,
      "Natural": 9519,
      "Naturschutz": 9520,
      "Racers": 9521,
      "femme": 9522,
      "friendly": 9523,
      "jobs": 9524,
      "Österreichischen": 9525,
      "œuvres": 9526,
      "schulte": 9527,
      "compilers": 9528,
      "interviews": 9529,
      "specific": 9530,
      "kleinen": 9531,
      "successful": 9532,
      "principaux": 9533,
      "Divisie": 9534,
      "Nicar": 9535,
      "Play": 9536,
      "dadurch": 9537,
      "gaull": 9538,
      "gouverneur": 9539,
      "kills": 9540,
      "kilomètres": 9541,
      "initially": 9542,
      "television": 9543,
      "exploit": 9544,
      "Kleinschön": 9545,
      "82ste": 9546,
      "Hamburg": 9547,
      "Times": 9548,
      "épid": 9549,
      "épouse": 9550,
      "teacher": 9551,
      "religion": 9552,
      "religious": 9553,
      "locomotive": 9554,
      "sphère": 9555,
      "plaatsen": 9556,
      "travail": 9557,
      "completed": 9558,
      "bestuurlijke": 9559,
      "naturelle": 9560,
      "frühen": 9561,
      "originele": 9562,
      "Classic": 9563,
      "individuals": 9564,
      "inspiré": 9565,
      "instrumental": 9566,
      "Asia": 9567,
      "Blanche": 9568,
      "Earth": 9569,
      "Hanna": 9570,
      "Hannover": 9571,
      "Labor": 9572,
      "Ländern": 9573,
      "européen": 9574,
      "fondation": 9575,
      "tainment": 9576,
      "tableau": 9577,
      "vlak": 9578,
      "weltmeisterschaft": 9579,
      "looking": 9580,
      "absolute": 9581,
      "aflevering": 9582,
      "accepte": 9583,
      "countries": 9584,
      "Weltmeisterschaft": 9585,
      "Hauptstadt": 9586,
      "américain": 9587,
      "américaine": 9588,
      "Hilf": 9589,
      "Noorse": 9590,
      "Smith": 9591,
      "goods": 9592,
      "lijst": 9593,
      "witte": 9594,
      "évolution": 9595,
      "évoluant": 9596,
      "involved": 9597,
      "increase": 9598,
      "reçu": 9599,
      "omobile": 9600,
      "assistent": 9601,
      "gebouwd": 9602,
      "Spanish": 9603,
      "spectacle": 9604,
      "zogenaamde": 9605,
[...]
